<unk>	0
<s>	0
</s>	0
▁the	-3.0417
▁,	-3.16472
▁.	-3.47951
s	-3.54499
▁of	-3.76025
▁and	-3.85248
ed	-3.95395
▁to	-4.07878
▁in	-4.11249
▁a	-4.18684
▁=	-4.38527
▁"	-4.47731
▁was	-4.69213
@	-4.72204
▁@	-4.7362
▁'	-4.82018
-	-4.8751
▁The	-4.91441
ing	-4.91692
▁	-4.9279
▁on	-5.13088
▁for	-5.1492
▁that	-5.15432
ly	-5.19644
▁with	-5.22371
▁as	-5.23705
▁by	-5.27622
▁)	-5.30604
▁(	-5.30664
▁is	-5.43381
.	-5.58436
▁his	-5.59643
▁from	-5.60768
y	-5.61242
▁at	-5.64419
▁were	-5.802
▁it	-5.85799
▁he	-5.90226
d	-5.91843
▁an	-5.93614
▁In	-5.9845
▁had	-5.99509
▁which	-6.0568
▁be	-6.16974
e	-6.33041
▁not	-6.35842
▁but	-6.3589
▁are	-6.36118
▁;	-6.42317
▁first	-6.42864
▁their	-6.44736
▁–	-6.45256
▁:	-6.47727
▁also	-6.48423
▁her	-6.49007
▁or	-6.54714
▁who	-6.54885
▁one	-6.56412
▁its	-6.56873
▁have	-6.57851
▁A	-6.5819
▁two	-6.61993
▁been	-6.65129
▁has	-6.65362
▁He	-6.65731
▁@,@	-6.67076
▁this	-6.69528
▁I	-6.73182
t	-6.78775
▁after	-6.80084
▁1	-6.80331
▁time	-6.81387
▁would	-6.82829
▁It	-6.85401
▁into	-6.86052
▁other	-6.88192
th	-6.92411
▁they	-6.93111
er	-6.934
▁more	-6.97227
▁over	-6.99086
a	-6.99195
n	-7.02719
▁2	-7.03317
▁when	-7.04182
▁she	-7.04944
▁all	-7.05476
▁him	-7.07208
▁up	-7.09971
▁during	-7.10745
▁most	-7.12784
▁out	-7.1299
▁game	-7.14669
▁On	-7.15579
▁film	-7.16486
▁than	-7.17394
▁about	-7.17396
▁only	-7.17724
▁between	-7.19548
▁later	-7.20422
▁3	-7.20642
▁three	-7.20685
▁new	-7.21593
▁while	-7.24988
▁made	-7.31889
▁season	-7.33247
▁where	-7.33311
▁000	-7.34746
▁New	-7.34834
▁some	-7.35038
es	-7.35485
▁such	-7.35676
▁year	-7.36544
▁before	-7.37043
▁5	-7.38305
▁This	-7.40919
▁/	-7.41011
▁second	-7.41053
o	-7.41201
▁years	-7.43142
▁used	-7.43786
▁4	-7.44168
▁them	-7.4558
▁part	-7.46345
▁being	-7.46576
▁number	-7.46875
▁under	-7.4733
▁through	-7.47559
▁against	-7.48199
▁album	-7.48461
▁song	-7.4905
▁became	-7.52
▁including	-7.53235
▁—	-7.53291
▁can	-7.53816
▁then	-7.54352
▁United	-7.54381
▁no	-7.54572
▁well	-7.54623
▁there	-7.55051
▁After	-7.55555
▁both	-7.55703
▁series	-7.56204
▁team	-7.58579
▁episode	-7.61191
▁four	-7.61273
▁so	-7.63372
▁American	-7.63635
▁like	-7.63949
▁10	-7.64128
▁said	-7.64759
▁many	-7.65343
▁work	-7.66088
though	-7.66336
▁several	-7.6648
▁found	-7.67063
▁known	-7.68447
▁could	-7.68704
▁6	-7.69245
▁did	-7.69329
▁return	-7.71057
▁began	-7.71241
▁B	-7.71524
▁near	-7.72147
▁place	-7.74107
▁early	-7.74641
▁day	-7.74862
ies	-7.74866
▁until	-7.75759
▁released	-7.75848
▁called	-7.76297
▁use	-7.76478
▁As	-7.76864
▁end	-7.77702
▁She	-7.78094
▁million	-7.78757
▁remain	-7.78894
▁along	-7.80294
▁show	-7.80323
▁7	-7.80404
m	-7.8064
▁British	-7.81014
on	-7.82267
▁At	-7.82419
$	-7.83155
▁long	-7.83204
i	-7.83242
▁D	-7.83273
▁these	-7.84659
▁people	-7.84694
▁original	-7.84745
▁8	-7.84771
▁receiv	-7.85225
▁September	-7.86144
▁U	-7.86951
▁back	-7.86997
▁large	-7.87403
▁same	-7.87526
▁World	-7.87775
▁August	-7.87876
▁music	-7.87941
▁States	-7.88416
▁because	-7.88427
▁final	-7.88708
us	-7.88869
▁20	-7.89144
▁around	-7.90296
▁km	-7.90669
▁may	-7.9088
▁War	-7.91224
▁took	-7.9148
▁state	-7.92134
▁May	-7.92442
▁John	-7.92932
▁9	-7.93155
▁0	-7.93201
▁following	-7.93401
▁However	-7.93705
▁al	-7.93862
▁12	-7.93948
▁off	-7.94069
▁October	-7.95176
▁area	-7.96119
▁any	-7.96277
able	-7.97403
▁each	-7.97439
▁five	-7.97781
▁main	-7.98282
▁century	-7.98377
▁C	-7.98748
▁lead	-7.98758
▁life	-7.98776
▁m	-7.98935
st	-7.9945
▁high	-7.99523
▁]	-7.99836
[	-8.00043
▁small	-8.00169
▁June	-8.00384
▁war	-8.00513
▁city	-8.00813
▁M	-8.01018
▁single	-8.01497
est	-8.01556
▁15	-8.01783
▁US	-8.02004
▁July	-8.02479
▁%	-8.02631
▁down	-8.02967
▁November	-8.03161
S	-8.04068
▁Al	-8.04234
▁since	-8.04327
▁March	-8.0487
▁April	-8.05148
▁order	-8.0519
r	-8.0534
▁will	-8.06318
▁set	-8.06398
▁York	-8.06761
▁They	-8.07059
▁group	-8.07564
▁consider	-8.07725
▁great	-8.07958
▁allow	-8.08468
▁attack	-8.08495
▁what	-8.08612
▁line	-8.09403
▁left	-8.10083
▁During	-8.10164
▁11	-8.10353
▁last	-8.10776
▁character	-8.10943
▁December	-8.11081
▁third	-8.11264
▁name	-8.11269
▁due	-8.11273
▁reach	-8.11511
▁North	-8.11521
▁system	-8.11622
▁much	-8.12212
▁if	-8.12523
▁January	-8.12554
▁included	-8.12877
▁another	-8.12934
▁government	-8.13049
▁...	-8.13393
▁own	-8.13517
▁based	-8.13561
▁played	-8.1376
▁home	-8.14108
▁wrote	-8.1445
▁force	-8.14482
▁When	-8.14535
▁change	-8.15227
▁South	-8.15769
▁band	-8.15875
▁death	-8.16022
▁won	-8.16042
▁30	-8.16884
▁start	-8.17725
▁six	-8.18057
▁S	-8.18137
▁R	-8.18141
▁record	-8.1857
▁13	-8.18769
▁16	-8.18912
▁previous	-8.18958
▁18	-8.1897
▁described	-8.19019
▁de	-8.19279
▁family	-8.19396
▁led	-8.19524
▁support	-8.19718
▁just	-8.20125
▁include	-8.2045
▁named	-8.20547
al	-8.20548
▁short	-8.20801
▁14	-8.21017
▁ship	-8.21052
▁make	-8.21582
▁play	-8.21697
▁now	-8.21889
▁world	-8.22122
▁north	-8.22788
▁old	-8.22968
▁By	-8.23354
▁very	-8.2424
▁T	-8.24399
those	-8.24451
▁February	-8.25027
▁late	-8.25098
man	-8.25122
▁still	-8.25169
▁next	-8.25579
▁German	-8.25603
▁form	-8.25692
▁species	-8.25831
▁perform	-8.25894
▁best	-8.25936
▁release	-8.26341
▁result	-8.26376
▁men	-8.26743
▁match	-8.27166
▁video	-8.27491
▁major	-8.27551
▁National	-8.27927
▁His	-8.28508
▁built	-8.28743
▁within	-8.28822
▁role	-8.28823
▁held	-8.28878
▁2010	-8.29309
▁former	-8.29551
▁100	-8.29607
▁French	-8.29654
▁power	-8.29893
▁take	-8.30206
▁do	-8.30527
▁way	-8.31006
▁again	-8.31015
▁side	-8.31562
▁local	-8.31755
um	-8.31801
▁games	-8.32142
▁No	-8.32298
ity	-8.32812
▁south	-8.32843
▁There	-8.32931
▁title	-8.33333
▁17	-8.33405
▁19	-8.33553
▁public	-8.33591
▁however	-8.34158
▁period	-8.34666
▁2008	-8.34671
▁even	-8.35003
▁2009	-8.35274
▁you	-8.35754
▁un	-8.35771
▁school	-8.35948
▁E	-8.36164
▁help	-8.36298
▁top	-8.36428
▁continued	-8.36608
▁often	-8.36822
▁2011	-8.36876
▁water	-8.36962
▁O	-8.37155
▁career	-8.37237
▁among	-8.37266
▁similar	-8.37416
▁25	-8.37457
▁book	-8.37693
▁days	-8.37799
▁came	-8.37922
▁members	-8.38107
▁F	-8.38204
▁storm	-8.38343
▁air	-8.38436
▁follow	-8.38446
en	-8.38534
▁production	-8.38848
▁England	-8.38874
&	-8.38956
▁further	-8.39318
▁For	-8.40256
▁half	-8.40549
▁St	-8.40716
▁One	-8.40838
▁2007	-8.41058
▁point	-8.41392
▁All	-8.41583
▁story	-8.41795
▁player	-8.42053
▁become	-8.4212
▁position	-8.42332
▁City	-8.42443
▁version	-8.42446
▁different	-8.42532
▁English	-8.43261
▁few	-8.43331
▁turn	-8.43337
▁West	-8.43734
▁without	-8.443
▁join	-8.44404
▁2012	-8.44708
▁total	-8.44764
▁history	-8.45003
▁II	-8.4521
▁we	-8.45406
▁River	-8.45671
▁London	-8.46031
▁P	-8.46426
▁King	-8.46763
▁written	-8.47745
▁full	-8.4829
l	-8.48324
▁land	-8.49639
▁though	-8.50331
▁given	-8.50341
▁re	-8.50464
▁University	-8.50771
▁gave	-8.50861
▁track	-8.51207
▁close	-8.5124
▁21	-8.51382
▁east	-8.51541
▁While	-8.51716
▁act	-8.51937
▁per	-8.52046
an	-8.52148
in	-8.52418
▁control	-8.52426
▁service	-8.52744
▁company	-8.53111
▁went	-8.53232
▁initial	-8.53539
▁week	-8.53773
▁caus	-8.53808
▁published	-8.53913
▁24	-8.54148
▁town	-8.54314
▁building	-8.54418
▁2006	-8.54689
having	-8.54724
▁man	-8.54774
▁lost	-8.54827
▁west	-8.54922
▁reported	-8.55457
▁stated	-8.55496
▁particular	-8.55575
▁performance	-8.556
▁According	-8.56305
▁list	-8.56768
▁never	-8.56877
▁To	-8.57165
▁common	-8.57484
▁General	-8.57563
▁country	-8.57717
▁using	-8.58397
▁low	-8.58459
▁suggest	-8.58707
▁father	-8.59098
▁State	-8.59152
▁making	-8.59246
▁move	-8.59299
▁strong	-8.59506
▁These	-8.59512
▁right	-8.59567
▁aircraft	-8.59653
▁pass	-8.59674
▁produc	-8.59711
▁Australia	-8.59735
▁run	-8.59773
▁military	-8.59785
▁recorded	-8.598
▁himself	-8.5988
▁2013	-8.5997
▁club	-8.60448
le	-8.61214
▁featur	-8.61391
▁development	-8.61391
▁forces	-8.61421
▁real	-8.61723
▁claim	-8.61758
▁ships	-8.61885
▁William	-8.62041
▁fire	-8.62215
2	-8.62631
▁head	-8.62828
ic	-8.63064
▁cover	-8.63365
▁Australian	-8.63539
▁toward	-8.63546
▁James	-8.63566
▁direct	-8.63635
▁h	-8.63785
▁ft	-8.63946
▁22	-8.64128
▁Army	-8.64562
▁Division	-8.64628
▁K	-8.64642
▁L	-8.64838
▁G	-8.64894
▁less	-8.64903
▁good	-8.65144
▁America	-8.65322
▁how	-8.65356
▁H	-8.65418
▁design	-8.65779
▁died	-8.65781
▁class	-8.65812
▁League	-8.65988
▁political	-8.66149
▁George	-8.66181
▁house	-8.66343
▁sign	-8.66535
▁present	-8.66777
▁developed	-8.66807
▁An	-8.66981
▁children	-8.67069
▁months	-8.67338
▁win	-8.67354
▁50	-8.67452
▁across	-8.67836
▁Street	-8.68123
▁range	-8.68314
▁official	-8.68464
▁away	-8.68648
▁Park	-8.68665
▁style	-8.69007
▁age	-8.69123
▁felt	-8.69223
▁characters	-8.69981
ers	-8.70251
▁announced	-8.70337
▁songs	-8.70369
re	-8.70415
▁sent	-8.70527
▁television	-8.7057
▁Japanese	-8.70701
▁County	-8.70803
▁23	-8.71237
▁seven	-8.71522
▁2005	-8.71642
▁level	-8.71644
▁get	-8.71696
▁should	-8.71747
▁successful	-8.71902
▁With	-8.72259
▁route	-8.72324
▁eight	-8.72381
▁eventual	-8.7241
▁son	-8.72595
▁various	-8.72654
▁station	-8.72703
▁’	-8.72774
ce	-8.72806
▁seen	-8.72945
▁success	-8.73234
▁ask	-8.73611
▁thought	-8.74033
▁2014	-8.74058
▁need	-8.74644
▁contain	-8.75029
▁Road	-8.75246
▁tour	-8.75435
▁writing	-8.75676
▁campaign	-8.75894
▁addition	-8.7607
▁killed	-8.76255
▁tropical	-8.76268
▁road	-8.76397
▁command	-8.76443
▁throughout	-8.76603
ism	-8.76609
▁national	-8.76684
▁creat	-8.76728
▁fight	-8.76771
▁battle	-8.76781
▁race	-8.76802
▁member	-8.77118
▁areas	-8.77345
▁little	-8.77422
▁stage	-8.77438
▁white	-8.77571
h	-8.77604
▁look	-8.77782
▁complete	-8.77791
▁40	-8.77893
▁debut	-8.77975
▁W	-8.78009
▁players	-8.78071
▁peak	-8.78114
▁ten	-8.78137
▁able	-8.7839
▁award	-8.78737
▁28	-8.78776
▁mm	-8.78886
▁entire	-8.79098
ness	-8.79168
▁does	-8.79243
▁!	-8.79277
▁involv	-8.79302
▁serv	-8.79346
▁established	-8.79448
▁too	-8.79534
▁27	-8.79818
▁general	-8.79933
▁miles	-8.8007
ally	-8.80284
▁appeared	-8.80476
▁women	-8.80661
▁Air	-8.80677
▁decided	-8.81084
▁black	-8.81423
▁times	-8.81604
▁light	-8.81638
▁night	-8.81714
▁House	-8.81722
▁post	-8.82057
moved	-8.82285
▁body	-8.82329
▁East	-8.82688
▁Royal	-8.82758
▁action	-8.82862
▁sold	-8.82922
▁feet	-8.82982
▁live	-8.83046
▁features	-8.83068
▁David	-8.83095
▁together	-8.83395
▁26	-8.83443
u	-8.83545
▁located	-8.83575
▁points	-8.83942
▁added	-8.84077
▁France	-8.84175
▁damage	-8.84228
▁once	-8.84259
▁population	-8.84261
▁average	-8.84273
taken	-8.84309
▁Michael	-8.84855
▁instead	-8.84879
▁law	-8.8507
▁mi	-8.85121
▁important	-8.85198
▁site	-8.85505
▁front	-8.85625
▁J	-8.85712
▁non	-8.8588
▁ground	-8.8607
▁completed	-8.86454
▁every	-8.86689
▁open	-8.86756
▁2004	-8.86995
▁formed	-8.87007
▁saw	-8.87017
▁field	-8.8729
rather	-8.87339
▁popular	-8.87377
▁scene	-8.87671
▁playing	-8.87849
▁behind	-8.87991
▁replac	-8.88298
▁project	-8.88512
▁believ	-8.88716
▁N	-8.88833
▁construction	-8.89048
▁2015	-8.89278
se	-8.89433
▁see	-8.89712
▁case	-8.89717
▁event	-8.89784
▁opened	-8.90015
by	-8.90257
▁subsequent	-8.90421
g	-8.90543
▁rest	-8.9064
▁go	-8.90802
▁free	-8.90829
▁heavy	-8.90833
▁29	-8.90836
▁my	-8.91018
▁San	-8.91052
▁You	-8.91059
▁Some	-8.91109
▁guns	-8.91139
▁party	-8.9133
▁upon	-8.92052
▁put	-8.92102
▁Henry	-8.92117
▁lack	-8.92149
▁almost	-8.92151
k	-8.92222
▁noted	-8.92278
▁Robert	-8.92305
▁V	-8.92325
▁born	-8.92568
▁rock	-8.92734
▁2000	-8.92924
▁Battle	-8.92968
▁Best	-8.93048
▁We	-8.93124
▁fourth	-8.93203
▁scored	-8.93212
▁region	-8.93345
▁current	-8.93454
▁young	-8.93599
▁hit	-8.93641
▁office	-8.93694
▁view	-8.93696
▁200	-8.93718
▁School	-8.93778
▁example	-8.93921
▁provided	-8.93985
▁rank	-8.94027
▁Other	-8.94067
▁brought	-8.9425
▁continue	-8.94269
▁me	-8.94409
▁individual	-8.94645
▁extend	-8.94797
▁least	-8.94853
▁mother	-8.94935
▁weeks	-8.9558
▁Washington	-8.95696
▁working	-8.95732
▁chart	-8.95904
▁special	-8.95941
▁ever	-8.96025
▁review	-8.96073
▁Man	-8.96243
▁modern	-8.96333
▁visit	-8.96442
▁either	-8.96449
▁500	-8.96582
▁worked	-8.96601
▁wanted	-8.96865
▁troops	-8.96902
▁Music	-8.97153
▁month	-8.9719
▁European	-8.97218
▁wife	-8.97316
▁critics	-8.97402
▁Europe	-8.97527
▁army	-8.97883
▁quick	-8.98102
▁2003	-8.98147
▁Follow	-8.98263
espite	-8.98315
▁co	-8.98433
▁novel	-8.98575
▁mid	-8.98734
▁prais	-8.98755
▁wide	-8.9877
▁far	-8.9878
▁crew	-8.98955
▁experience	-8.98965
▁generally	-8.99515
▁President	-8.99534
▁works	-8.99878
▁island	-9.00068
▁hurricane	-9.00174
▁First	-9.00369
▁Japan	-9.00651
▁opening	-9.00862
▁cause	-9.00934
▁runs	-9.01059
▁Great	-9.01125
▁mph	-9.01224
▁Cup	-9.01352
▁victory	-9.01358
▁discover	-9.01609
▁Two	-9.01664
▁process	-9.02114
▁highway	-9.0218
▁sound	-9.02485
▁gun	-9.02643
▁Route	-9.02713
▁X	-9.02719
▁Star	-9.02727
▁events	-9.03163
▁shot	-9.03427
▁appear	-9.03612
▁saying	-9.03751
▁finished	-9.03844
▁usual	-9.03846
▁soon	-9.03936
▁hours	-9.03969
▁designed	-9.04159
▁director	-9.04327
▁fail	-9.0438
▁Black	-9.04474
▁room	-9.04653
▁length	-9.04759
▁love	-9.04908
▁largest	-9.05112
▁met	-9.05148
▁southern	-9.05167
▁studio	-9.05168
▁possible	-9.05208
▁arriv	-9.05441
▁Paul	-9.05532
▁31	-9.05629
▁business	-9.05648
▁term	-9.05834
▁earlier	-9.05914
▁highest	-9.05927
▁International	-9.05954
▁2001	-9.0597
men	-9.05974
▁goal	-9.06037
c	-9.0605
▁available	-9.06137
▁significant	-9.06173
▁court	-9.06181
▁Charles	-9.06206
▁accept	-9.06212
▁training	-9.06621
▁Navy	-9.06924
▁White	-9.07094
▁Thomas	-9.07118
▁Kingdom	-9.07216
▁face	-9.07321
▁From	-9.07399
▁minutes	-9.07422
▁°	-9.07472
▁decision	-9.07565
▁gain	-9.07639
▁appearance	-9.07687
▁hand	-9.07986
▁human	-9.08023
▁lower	-9.08473
nd	-9.0851
▁maintain	-9.08587
▁cast	-9.08737
▁base	-9.08824
▁contract	-9.0886
▁issue	-9.09132
▁northern	-9.09181
▁relationship	-9.09451
▁increased	-9.09566
▁2002	-9.09716
▁sea	-9.09799
▁attempt	-9.09802
▁La	-9.09922
▁league	-9.10063
▁Canada	-9.10296
▁difficult	-9.10321
▁create	-9.10322
▁Indian	-9.10338
▁car	-9.10919
▁Hall	-9.10923
▁focus	-9.11008
▁nine	-9.11412
▁taking	-9.11457
▁find	-9.11528
▁introduc	-9.11557
▁immediate	-9.11873
▁central	-9.1197
▁others	-9.12037
is	-9.12106
▁regard	-9.12158
▁break	-9.12358
ton	-9.12633
▁Award	-9.12657
▁interest	-9.12668
▁units	-9.12703
▁Court	-9.1284
▁Her	-9.12843
▁come	-9.1295
▁California	-9.13019
▁better	-9.13091
▁defeat	-9.13206
▁must	-9.13305
▁positive	-9.13329
z	-9.13565
▁round	-9.13824
▁size	-9.13875
▁voice	-9.14052
▁clear	-9.14197
▁Union	-9.14198
▁enough	-9.14277
A	-9.14291
▁church	-9.14518
▁star	-9.14612
▁according	-9.14747
ry	-9.14791
▁above	-9.14818
▁commercial	-9.14884
▁Game	-9.14947
▁social	-9.14951
▁spen	-9.15053
▁influence	-9.15053
▁India	-9.15064
▁recording	-9.15092
▁outside	-9.15101
▁ended	-9.15291
▁beginning	-9.1533
ation	-9.15516
▁Peter	-9.15517
▁going	-9.15578
▁relative	-9.15595
▁told	-9.15688
▁winds	-9.15706
▁additional	-9.15728
▁Island	-9.15783
C	-9.15806
▁1990	-9.15914
▁art	-9.15975
▁Company	-9.16106
▁Smith	-9.16479
▁response	-9.16931
▁required	-9.16968
▁surface	-9.17141
▁Germany	-9.17732
▁itself	-9.17792
▁score	-9.17802
▁College	-9.17893
▁evidence	-9.17918
▁coast	-9.17932
▁elements	-9.17984
▁sometime	-9.17999
▁pressure	-9.18046
▁give	-9.18188
ion	-9.18207
▁section	-9.18303
▁despite	-9.18323
3	-9.18501
▁village	-9.1875
▁keep	-9.18781
▁Force	-9.18787
£	-9.18989
▁?	-9.18998
▁Act	-9.1923
▁develop	-9.19291
▁idea	-9.1955
▁musical	-9.19565
▁interview	-9.19642
▁prevent	-9.19661
▁brother	-9.19681
▁person	-9.19732
▁consist	-9.20077
▁international	-9.2008
▁poor	-9.20098
▁UK	-9.20124
▁anti	-9.20126
▁speed	-9.2023
▁Red	-9.20303
▁High	-9.20521
▁Western	-9.20563
side	-9.20613
▁future	-9.20711
▁election	-9.2072
▁approach	-9.20795
▁recent	-9.20983
ary	-9.2104
▁Times	-9.2112
▁Richard	-9.21197
▁enter	-9.21199
▁reviews	-9.21241
▁Church	-9.2131
▁center	-9.21363
▁increase	-9.21587
▁rule	-9.21855
▁space	-9.21953
▁whom	-9.22056
▁football	-9.22057
▁program	-9.22076
▁appoint	-9.22104
▁police	-9.22202
▁cost	-9.22283
▁female	-9.2241
▁Hill	-9.22462
▁suffer	-9.22487
▁That	-9.22496
▁magazine	-9.2273
▁Championship	-9.22871
▁king	-9.22886
▁already	-9.22943
▁attend	-9.23186
▁plan	-9.23246
▁serve	-9.23256
▁NY	-9.23506
▁Most	-9.23561
▁Los	-9.23633
▁1970	-9.23647
▁host	-9.23653
▁bridge	-9.23749
▁loss	-9.23987
▁western	-9.2416
▁1980	-9.24169
▁meeting	-9.24193
less	-9.24208
▁Britain	-9.24212
▁report	-9.24235
▁structure	-9.2429
▁protect	-9.24415
▁Sea	-9.2444
▁study	-9.24794
▁president	-9.25051
▁travel	-9.25085
▁money	-9.25134
▁material	-9.25179
ia	-9.25183
▁Me	-9.25192
▁cross	-9.25354
▁Awards	-9.25363
▁especial	-9.25495
▁fleet	-9.25534
▁summer	-9.25647
▁Later	-9.25724
▁produce	-9.25733
▁past	-9.2575
D	-9.25794
▁Up	-9.26091
▁Christian	-9.26235
▁want	-9.26333
▁cut	-9.26405
▁might	-9.26529
▁carri	-9.26557
▁community	-9.26589
▁estimated	-9.26622
▁red	-9.26666
▁select	-9.26946
▁eastern	-9.26978
▁audience	-9.27028
▁park	-9.27065
▁1999	-9.2711
▁media	-9.2712
▁radio	-9.27323
▁Early	-9.27519
▁actual	-9.27624
▁Virginia	-9.27734
rd	-9.27765
▁conduct	-9.27782
▁larger	-9.27807
▁60	-9.27871
▁becoming	-9.27881
▁feature	-9.27915
▁propos	-9.28002
▁unit	-9.28043
▁Final	-9.28226
▁date	-9.28266
▁provide	-9.2838
▁market	-9.28434
▁percent	-9.28509
▁research	-9.28556
▁groups	-9.28642
▁latter	-9.28768
ve	-9.28871
▁personal	-9.28902
▁earn	-9.29115
▁defeated	-9.29155
▁type	-9.29211
x	-9.29272
▁writer	-9.29278
▁Jackson	-9.29337
▁winning	-9.29404
▁fact	-9.2954
▁division	-9.29641
▁lines	-9.29669
▁river	-9.29777
▁Bay	-9.29919
▁If	-9.30026
▁referr	-9.30112
▁Soviet	-9.30131
▁states	-9.30159
▁practice	-9.30202
▁specific	-9.30301
▁staff	-9.30568
▁God	-9.30584
▁food	-9.30708
▁entered	-9.3071
▁amount	-9.30732
▁brief	-9.30957
▁leaving	-9.31069
▁Spanish	-9.31079
▁daughter	-9.31086
▁sell	-9.31143
▁Roman	-9.3123
▁students	-9.31237
▁Club	-9.31268
▁seem	-9.31577
▁limited	-9.31671
▁movement	-9.31743
▁destroyed	-9.31865
▁Grand	-9.31929
▁Association	-9.32218
▁overall	-9.32537
▁question	-9.32558
▁Edward	-9.32639
▁1960	-9.32749
▁effects	-9.32789
▁Party	-9.32799
▁our	-9.32898
▁course	-9.33103
▁fall	-9.33217
▁private	-9.33407
▁Second	-9.33438
▁regular	-9.33523
▁certain	-9.33551
▁language	-9.3371
▁running	-9.33712
▁intended	-9.33743
▁Chicago	-9.33953
or	-9.34163
▁pre	-9.34208
▁35	-9.34276
▁stay	-9.34294
▁Chinese	-9.34301
▁My	-9.34689
▁1998	-9.34718
▁effect	-9.34767
▁Many	-9.348
▁married	-9.34812
▁Council	-9.34978
▁parts	-9.35099
▁tell	-9.35168
▁Day	-9.35278
▁producer	-9.35387
▁Brown	-9.35404
▁Russian	-9.35434
▁scenes	-9.35446
▁forward	-9.35453
▁know	-9.35507
▁elect	-9.3552
▁Love	-9.35677
▁Lake	-9.35698
▁natural	-9.36137
▁self	-9.36274
▁De	-9.36361
▁trial	-9.36382
▁critical	-9.36391
▁bring	-9.36437
▁vote	-9.36614
▁planned	-9.36803
▁increasing	-9.36943
▁longer	-9.36962
▁active	-9.37054
▁traditional	-9.37067
▁Pacific	-9.37132
▁higher	-9.37201
▁captured	-9.37252
▁compared	-9.37342
▁Johnson	-9.3747
▁living	-9.3751
▁approximately	-9.37518
b	-9.3759
▁Mary	-9.37766
▁fifth	-9.37789
▁operat	-9.37842
▁History	-9.37861
▁themselves	-9.37863
▁done	-9.37886
▁singer	-9.37887
▁professional	-9.37918
▁rights	-9.38038
▁leader	-9.38053
▁related	-9.38088
▁offer	-9.38138
▁Rock	-9.38154
▁pair	-9.38313
▁t	-9.3848
▁leave	-9.38498
▁Billboard	-9.38533
▁thus	-9.38869
▁friend	-9.38923
▁coach	-9.38951
▁films	-9.38972
son	-9.39029
▁prior	-9.39147
▁broadcast	-9.3942
▁manager	-9.3942
▁child	-9.39428
▁probabl	-9.39675
▁fans	-9.397
▁whether	-9.39718
▁woman	-9.39723
▁300	-9.39818
▁shows	-9.40038
▁soldiers	-9.40167
▁supported	-9.40245
▁Since	-9.40314
▁copies	-9.40483
▁test	-9.40522
▁deal	-9.40533
▁1997	-9.4058
▁Queen	-9.4058
▁typical	-9.40698
▁Atlantic	-9.40755
▁location	-9.40811
▁lyrics	-9.40926
▁subject	-9.40943
▁operations	-9.40968
▁believe	-9.41
▁gold	-9.4107
▁separate	-9.41095
▁deep	-9.41234
▁countries	-9.41322
▁pay	-9.41421
greed	-9.4144
▁via	-9.41444
▁Florida	-9.41623
▁80	-9.41637
▁cm	-9.41711
▁tri	-9.41859
▁Highway	-9.41868
▁request	-9.42019
▁Both	-9.42105
▁pilot	-9.42251
▁fell	-9.42297
nother	-9.42415
land	-9.42505
▁rate	-9.42565
▁Italian	-9.42771
▁think	-9.42793
▁China	-9.42816
▁share	-9.42841
▁Canadian	-9.42906
▁mixed	-9.42918
▁minute	-9.42969
▁stars	-9.43042
▁reduc	-9.43094
▁expand	-9.43194
▁Texas	-9.43225
▁portion	-9.43256
▁removed	-9.4329
▁historian	-9.43447
▁trade	-9.43493
▁health	-9.43516
▁always	-9.43662
▁Squadron	-9.43668
▁status	-9.43718
▁Center	-9.43738
▁ran	-9.43853
▁stop	-9.43853
▁advance	-9.43867
▁network	-9.43947
na	-9.43982
el	-9.4406
▁Lord	-9.44115
▁commission	-9.44209
▁Mark	-9.44847
▁officers	-9.45025
▁something	-9.45086
ty	-9.45123
▁Africa	-9.45137
▁tracks	-9.45153
ous	-9.45252
▁avoid	-9.45554
▁majority	-9.4559
▁tons	-9.45672
▁teams	-9.45719
▁Martin	-9.45759
▁exist	-9.45833
▁Dr	-9.45838
▁model	-9.45872
▁flight	-9.45882
▁got	-9.46045
▁Jack	-9.461
▁refus	-9.46127
▁problems	-9.46195
▁Year	-9.46336
▁offered	-9.46468
▁damaged	-9.46715
▁press	-9.46817
▁pop	-9.4696
▁composed	-9.47086
ar	-9.47144
▁nature	-9.47156
▁hour	-9.47286
▁plans	-9.47303
▁episodes	-9.47351
▁access	-9.47401
▁Empire	-9.4742
▁script	-9.47465
▁potential	-9.47552
▁Earth	-9.47558
▁buildings	-9.47578
▁45	-9.47725
ley	-9.47787
▁Central	-9.47806
▁culture	-9.4798
▁respectively	-9.48071
▁numerous	-9.48294
▁1995	-9.48295
▁revealed	-9.48376
▁III	-9.48501
▁Angeles	-9.48516
▁hard	-9.48537
▁associat	-9.48665
1	-9.48794
▁grant	-9.48868
▁yet	-9.48902
▁inspired	-9.48923
▁centre	-9.49103
▁terms	-9.4913
▁minor	-9.49316
▁lived	-9.49328
▁Sir	-9.49446
▁guitar	-9.49459
▁moving	-9.49512
▁drive	-9.49517
▁occurred	-9.4953
▁issu	-9.49718
ville	-9.49822
ne	-9.49831
▁launched	-9.49856
▁shown	-9.49885
▁Group	-9.49922
▁upper	-9.49927
▁TV	-9.50008
▁board	-9.50015
▁But	-9.50069
▁depression	-9.50156
▁Test	-9.50233
▁treat	-9.50409
▁occur	-9.5041
▁information	-9.50467
▁2016	-9.50476
▁1996	-9.50576
▁1950	-9.50611
▁port	-9.50996
▁Greek	-9.51076
▁wind	-9.51088
▁appears	-9.5111
▁legal	-9.51286
▁defend	-9.51291
▁services	-9.51363
▁operation	-9.51367
▁conditions	-9.51377
▁ball	-9.51388
▁goals	-9.51434
▁Don	-9.51687
▁whole	-9.51725
▁direction	-9.51775
▁castle	-9.51807
▁El	-9.51832
▁dark	-9.51887
▁Green	-9.5193
▁sister	-9.51948
▁male	-9.51958
▁transport	-9.52005
▁slow	-9.52043
▁complex	-9.52145
▁officer	-9.52168
▁attempted	-9.52188
▁1994	-9.52365
▁industry	-9.52468
▁Corps	-9.52501
▁Tour	-9.52576
▁session	-9.52654
▁70	-9.52759
▁commander	-9.52763
▁artist	-9.52791
▁heavi	-9.5286
▁double	-9.52876
▁assigned	-9.529
▁feel	-9.52917
▁yards	-9.52977
▁c	-9.53102
▁attention	-9.53107
▁Big	-9.53142
▁display	-9.53187
▁economic	-9.53249
▁DVD	-9.53447
▁commented	-9.5349
▁border	-9.53629
▁expected	-9.53795
▁severe	-9.53808
▁moment	-9.53868
▁Michigan	-9.54009
▁education	-9.54191
▁plot	-9.54272
▁fish	-9.54415
▁impact	-9.54485
▁Team	-9.54504
▁primary	-9.54575
ian	-9.54669
▁sales	-9.54689
▁below	-9.54899
▁competition	-9.55006
▁issues	-9.55079
▁Wales	-9.55169
▁closed	-9.5524
▁Minister	-9.55349
▁letter	-9.55357
▁standard	-9.5542
▁1940	-9.55432
▁demand	-9.55462
▁key	-9.55638
▁capital	-9.55904
ches	-9.55936
▁distance	-9.56128
▁ability	-9.56145
▁giving	-9.56185
▁African	-9.56216
▁declared	-9.56217
▁Time	-9.56222
▁dead	-9.56237
▁resident	-9.56243
▁concept	-9.56244
▁word	-9.56251
▁religious	-9.56404
▁hop	-9.56567
▁Congress	-9.56592
▁Major	-9.56634
▁marriage	-9.56667
▁retain	-9.56847
▁rapid	-9.56946
▁Old	-9.57159
▁matches	-9.57184
▁Scott	-9.57238
▁normal	-9.57267
▁ultimate	-9.57285
ish	-9.5739
▁75	-9.57397
ta	-9.5773
▁middle	-9.57748
▁nation	-9.57756
▁friends	-9.5786
▁serious	-9.57882
▁describe	-9.5809
▁mass	-9.58179
▁Hot	-9.58261
▁takes	-9.58355
▁Several	-9.5841
▁1992	-9.58473
▁Sun	-9.58543
▁00	-9.58591
▁financial	-9.58606
▁conflict	-9.58786
▁decade	-9.58938
▁stone	-9.58947
▁energy	-9.59013
▁adopt	-9.59115
▁Film	-9.59124
▁Stone	-9.59137
▁edition	-9.59246
▁attacks	-9.59254
▁account	-9.59274
▁32	-9.5933
▁Tom	-9.59334
▁contact	-9.59683
▁author	-9.59861
▁So	-9.59909
▁constructed	-9.60038
▁annual	-9.60078
▁horse	-9.60087
▁vocals	-9.60183
▁mention	-9.60228
▁movie	-9.60466
com	-9.60479
▁theme	-9.60505
▁Mexico	-9.60546
▁temperature	-9.60659
▁metal	-9.60694
ie	-9.60758
▁Like	-9.61031
▁plant	-9.61061
▁effort	-9.61071
▁defense	-9.61214
▁Le	-9.61228
▁draft	-9.61304
▁1930	-9.61457
▁college	-9.61514
▁screen	-9.61565
▁source	-9.61591
▁transferr	-9.61618
▁90	-9.61958
▁Madonna	-9.62077
▁Fox	-9.62084
▁physical	-9.62175
▁kind	-9.62232
ine	-9.62305
▁twenty	-9.62422
▁Chris	-9.62446
▁oil	-9.62464
▁cyclone	-9.6247
▁add	-9.62525
▁1993	-9.62525
▁stating	-9.62543
▁receive	-9.62561
▁1991	-9.62564
▁Service	-9.62906
▁directly	-9.62912
▁argu	-9.62944
▁fund	-9.6299
▁Jones	-9.63051
▁call	-9.63091
▁makes	-9.63147
▁combat	-9.63197
▁highly	-9.63202
▁concert	-9.63275
▁Frank	-9.63278
▁Department	-9.63373
▁Scotland	-9.63399
▁means	-9.63547
▁escape	-9.63574
▁hold	-9.636
▁Zealand	-9.63796
▁morning	-9.638
▁ending	-9.63824
▁performances	-9.63917
▁Infantry	-9.63918
▁Their	-9.6411
▁foot	-9.64129
▁Three	-9.64256
▁science	-9.64295
▁dropp	-9.643
▁captain	-9.64301
▁executive	-9.64347
▁+	-9.64386
▁Z	-9.64471
▁Creek	-9.64478
▁charge	-9.64535
▁yard	-9.64544
▁build	-9.64628
▁represent	-9.64675
▁responsible	-9.64844
▁Over	-9.64846
ist	-9.64906
▁400	-9.64982
▁Bill	-9.65005
▁managed	-9.65025
B	-9.65142
▁mission	-9.65163
▁Prince	-9.65169
▁notes	-9.6523
▁dance	-9.65264
▁kept	-9.65541
▁Bridge	-9.65617
▁Catholic	-9.65686
▁chief	-9.65881
ll	-9.65943
▁variety	-9.65978
quality	-9.6602
▁depict	-9.66034
▁presented	-9.66207
▁color	-9.66278
time	-9.66348
▁Battalion	-9.66469
▁wall	-9.66498
▁scale	-9.66676
▁square	-9.66709
▁Committee	-9.66776
▁engine	-9.6713
▁inside	-9.67243
▁meant	-9.67298
▁Records	-9.6739
▁efforts	-9.67467
▁divid	-9.6752
▁search	-9.6755
▁resulting	-9.67607
te	-9.67615
▁marked	-9.67617
▁oppos	-9.67776
▁formation	-9.67872
▁figure	-9.68123
▁1942	-9.68273
▁begins	-9.68342
▁portray	-9.68421
▁presence	-9.68461
▁bad	-9.68561
▁metres	-9.68584
▁engage	-9.68714
▁piece	-9.68754
▁Society	-9.68913
▁levels	-9.6907
▁wing	-9.6909
▁fast	-9.69121
▁Super	-9.69214
f	-9.69265
▁content	-9.69282
▁concern	-9.69329
▁books	-9.69349
▁records	-9.69352
▁box	-9.69378
▁Fort	-9.69428
▁Hurricane	-9.69447
▁train	-9.69459
▁situation	-9.69464
▁collection	-9.6949
▁speech	-9.69554
▁And	-9.69557
▁Latin	-9.69631
▁words	-9.69732
▁viewers	-9.69737
▁camp	-9.6975
▁Stephen	-9.69816
▁enjoy	-9.69859
▁write	-9.69965
▁hundred	-9.70103
▁federal	-9.70113
▁enemy	-9.70119
▁Oxford	-9.70133
▁winter	-9.7018
▁extreme	-9.70188
▁Mr	-9.70193
▁arrest	-9.70244
▁Captain	-9.70257
▁traffic	-9.70269
p	-9.70301
▁forest	-9.70303
ham	-9.70424
▁positions	-9.7045
▁inch	-9.70661
▁Republican	-9.7075
▁value	-9.70819
▁Chief	-9.70954
▁Southern	-9.70968
▁Boston	-9.7101
▁actor	-9.71018
▁multiple	-9.71026
▁Lee	-9.71228
▁concluded	-9.71258
▁royal	-9.71258
▁sex	-9.71272
▁Manchester	-9.71372
▁target	-9.71383
▁Harrison	-9.71464
▁prominent	-9.71469
▁meaning	-9.71479
▁weaken	-9.71512
▁setting	-9.7154
▁property	-9.7157
▁scoring	-9.71581
▁primarily	-9.71603
▁Brigade	-9.71609
▁independent	-9.71616
▁stories	-9.71631
ance	-9.71706
▁starting	-9.71709
▁risk	-9.71709
▁era	-9.71717
ecause	-9.71828
▁cases	-9.71868
▁extensive	-9.71876
▁Regiment	-9.72002
▁Before	-9.72016
▁job	-9.72156
▁read	-9.72188
▁Vietnam	-9.72369
▁rating	-9.72386
▁Little	-9.72483
▁observed	-9.72486
▁us	-9.72565
▁Line	-9.72583
▁1944	-9.72697
ford	-9.72752
▁rough	-9.72815
▁invasion	-9.72936
▁things	-9.72957
▁Cross	-9.73009
▁Post	-9.73091
▁paid	-9.73261
▁Louis	-9.73349
▁Saint	-9.73448
▁sense	-9.73468
▁companies	-9.73477
▁link	-9.73481
▁Life	-9.73567
▁n	-9.73593
▁33	-9.73634
▁quarter	-9.73655
▁onto	-9.73673
▁Live	-9.73707
▁blood	-9.73728
▁slightly	-9.7407
▁houses	-9.74105
▁historical	-9.74211
ities	-9.74267
▁animals	-9.7432
▁meet	-9.74339
▁say	-9.74356
▁Series	-9.74363
▁powerful	-9.74462
▁parents	-9.74483
▁Be	-9.74536
▁reception	-9.74576
▁schools	-9.74587
▁heart	-9.74615
▁broke	-9.74642
▁BBC	-9.74825
et	-9.75037
▁today	-9.75082
▁reject	-9.75096
▁More	-9.75198
▁innings	-9.75234
▁maximum	-9.75237
▁participat	-9.75362
▁identifi	-9.75424
▁convert	-9.75585
ma	-9.75733
▁Academy	-9.75791
▁criticiz	-9.75832
▁aid	-9.75835
▁1920	-9.75854
4	-9.75854
▁policy	-9.75906
▁Museum	-9.75982
▁1945	-9.76028
▁Paris	-9.76095
▁1941	-9.76159
▁establish	-9.76186
▁designated	-9.76243
▁society	-9.7626
▁struck	-9.76285
▁Entertainment	-9.76363
▁block	-9.76694
▁numbers	-9.76715
▁strength	-9.76784
▁activity	-9.76787
▁Long	-9.768
▁hospital	-9.76809
▁attempts	-9.76813
▁couple	-9.76829
▁combined	-9.76845
raised	-9.7704
▁battleship	-9.77155
▁Italy	-9.77157
▁capture	-9.77203
▁opportunit	-9.77212
▁names	-9.7722
▁thousand	-9.77264
▁writers	-9.77371
▁naval	-9.77372
▁label	-9.7749
▁discuss	-9.77539
▁reflect	-9.77543
▁Avenue	-9.77606
▁Joseph	-9.77771
▁fill	-9.77781
▁background	-9.7785
▁p	-9.77872
▁contrast	-9.77874
▁calling	-9.77961
▁your	-9.78112
ey	-9.78168
▁reference	-9.78178
▁Games	-9.78363
▁foreign	-9.78426
▁Under	-9.78454
▁ice	-9.7847
▁weather	-9.78479
▁nominated	-9.78487
▁blue	-9.78534
▁Co	-9.7854
▁Williams	-9.78678
▁succeed	-9.78714
▁forms	-9.78725
▁Ireland	-9.78759
▁incident	-9.78901
ch	-9.79025
▁v	-9.79038
▁husband	-9.79167
▁lot	-9.79212
▁proved	-9.79229
▁promoted	-9.7933
▁confirmed	-9.79345
▁150	-9.7938
ra	-9.79572
▁Victoria	-9.79624
▁raid	-9.79651
▁image	-9.79688
la	-9.79742
▁surrounding	-9.79893
▁1989	-9.79943
▁Republic	-9.79953
▁widely	-9.79969
▁native	-9.7997
▁coming	-9.7999
▁floor	-9.80034
▁1943	-9.80264
▁explained	-9.80294
▁advanc	-9.80352
▁sixth	-9.8044
▁county	-9.80455
▁Parliament	-9.80463
▁talk	-9.80471
▁sides	-9.80488
▁owned	-9.80509
▁sough	-9.80574
▁Jim	-9.80647
▁effective	-9.80682
▁bill	-9.80698
▁Art	-9.80735
▁Tropical	-9.80815
▁reason	-9.81027
▁sources	-9.81035
▁theory	-9.81077
▁student	-9.81108
▁document	-9.81201
▁district	-9.8133
▁passing	-9.81364
▁raise	-9.81486
▁website	-9.81493
▁cities	-9.81532
▁becomes	-9.81623
▁37	-9.81628
▁save	-9.81671
▁soundtrack	-9.8168
▁weight	-9.81692
▁Valley	-9.8173
▁36	-9.81733
▁attract	-9.81742
▁sexual	-9.81829
▁armor	-9.81845
▁organization	-9.81852
▁expressed	-9.81893
▁true	-9.81946
▁ring	-9.8197
▁artillery	-9.82192
▁begin	-9.8224
▁push	-9.82305
▁artists	-9.82355
▁agreement	-9.82384
▁seat	-9.82448
▁matter	-9.82481
▁Dutch	-9.82492
▁actions	-9.82629
é	-9.82642
▁Home	-9.82671
▁Korean	-9.8276
▁kg	-9.82872
▁Show	-9.83092
▁don	-9.83194
▁Carolina	-9.83606
▁says	-9.83677
▁alone	-9.83925
▁reign	-9.83926
▁failure	-9.83959
▁senior	-9.84033
▁secret	-9.84065
▁apparent	-9.84081
▁appeal	-9.84128
▁negative	-9.84134
▁ahead	-9.8415
▁coin	-9.8422
▁studies	-9.84288
▁seek	-9.84307
▁kilometre	-9.84383
▁Fleet	-9.84442
▁improv	-9.84493
▁detail	-9.84502
▁What	-9.84547
▁weapons	-9.84557
▁contribut	-9.84668
▁spread	-9.84672
▁38	-9.8491
▁injury	-9.84927
▁equipment	-9.84943
▁Bond	-9.85067
▁tournament	-9.85127
▁Young	-9.85266
▁represented	-9.85322
▁formal	-9.85377
▁officials	-9.85404
▁machine	-9.85492
▁pick	-9.85503
▁achiev	-9.8552
▁lane	-9.85544
▁assist	-9.85627
▁challenge	-9.85651
▁contemporary	-9.8578
▁Though	-9.85796
▁birth	-9.858
▁Football	-9.85876
▁Governor	-9.85889
▁growth	-9.85893
▁favor	-9.85985
▁medical	-9.85994
▁fired	-9.86043
▁guest	-9.8609
▁Homer	-9.86117
▁except	-9.86191
▁Duke	-9.86215
▁Northern	-9.8625
▁big	-9.86278
▁laid	-9.86288
▁fuel	-9.86303
▁care	-9.86361
▁Castle	-9.86515
▁destroy	-9.86645
▁District	-9.86656
▁Government	-9.86673
wood	-9.86682
▁championship	-9.86694
▁Prime	-9.86715
▁49	-9.86779
▁Ben	-9.86802
▁34	-9.8681
▁Go	-9.86992
▁treatment	-9.87072
▁Port	-9.87103
▁governor	-9.87133
▁offensive	-9.87212
field	-9.87291
▁Operation	-9.87383
▁activities	-9.87552
▁green	-9.87565
▁Storm	-9.87616
▁affected	-9.87706
▁problem	-9.8772
▁Top	-9.87939
▁killing	-9.87972
▁Sam	-9.88034
▁prisoner	-9.88103
▁appearances	-9.88295
▁b	-9.88297
▁Admiral	-9.88325
▁Short	-9.88367
▁stand	-9.88451
▁sequence	-9.88539
▁1987	-9.88551
▁thick	-9.88564
am	-9.88599
▁interchange	-9.88615
▁Scottish	-9.88625
▁worldwide	-9.88652
E	-9.88655
▁aspect	-9.88681
▁degree	-9.88761
▁1988	-9.88767
▁figures	-9.8885
to	-9.88878
▁territory	-9.88915
▁doing	-9.8895
ment	-9.8911
▁Background	-9.89216
▁rainfall	-9.89233
▁trying	-9.89367
▁proposal	-9.8945
▁Fantasy	-9.89467
▁plays	-9.89473
▁600	-9.89497
▁famous	-9.89601
▁Van	-9.89609
▁railway	-9.89748
▁Re	-9.89783
▁organiz	-9.89789
▁universit	-9.89945
▁Senate	-9.8999
▁chosen	-9.90058
▁supply	-9.90077
▁pieces	-9.9012
▁boat	-9.90131
▁composition	-9.90198
▁twice	-9.90258
▁sail	-9.90313
▁count	-9.90416
▁Polish	-9.90479
▁acre	-9.90551
▁frequently	-9.90624
▁Chart	-9.90681
▁Christmas	-9.90767
▁consecutive	-9.90801
▁newspaper	-9.90893
▁billion	-9.90896
▁Eastern	-9.90904
▁honor	-9.91038
▁therefore	-9.91045
▁expedition	-9.91141
▁Festival	-9.91158
▁opinion	-9.91178
▁grew	-9.91239
▁Mike	-9.91264
▁Joe	-9.91331
▁birds	-9.91394
▁estate	-9.91398
▁e	-9.91461
▁connect	-9.91469
▁Studios	-9.91516
▁beat	-9.91592
▁eye	-9.91602
▁squadron	-9.91615
▁leaders	-9.91654
▁Wilson	-9.91655
▁trees	-9.91686
▁Allied	-9.91714
▁herself	-9.91815
▁Taylor	-9.91861
▁wounded	-9.91893
▁assault	-9.92069
▁Blue	-9.92112
▁gas	-9.92115
N	-9.92308
▁simply	-9.92325
▁Mount	-9.92359
▁passe	-9.92578
▁storyline	-9.92692
▁1986	-9.92726
▁here	-9.92813
▁deck	-9.92857
▁versions	-9.9286
▁chose	-9.92861
▁condition	-9.92866
▁Alexander	-9.92983
▁nothing	-9.93012
▁camera	-9.9303
▁authority	-9.93103
▁Each	-9.93147
▁firm	-9.93152
5	-9.93158
▁progress	-9.93195
▁unknown	-9.93199
▁northeast	-9.93231
▁tower	-9.93234
▁Middle	-9.93235
▁silver	-9.93383
▁encounter	-9.93394
▁drama	-9.93398
▁results	-9.93541
▁comes	-9.93574
▁simple	-9.93629
▁Tech	-9.93641
▁Civil	-9.93648
M	-9.93667
▁opposition	-9.9396
▁expansion	-9.94004
▁workers	-9.94062
▁environment	-9.94065
▁growing	-9.94208
▁Pennsylvania	-9.94345
▁fiction	-9.9441
▁civil	-9.94557
▁disease	-9.94587
▁walls	-9.94588
▁leg	-9.9459
▁heard	-9.94593
▁fellow	-9.94605
ka	-9.94633
▁arms	-9.94699
▁starr	-9.94756
▁crossing	-9.94821
▁basis	-9.94832
▁paper	-9.94858
▁capacity	-9.94883
▁serving	-9.94918
▁Of	-9.94925
▁threat	-9.94945
▁tree	-9.95023
▁Reception	-9.95196
▁Further	-9.95267
▁budget	-9.95391
▁tax	-9.95407
ese	-9.95423
▁Irish	-9.95446
▁Production	-9.95463
▁leaves	-9.95469
▁walk	-9.95526
▁systems	-9.95612
▁purpose	-9.95717
▁Ocean	-9.95724
▁spring	-9.95746
▁Institute	-9.9577
▁Harry	-9.95788
▁abandoned	-9.95879
▁Its	-9.95971
▁Spain	-9.96018
▁reports	-9.96056
▁Due	-9.9606
▁task	-9.96125
▁suit	-9.96127
▁Song	-9.96241
▁Doctor	-9.96299
▁message	-9.96318
▁flying	-9.96362
▁administration	-9.96428
▁Jersey	-9.96482
▁tail	-9.96592
▁Four	-9.96643
▁trip	-9.96684
▁respect	-9.96706
▁Light	-9.96861
▁beyond	-9.96897
▁criticism	-9.96898
▁hands	-9.96913
▁Coast	-9.96972
town	-9.96997
▁convince	-9.97077
▁la	-9.97108
ive	-9.97221
▁unique	-9.97371
▁girl	-9.97418
▁fear	-9.97474
▁occupie	-9.97543
possibly	-9.97563
▁narrow	-9.97622
▁55	-9.97625
▁Commission	-9.97653
▁1939	-9.97661
▁kill	-9.97815
▁bodies	-9.97825
▁split	-9.97836
▁contained	-9.97922
▁retreat	-9.9795
▁choice	-9.97952
▁murder	-9.98013
▁flag	-9.98017
▁protest	-9.9803
os	-9.9817
▁learn	-9.98283
ier	-9.98323
▁influenc	-9.98448
▁actors	-9.98452
▁Elizabeth	-9.9846
▁vocal	-9.98555
▁advantage	-9.98638
▁recogniz	-9.98657
▁mind	-9.98671
▁creating	-9.98682
▁torpedo	-9.98688
▁animal	-9.98761
▁stations	-9.98807
▁data	-9.98919
▁committee	-9.98935
▁warning	-9.98979
▁retired	-9.98981
▁personnel	-9.98996
▁visual	-9.99022
▁fan	-9.99034
▁cultural	-9.99051
▁purchas	-9.99176
▁function	-9.99205
▁1985	-9.99222
▁article	-9.99236
▁broad	-9.99341
▁1968	-9.99442
▁producers	-9.9945
▁creation	-9.99474
▁48	-9.99483
▁horses	-9.99511
ling	-9.99541
▁draw	-9.99544
▁necessary	-9.99588
▁Meanwhile	-9.99649
▁rise	-9.99667
▁BC	-9.99774
▁infantry	-9.99776
ium	-9.99781
▁Bob	-9.99844
ki	-9.99986
▁twelve	-10.0002
▁i	-10.0005
▁gross	-10.0011
▁text	-10.0011
▁Also	-10.0017
ur	-10.002
▁claims	-10.0023
j	-10.0024
▁surrender	-10.0033
co	-10.0034
▁leadership	-10.004
▁finish	-10.0046
▁repeated	-10.0052
V	-10.0053
▁Board	-10.006
▁armed	-10.006
▁inform	-10.0062
▁management	-10.0062
▁address	-10.0065
▁parallel	-10.0065
▁northwest	-10.0074
▁conference	-10.0078
I	-10.0083
▁pull	-10.0083
▁threaten	-10.0084
▁landing	-10.0091
▁Islands	-10.0105
▁Order	-10.0106
theles	-10.0106
▁broken	-10.011
▁ancient	-10.011
▁height	-10.0113
▁edge	-10.0114
▁reduce	-10.0114
▁64	-10.0119
▁Town	-10.0122
▁Secretary	-10.0137
▁fought	-10.0138
▁Arthur	-10.0143
▁battalion	-10.0147
▁composer	-10.0153
▁1984	-10.016
▁lives	-10.0168
▁rain	-10.0169
ha	-10.0174
▁caught	-10.0175
▁permanent	-10.0184
▁peace	-10.0191
▁holding	-10.0198
▁Georgia	-10.0203
▁defence	-10.0215
▁canno	-10.0216
▁arrival	-10.0218
▁Philadelphia	-10.0218
▁perfect	-10.022
▁Night	-10.0231
▁aim	-10.0234
▁alternative	-10.0235
▁contest	-10.0237
▁Ohio	-10.024
age	-10.0245
▁planet	-10.0247
▁Never	-10.0252
▁critic	-10.0253
▁41	-10.0254
▁65	-10.0255
▁didn	-10.0259
▁reveal	-10.0261
▁Cambridge	-10.0264
▁acquired	-10.027
▁Player	-10.0275
▁comedy	-10.0278
▁driver	-10.0286
▁standing	-10.0287
▁investigation	-10.0287
▁newly	-10.0293
▁Andrew	-10.0296
▁miss	-10.0302
▁tradition	-10.0315
▁39	-10.0316
▁mile	-10.0316
▁occasional	-10.0324
▁zone	-10.0326
▁seventh	-10.0327
▁nuclear	-10.0329
▁Grant	-10.0331
▁brown	-10.0341
▁defensive	-10.0343
▁authorities	-10.0347
▁genus	-10.0349
▁headquarters	-10.0354
▁solo	-10.0358
▁adult	-10.0362
▁crowd	-10.0363
▁improve	-10.0365
▁semi	-10.0367
▁security	-10.0368
▁People	-10.0374
▁1967	-10.0374
▁Russia	-10.0374
▁centuries	-10.0377
▁exchange	-10.0394
▁vehicles	-10.0394
▁Development	-10.0403
▁recommend	-10.0405
▁wave	-10.0411
▁42	-10.0413
▁determined	-10.0419
▁800	-10.0422
▁affair	-10.0422
▁arrange	-10.0422
▁Square	-10.0428
▁accompani	-10.043
▁Among	-10.043
▁replace	-10.0435
▁families	-10.044
▁47	-10.0441
▁street	-10.0442
▁turret	-10.0447
▁counter	-10.045
▁controlled	-10.0455
▁franchise	-10.0458
ner	-10.0458
F	-10.0465
▁thing	-10.0476
▁Ottoman	-10.0485
▁temple	-10.0486
▁Wood	-10.0488
▁Nintendo	-10.0488
▁breed	-10.0489
R	-10.0489
▁Liverpool	-10.049
▁MD	-10.0496
▁Earl	-10.0497
▁Asia	-10.0504
▁Lewis	-10.0504
▁rear	-10.0507
▁prison	-10.0516
▁Lieutenant	-10.052
▁bar	-10.0523
▁Columbia	-10.0526
▁crash	-10.0528
▁plants	-10.0529
▁ideas	-10.0535
▁follows	-10.0536
▁agree	-10.0539
▁Americans	-10.054
▁Additional	-10.0544
il	-10.055
▁paint	-10.0552
stead	-10.0558
▁dollar	-10.0559
▁singing	-10.0561
▁sports	-10.0562
▁grow	-10.0563
▁Office	-10.0566
▁wait	-10.0567
▁shooting	-10.0567
▁council	-10.0575
▁bomb	-10.06
▁piano	-10.0601
▁Walter	-10.0602
▁gradual	-10.0618
▁Jewish	-10.0618
▁Men	-10.0626
▁Gulf	-10.0634
▁hope	-10.0638
▁Daniel	-10.0639
▁mountain	-10.064
wise	-10.0643
w	-10.0646
▁1983	-10.0648
▁brigade	-10.0656
ten	-10.0656
▁System	-10.0658
▁Ten	-10.0665
▁younger	-10.0667
▁SR	-10.0674
▁rare	-10.0675
▁refer	-10.0676
▁let	-10.0678
▁schedul	-10.0679
▁computer	-10.0688
ko	-10.0701
▁protection	-10.0701
▁Olympic	-10.0701
▁Carey	-10.0704
▁farm	-10.0704
▁1969	-10.0706
▁Francisco	-10.0706
▁flooding	-10.0707
▁Field	-10.0716
▁partial	-10.0719
▁Anderson	-10.0725
▁1964	-10.0726
▁selection	-10.0726
▁intensity	-10.0727
▁Miller	-10.0732
▁comic	-10.074
▁quite	-10.0741
▁household	-10.0748
▁indicate	-10.0756
▁ceremony	-10.0756
▁dedicated	-10.0765
▁Emperor	-10.0768
▁carry	-10.0772
da	-10.0775
▁declin	-10.0776
▁52	-10.0777
▁Railway	-10.0778
▁iron	-10.0786
▁1914	-10.0807
▁supporter	-10.0809
▁invite	-10.0813
▁HMS	-10.0815
▁why	-10.0829
▁Conference	-10.0831
▁1918	-10.0841
▁provid	-10.0852
▁emerg	-10.0859
▁PlayStation	-10.0873
▁1971	-10.0873
▁Steve	-10.0877
▁chance	-10.0878
▁1982	-10.0882
▁shift	-10.0885
▁Brian	-10.0891
▁singles	-10.0901
▁volume	-10.0907
▁1972	-10.0918
▁1966	-10.092
▁Jean	-10.0924
▁1979	-10.0924
▁element	-10.0929
▁extra	-10.093
▁core	-10.0934
▁mounted	-10.0947
▁depend	-10.0959
▁facilities	-10.0959
▁promotion	-10.0962
▁types	-10.0962
▁roads	-10.0966
▁constant	-10.0967
▁gives	-10.0985
▁principal	-10.0986
▁notable	-10.0988
▁department	-10.0988
▁weak	-10.0991
▁reaction	-10.0994
▁cold	-10.0994
▁arrive	-10.1
▁mouth	-10.1001
▁accident	-10.1005
▁drawn	-10.1006
▁happen	-10.1008
▁escort	-10.1013
H	-10.1017
▁1965	-10.1031
▁publication	-10.104
▁unusual	-10.106
▁intersection	-10.106
▁Point	-10.1065
▁46	-10.1071
▁motion	-10.1073
▁43	-10.1073
▁surprise	-10.1091
▁NHL	-10.1096
▁Law	-10.1097
▁1975	-10.11
▁analysis	-10.1107
▁yellow	-10.1111
▁combination	-10.1112
▁Original	-10.1119
▁purchase	-10.1129
▁hir	-10.1132
▁pitch	-10.1132
▁decline	-10.1134
▁flow	-10.1136
▁branch	-10.1138
▁Jr	-10.1154
▁shape	-10.1156
▁Hollywood	-10.1162
▁try	-10.1171
▁strike	-10.1175
▁defin	-10.118
▁44	-10.1183
bound	-10.1184
ni	-10.1189
▁casualties	-10.1202
▁Davis	-10.1204
▁boats	-10.1208
▁finds	-10.1213
▁1974	-10.1213
▁Not	-10.1215
▁hair	-10.1226
▁islands	-10.123
▁Station	-10.1231
▁themes	-10.1239
▁Democratic	-10.1243
▁climb	-10.1244
O	-10.1244
▁1973	-10.1251
▁steel	-10.1254
▁fit	-10.1263
▁Singapore	-10.1263
▁lap	-10.1268
▁bank	-10.1273
▁digital	-10.1276
▁cricket	-10.1278
▁launch	-10.1282
▁provides	-10.1284
▁mean	-10.129
▁Between	-10.1299
▁editor	-10.1312
▁Supreme	-10.1314
▁Lady	-10.1317
▁Q	-10.1318
▁joint	-10.1322
▁locations	-10.1326
▁Disney	-10.133
▁1976	-10.1331
▁economy	-10.1337
▁orders	-10.1339
way	-10.1349
▁favour	-10.1355
▁painting	-10.1356
more	-10.1364
▁seconds	-10.1371
▁domestic	-10.1377
▁albums	-10.138
▁agent	-10.1381
▁eyes	-10.1382
▁Colonel	-10.1384
▁Press	-10.1391
▁tend	-10.1393
▁depart	-10.1395
▁CD	-10.1397
▁programme	-10.14
▁platform	-10.1403
ge	-10.1406
▁dress	-10.1409
▁Way	-10.1414
▁approved	-10.1417
▁von	-10.143
▁basic	-10.1434
▁losses	-10.1438
P	-10.1441
▁secure	-10.1445
▁Gold	-10.1471
▁rat	-10.1473
▁Daily	-10.1473
▁decide	-10.1474
▁Women	-10.1475
▁poem	-10.1475
knew	-10.1479
▁literature	-10.1487
▁fruit	-10.1491
▁exact	-10.1492
▁easi	-10.1492
▁row	-10.1494
▁table	-10.151
▁250	-10.1513
▁Book	-10.1518
ba	-10.1518
▁unsuccessful	-10.152
▁turns	-10.152
▁roles	-10.1524
▁Muslim	-10.1524
▁unlike	-10.1529
▁Bank	-10.1534
▁Y	-10.1535
▁51	-10.1535
▁calls	-10.1539
▁prepared	-10.1543
ro	-10.1551
▁introduction	-10.1555
▁flood	-10.1556
▁Good	-10.1559
▁resistance	-10.1562
▁watch	-10.1565
▁Beyoncé	-10.157
▁responsibilit	-10.157
▁goes	-10.1572
either	-10.1574
▁bit	-10.1574
▁technology	-10.1576
▁sub	-10.158
▁reputation	-10.159
▁rename	-10.159
▁anything	-10.1592
▁120	-10.1593
▁habitat	-10.1635
▁gameplay	-10.1635
▁significantly	-10.1638
▁SS	-10.164
▁consists	-10.1643
▁straight	-10.1646
▁Kentucky	-10.1647
▁fashion	-10.1649
▁sequel	-10.1655
▁trains	-10.1658
▁Christ	-10.1661
ek	-10.1661
▁injured	-10.1663
▁Summer	-10.1664
▁daily	-10.1667
▁Clark	-10.167
▁1946	-10.1671
▁1981	-10.168
▁Cape	-10.1689
▁guard	-10.1689
▁electric	-10.169
▁freeway	-10.1694
▁scientific	-10.1698
▁News	-10.17
▁Matt	-10.1701
▁IV	-10.1703
▁popularity	-10.1717
▁Airport	-10.172
▁perhap	-10.1726
▁urban	-10.1732
▁Will	-10.1734
▁travell	-10.1735
▁Lincoln	-10.1737
▁journalist	-10.1741
▁employed	-10.1741
▁homes	-10.1743
▁structures	-10.1744
▁dry	-10.1746
▁getting	-10.1746
▁extension	-10.1755
▁channel	-10.176
no	-10.1761
▁Norway	-10.1761
▁southeast	-10.1769
▁dispute	-10.1772
it	-10.1777
▁1917	-10.178
▁Golden	-10.1787
▁desire	-10.1794
▁fine	-10.1797
▁museum	-10.1798
▁shaped	-10.1801
▁drew	-10.1802
▁object	-10.1802
▁awards	-10.1802
▁product	-10.1813
ability	-10.1818
▁Massachusetts	-10.1826
▁phase	-10.1832
▁Public	-10.1836
▁Ma	-10.1836
▁Special	-10.1838
▁Bowl	-10.1844
▁settl	-10.1848
▁95	-10.1848
▁compet	-10.1851
ri	-10.1851
▁journey	-10.1866
▁Bell	-10.1872
▁nor	-10.1873
▁depth	-10.1889
▁cell	-10.1892
▁watched	-10.1894
▁transfer	-10.1898
▁industrial	-10.19
▁cited	-10.1901
line	-10.1909
▁Radio	-10.1916
▁planning	-10.1921
▁method	-10.1929
▁stadium	-10.1934
▁settlement	-10.1936
▁Do	-10.1942
▁Dark	-10.1946
▁possibilit	-10.195
▁1948	-10.195
▁layer	-10.1951
▁entrance	-10.1956
▁description	-10.1958
▁reserve	-10.1966
▁distribution	-10.1969
▁missing	-10.1971
▁Bart	-10.1974
▁assistant	-10.1975
▁distinct	-10.1976
▁bass	-10.1977
▁coal	-10.1981
▁existence	-10.1983
▁boy	-10.1988
▁register	-10.1994
▁About	-10.2005
▁regions	-10.2006
▁roof	-10.2009
▁praise	-10.2011
▁letters	-10.202
▁Dan	-10.2024
▁genre	-10.2026
▁Imperial	-10.2029
▁connected	-10.2032
▁responded	-10.2033
▁Who	-10.205
▁Ray	-10.2053
at	-10.2054
▁statement	-10.2054
▁garden	-10.206
▁1978	-10.2069
▁sustained	-10.2069
▁price	-10.2074
▁reasons	-10.2082
▁Moore	-10.2085
▁flat	-10.209
▁lb	-10.2093
▁appli	-10.2095
▁fresh	-10.2095
▁safet	-10.2096
▁baseball	-10.211
▁surround	-10.211
▁candidate	-10.2116
▁cap	-10.2119
▁buried	-10.2123
▁committ	-10.2129
▁Byzantine	-10.213
▁Even	-10.2131
▁Olympics	-10.2136
ant	-10.2147
▁driv	-10.2148
T	-10.2151
▁assum	-10.2153
▁recruit	-10.2155
▁collected	-10.2157
▁carrying	-10.2161
▁promote	-10.2163
▁Justice	-10.2165
▁festival	-10.2167
▁Age	-10.2167
▁slave	-10.217
▁Boy	-10.2172
▁1915	-10.2175
▁moderate	-10.2186
▁Naval	-10.2187
▁charts	-10.2189
▁strateg	-10.2192
▁eat	-10.2196
▁debate	-10.2199
▁landfall	-10.2207
▁distinguish	-10.2208
▁Sydney	-10.2211
K	-10.2215
▁Arab	-10.2231
▁1977	-10.2237
▁stopp	-10.2242
ina	-10.2243
ter	-10.2243
▁technical	-10.2244
▁Poland	-10.2244
▁steam	-10.2251
▁master	-10.2252
▁bowl	-10.2261
▁fac	-10.2266
▁Simpsons	-10.2267
▁Maryland	-10.2267
▁earlie	-10.2276
▁Video	-10.2279
▁equal	-10.2282
▁MTV	-10.2287
▁700	-10.2288
▁learned	-10.229
▁85	-10.2293
▁Land	-10.2294
ler	-10.2296
▁southwest	-10.2297
▁turning	-10.23
▁opera	-10.2302
▁scheme	-10.2304
▁am	-10.2306
▁knowledge	-10.2309
▁cells	-10.231
▁afterward	-10.2317
▁none	-10.2318
▁entitl	-10.2328
▁credited	-10.2329
▁violence	-10.2331
▁repair	-10.2335
▁1963	-10.234
▁coastal	-10.2342
▁Out	-10.2342
▁reform	-10.2345
▁shoot	-10.2351
▁Theatre	-10.2352
▁winner	-10.2353
▁sites	-10.236
▁bird	-10.236
▁kick	-10.2363
▁store	-10.2373
▁limit	-10.2378
▁hall	-10.238
▁send	-10.2387
▁battery	-10.2389
▁1916	-10.2399
▁brothers	-10.24
▁survey	-10.2404
▁wealth	-10.2407
▁Simon	-10.2411
▁seasons	-10.2412
▁wood	-10.2415
▁politics	-10.242
▁ends	-10.2422
▁religion	-10.2429
▁Gordon	-10.2439
▁supplies	-10.2445
▁tall	-10.2448
▁evening	-10.245
▁independence	-10.2451
▁rules	-10.2453
▁argue	-10.2453
ever	-10.246
▁cars	-10.2471
▁titles	-10.2474
▁Songs	-10.2476
▁grade	-10.2479
den	-10.2481
▁bottom	-10.2487
▁transition	-10.2491
▁Mulder	-10.2494
▁items	-10.2501
▁showing	-10.2504
▁signal	-10.2519
▁rich	-10.2526
▁Stadium	-10.253
▁finding	-10.2538
▁delivered	-10.2542
▁symbol	-10.2543
▁prompt	-10.2543
▁indicated	-10.2547
▁powers	-10.2552
▁1919	-10.2555
▁1962	-10.2557
▁struggle	-10.2561
▁campus	-10.2564
▁civilian	-10.2565
▁Your	-10.2568
▁Di	-10.2573
▁equipp	-10.2579
▁employee	-10.2583
▁rail	-10.2584
▁producing	-10.259
▁parties	-10.2594
▁rescue	-10.2595
▁Albert	-10.26
▁fort	-10.2608
▁Alan	-10.2612
▁Prior	-10.2626
▁exit	-10.2632
▁Ed	-10.2634
▁bigge	-10.2637
▁ridge	-10.2639
▁Just	-10.2645
▁Rome	-10.2648
▁flank	-10.2648
▁boundar	-10.2655
▁1938	-10.2656
▁nomination	-10.2659
6	-10.2663
▁studi	-10.2665
▁bought	-10.2668
▁projects	-10.2687
▁Critical	-10.2694
▁models	-10.2694
▁online	-10.2695
▁knots	-10.2704
ca	-10.2704
▁replacement	-10.2708
▁note	-10.2709
▁essential	-10.2712
▁adapted	-10.2717
▁Main	-10.2721
▁relief	-10.2722
▁deploy	-10.2728
▁crime	-10.2729
▁protein	-10.273
▁download	-10.2739
▁heads	-10.2742
▁owner	-10.2744
▁Wall	-10.2751
▁substantial	-10.2752
▁54	-10.2764
ship	-10.2765
▁Space	-10.2781
▁ago	-10.2781
▁tank	-10.2782
▁Memorial	-10.2788
sen	-10.2788
▁Arts	-10.2792
▁headed	-10.2796
▁kingdom	-10.2798
▁factor	-10.2805
ate	-10.281
▁controversy	-10.2812
▁sets	-10.2817
▁Beach	-10.2823
▁spirit	-10.2827
▁Egypt	-10.2827
▁disc	-10.2828
▁equivalent	-10.283
▁Rose	-10.2833
▁Tony	-10.2833
▁component	-10.2835
▁academic	-10.2837
▁g	-10.2839
▁End	-10.2842
▁internal	-10.2844
G	-10.2845
▁views	-10.2846
▁duty	-10.2848
▁partner	-10.2848
▁wild	-10.2859
▁fun	-10.2872
▁survived	-10.2873
▁1956	-10.2877
▁premiere	-10.2885
▁everyth	-10.2888
li	-10.2892
▁details	-10.2894
▁Adam	-10.2896
▁actress	-10.29
▁recalled	-10.2908
spread	-10.2909
▁entry	-10.2916
▁global	-10.2919
▁Norman	-10.2921
▁sufficient	-10.2922
▁Hungarian	-10.2924
▁engineer	-10.2924
▁Revolution	-10.2928
▁Sunday	-10.2932
▁Sound	-10.294
▁remainder	-10.2942
▁56	-10.2954
▁departure	-10.2954
▁Plot	-10.2957
▁relations	-10.2958
▁Far	-10.2959
▁Douglas	-10.2959
▁airport	-10.2961
▁manner	-10.2961
▁hotel	-10.2962
▁admitted	-10.2965
▁breeding	-10.2973
▁1936	-10.2975
▁Director	-10.2976
▁Hamilton	-10.2979
▁Adams	-10.2983
▁IGN	-10.2987
▁convoy	-10.2989
▁secur	-10.3001
▁Pro	-10.3001
▁Singles	-10.3003
▁installed	-10.3005
▁Bush	-10.3006
▁Kent	-10.3007
▁dismiss	-10.3015
▁throw	-10.3016
▁experienc	-10.3017
ak	-10.3019
▁Can	-10.3026
▁UTC	-10.3027
▁preparation	-10.3027
▁Philip	-10.3036
▁Indiana	-10.3036
▁53	-10.3042
▁handle	-10.3043
▁engines	-10.3045
▁tanks	-10.3045
▁income	-10.3048
▁observation	-10.305
▁stages	-10.3053
▁mode	-10.3057
▁brand	-10.3066
kin	-10.3071
▁Mountain	-10.3073
▁Kennedy	-10.3083
▁meters	-10.3086
▁Moon	-10.3091
▁Kong	-10.3093
▁wish	-10.3093
▁Death	-10.3095
▁1961	-10.3096
▁armour	-10.3096
▁catch	-10.3098
▁Howard	-10.3106
▁Jay	-10.3111
▁emotional	-10.3112
▁humans	-10.3114
▁instance	-10.3114
▁reading	-10.3116
▁importanc	-10.3116
▁intention	-10.3118
▁Science	-10.3128
▁youth	-10.3132
▁accus	-10.3134
▁NBA	-10.3138
capable	-10.314
▁programs	-10.3149
lin	-10.3152
▁Band	-10.3159
▁WWE	-10.3159
▁designer	-10.3159
▁buy	-10.3171
▁1953	-10.3172
▁Pop	-10.3177
▁Today	-10.318
▁duties	-10.3187
▁Hitler	-10.3187
▁rival	-10.3192
▁Military	-10.3193
▁rural	-10.3197
▁Fire	-10.3203
▁someone	-10.3205
▁Five	-10.3207
L	-10.3209
▁spot	-10.3209
▁Magazine	-10.3213
▁Germans	-10.3214
▁remember	-10.3218
▁connection	-10.3219
▁Power	-10.3224
▁eighth	-10.3226
▁decrease	-10.3228
▁writes	-10.3229
▁lift	-10.323
▁Initial	-10.3231
▁Project	-10.3234
▁generation	-10.3258
▁attribut	-10.3261
me	-10.3267
▁sections	-10.3268
▁towns	-10.3269
▁identity	-10.3269
▁pattern	-10.3273
v	-10.3292
▁products	-10.3292
▁Scully	-10.3301
▁freedom	-10.3304
▁regional	-10.3307
▁76	-10.3308
▁Norwegian	-10.3308
▁recognition	-10.3308
▁1947	-10.3311
▁heat	-10.3313
▁segment	-10.3316
id	-10.3318
ization	-10.3321
▁picture	-10.3321
▁champion	-10.3329
▁Research	-10.3329
▁conclusion	-10.3329
▁generat	-10.333
▁climate	-10.3339
▁Roger	-10.3339
▁ensure	-10.3341
▁pro	-10.3345
▁1958	-10.3353
▁measure	-10.3354
▁r	-10.3361
▁patrol	-10.3362
▁references	-10.3363
▁Bar	-10.3372
▁union	-10.3379
house	-10.338
▁Mexican	-10.3384
▁1910	-10.3385
▁convention	-10.3385
▁waters	-10.339
ah	-10.339
▁worth	-10.339
▁dated	-10.3391
▁charg	-10.3391
▁lose	-10.3393
▁Media	-10.3396
▁Recording	-10.3398
▁describing	-10.3399
ial	-10.34
▁1957	-10.3403
▁drop	-10.3404
▁belt	-10.3405
▁deriv	-10.3406
▁animat	-10.341
▁males	-10.3414
▁Assembly	-10.3414
▁enemies	-10.3415
▁alter	-10.3425
▁Ryan	-10.3432
▁ticket	-10.3434
▁1937	-10.3434
▁corner	-10.3434
▁determine	-10.3435
▁objects	-10.3437
▁drug	-10.3439
▁certifi	-10.3442
ell	-10.3442
▁attain	-10.3443
▁exercise	-10.3448
▁hits	-10.3452
▁visitor	-10.3454
▁FA	-10.3469
▁hip	-10.3469
▁glass	-10.347
▁rose	-10.3474
▁slowly	-10.3476
▁Rolling	-10.3476
▁Cleveland	-10.3484
▁Illinois	-10.3486
▁classes	-10.3486
▁Santa	-10.3489
▁Girl	-10.3495
▁restaurant	-10.3505
▁laws	-10.3507
▁ill	-10.351
ya	-10.351
berg	-10.351
▁places	-10.3513
▁attached	-10.3515
▁medal	-10.3528
▁Play	-10.3533
▁achieve	-10.356
▁Arsenal	-10.3568
▁cycle	-10.3571
▁regiment	-10.3574
▁skin	-10.3579
▁deem	-10.3581
▁circulation	-10.3587
▁1959	-10.3587
▁atmosphere	-10.359
▁Back	-10.3594
▁Family	-10.3595
▁Ross	-10.3601
▁Sa	-10.3604
▁vessels	-10.3604
▁favorite	-10.3604
▁behavior	-10.3604
▁Weekly	-10.3607
▁Stanley	-10.3609
▁Review	-10.361
▁obtained	-10.361
▁foundation	-10.3611
▁surviv	-10.3616
▁stock	-10.3619
▁acclaim	-10.3619
▁Bruce	-10.362
▁highlight	-10.3621
▁intelligence	-10.3628
▁Han	-10.363
▁Third	-10.363
▁judge	-10.3637
▁terminus	-10.3638
▁valley	-10.3641
▁Am	-10.3641
▁literar	-10.3644
▁wearing	-10.3645
▁theatre	-10.3645
▁denied	-10.3646
▁Kevin	-10.3651
▁Mediterranean	-10.3657
▁origin	-10.3658
▁Andy	-10.3662
ti	-10.3662
▁ex	-10.3662
▁designs	-10.3664
▁inspiration	-10.3667
head	-10.3668
SBN	-10.3674
▁interested	-10.3675
▁prey	-10.3675
▁opposite	-10.3676
▁acid	-10.3678
▁funds	-10.368
▁founder	-10.3686
▁Beatles	-10.3689
▁1955	-10.3692
▁supposed	-10.3696
▁1954	-10.37
▁Bristol	-10.3702
▁Morgan	-10.3708
▁Channel	-10.3708
▁Bishop	-10.3713
▁path	-10.3714
▁shipp	-10.3715
▁Un	-10.3715
▁citizens	-10.3716
▁downtown	-10.3721
▁classic	-10.3732
▁images	-10.3732
▁establishment	-10.3748
▁completion	-10.3752
▁page	-10.3766
well	-10.3767
▁doctor	-10.3778
▁outer	-10.3786
▁feeling	-10.379
▁Allen	-10.379
▁premier	-10.3792
▁sole	-10.3792
▁merchant	-10.3795
▁thirty	-10.3803
▁arm	-10.3807
do	-10.381
▁possession	-10.3811
▁moral	-10.3811
▁Water	-10.3812
▁cent	-10.3816
▁answer	-10.3816
▁province	-10.3817
▁Korea	-10.3818
▁interior	-10.3819
▁cool	-10.3821
▁Fame	-10.3839
▁benefit	-10.384
▁correct	-10.3844
▁begun	-10.3849
▁destruction	-10.3849
▁Jeff	-10.3853
▁warm	-10.3861
go	-10.3867
▁assistance	-10.3871
▁concerned	-10.3877
▁hill	-10.3879
▁operate	-10.388
▁passage	-10.3881
▁110	-10.3892
▁Robinson	-10.3894
▁Marine	-10.3895
▁130	-10.3897
▁Within	-10.3898
▁lay	-10.3899
ng	-10.391
▁Lisa	-10.3918
▁venue	-10.3921
ke	-10.3923
▁lands	-10.3923
▁criminal	-10.3924
▁cruiser	-10.3925
▁66	-10.3927
▁wickets	-10.3933
▁association	-10.3933
▁tied	-10.3935
▁Free	-10.3941
▁creator	-10.3944
▁news	-10.3945
▁alleged	-10.3948
▁Oregon	-10.3955
▁bands	-10.3956
▁properties	-10.3957
▁ha	-10.3971
▁impress	-10.3972
▁dates	-10.3973
▁Temple	-10.3975
▁massive	-10.3979
▁1952	-10.3979
▁Forest	-10.3986
most	-10.3986
▁classification	-10.3991
▁Dean	-10.3992
▁chorus	-10.3994
▁speaking	-10.3996
▁ready	-10.4003
▁insist	-10.4009
▁Part	-10.4012
▁vehicle	-10.4013
▁Francis	-10.4021
▁switch	-10.4023
▁finishing	-10.4023
▁passengers	-10.4026
▁females	-10.4032
▁incorporated	-10.4032
▁Iron	-10.4036
▁participate	-10.4039
ul	-10.4042
▁Max	-10.4042
▁cavalry	-10.4043
▁Ko	-10.4045
▁multi	-10.4049
▁Unlike	-10.4057
▁differ	-10.4065
▁Winter	-10.4068
▁Six	-10.4072
▁mark	-10.4073
▁Television	-10.4073
▁narrative	-10.4074
▁1933	-10.4074
▁credit	-10.4074
▁Construction	-10.4076
hroughout	-10.4081
▁Similar	-10.4085
▁Around	-10.4096
▁distribut	-10.4101
▁recovered	-10.4105
▁touchdown	-10.412
coming	-10.4121
▁classified	-10.4123
▁Nelson	-10.4124
▁circle	-10.4125
▁58	-10.4128
▁Design	-10.4129
▁Premier	-10.4132
▁expos	-10.4133
▁collapse	-10.414
▁ranking	-10.4145
▁Anne	-10.4148
▁Command	-10.4149
▁trad	-10.415
▁effectively	-10.4158
▁dominat	-10.4162
▁Jane	-10.4163
▁Sky	-10.4165
▁spoke	-10.4165
▁shar	-10.4165
▁Head	-10.4167
▁shell	-10.4168
▁routes	-10.4169
▁Patrick	-10.4169
▁predict	-10.4178
AAF	-10.4182
▁weapon	-10.4183
▁minister	-10.4184
▁1935	-10.4192
▁brain	-10.4197
▁Master	-10.4199
▁Li	-10.42
▁Sweden	-10.42
▁eleven	-10.4207
▁van	-10.421
▁Mac	-10.4211
▁regularly	-10.4214
▁Welsh	-10.422
▁monument	-10.4221
▁1949	-10.4229
▁basketball	-10.4231
ov	-10.4232
▁57	-10.4234
▁sport	-10.4236
▁charges	-10.4237
▁door	-10.424
▁1951	-10.4241
▁Toronto	-10.4249
▁continu	-10.4251
▁romantic	-10.4254
▁die	-10.4255
▁Now	-10.4269
▁stood	-10.4271
▁patient	-10.4275
▁aboard	-10.4276
▁outbreak	-10.4281
▁Tim	-10.4302
▁schedule	-10.4306
▁protagonist	-10.4309
▁animation	-10.4312
▁march	-10.4318
▁memory	-10.432
▁Carl	-10.4325
▁inner	-10.4333
▁collect	-10.4339
▁reality	-10.4347
▁lake	-10.4358
▁Jordan	-10.4359
▁Ford	-10.4363
▁Netherlands	-10.4365
▁obtain	-10.437
▁strip	-10.438
▁plane	-10.4384
▁Nations	-10.4384
▁sale	-10.4386
▁alien	-10.4396
▁communities	-10.4398
▁separated	-10.4401
▁adaptation	-10.4405
▁controversial	-10.4406
▁en	-10.4407
▁classical	-10.442
▁colour	-10.4424
▁differences	-10.4432
▁restored	-10.4434
ir	-10.4436
▁methods	-10.4443
▁gather	-10.4446
▁Here	-10.4451
▁anniversary	-10.4453
▁Ken	-10.4458
▁hav	-10.446
▁Morris	-10.4464
▁AD	-10.4464
▁Jews	-10.4466
▁Release	-10.447
▁ray	-10.4471
▁submarine	-10.4474
▁injuries	-10.4475
▁grounds	-10.4476
▁architecture	-10.4477
▁1900	-10.448
▁missions	-10.4483
▁soil	-10.4489
what	-10.4495
▁Croatian	-10.4499
▁throne	-10.4523
▁Russell	-10.4532
▁Centre	-10.4532
▁Wright	-10.4532
▁penalty	-10.4533
▁absence	-10.4535
▁involvement	-10.4544
ory	-10.4546
▁delay	-10.4549
▁consistent	-10.455
▁apart	-10.455
▁tries	-10.4554
▁DE	-10.4554
▁solid	-10.4556
▁passenger	-10.4561
▁62	-10.4561
temporary	-10.4563
▁cloth	-10.4564
▁fighter	-10.4568
▁crosses	-10.457
be	-10.4573
▁compete	-10.4574
▁giant	-10.4576
▁batting	-10.4576
▁cancer	-10.4588
formula	-10.4589
ga	-10.459
▁discovery	-10.4592
▁Eric	-10.4594
▁Late	-10.4599
▁express	-10.4599
▁documentary	-10.4604
▁worst	-10.4605
▁honour	-10.4605
ite	-10.4616
▁eliminat	-10.4616
▁dog	-10.4617
▁reviewer	-10.462
▁delayed	-10.4621
▁Class	-10.4628
▁Maria	-10.4637
▁Thompson	-10.4641
ana	-10.4655
ić	-10.4659
▁athlete	-10.4662
▁72	-10.467
▁weekend	-10.4671
▁61	-10.4674
va	-10.4676
▁hot	-10.4679
▁intense	-10.4679
losing	-10.4685
▁Last	-10.4685
▁Puerto	-10.4694
▁Federal	-10.4697
▁Carter	-10.4699
▁category	-10.47
▁NFL	-10.47
▁vision	-10.4702
▁step	-10.4702
ington	-10.4702
▁fictional	-10.4705
▁Hav	-10.4712
▁library	-10.4718
ard	-10.4722
▁govern	-10.4725
▁garrison	-10.4726
ized	-10.4731
▁Commander	-10.4734
▁ways	-10.4737
▁residence	-10.4737
▁medieval	-10.4748
▁requirement	-10.4752
▁presidential	-10.4759
▁Kelly	-10.476
▁Finn	-10.4774
▁resources	-10.4776
▁Constitution	-10.4778
▁Alex	-10.4784
▁musicians	-10.4787
▁stretch	-10.4788
▁Hospital	-10.479
▁Nick	-10.4797
▁politician	-10.4805
▁fitted	-10.4805
▁Along	-10.4809
▁retirement	-10.4811
▁sort	-10.4812
▁ninth	-10.4817
▁gate	-10.4819
▁Network	-10.4823
▁siege	-10.4847
▁ratings	-10.4851
▁chain	-10.4854
▁59	-10.4856
▁Ann	-10.4863
▁Parker	-10.4865
▁fly	-10.4866
▁Police	-10.4869
▁costs	-10.4884
▁1913	-10.4885
▁revenue	-10.4887
▁arrangement	-10.4888
▁estimate	-10.4889
up	-10.4891
▁Berlin	-10.4891
▁soul	-10.4893
▁shots	-10.4895
▁pure	-10.4896
▁else	-10.4897
▁convection	-10.4899
▁tone	-10.49
▁Simpson	-10.4906
▁Thus	-10.4919
▁Batman	-10.4922
▁code	-10.4924
▁dating	-10.4926
▁visible	-10.4934
▁Ka	-10.4936
▁1927	-10.4942
▁carrier	-10.4945
▁stable	-10.4948
▁emergenc	-10.495
▁negotiation	-10.4954
▁1926	-10.4955
ji	-10.4956
▁Palace	-10.4966
▁Modern	-10.4973
▁Murray	-10.4976
▁exhibit	-10.4976
ski	-10.4983
▁Mo	-10.4985
▁falling	-10.4987
▁Library	-10.4988
▁facility	-10.4988
au	-10.4988
▁colony	-10.4996
▁1934	-10.501
▁everyone	-10.501
▁modified	-10.5011
▁1921	-10.5012
▁DNA	-10.5018
▁legislation	-10.5018
▁mental	-10.5024
ck	-10.5025
▁Knight	-10.5031
▁engagement	-10.5032
▁Education	-10.5038
▁Commonwealth	-10.504
▁remove	-10.5043
▁Asian	-10.505
▁divisions	-10.5052
▁Na	-10.5054
neath	-10.506
▁Anna	-10.5061
▁techniques	-10.5062
▁materials	-10.5064
▁dialogue	-10.5065
▁Houston	-10.5065
▁populations	-10.5065
▁deliver	-10.507
▁Corporation	-10.5071
▁Sports	-10.5071
▁gone	-10.5078
▁shark	-10.5081
▁successor	-10.5082
▁rang	-10.5084
▁designation	-10.5099
▁Warner	-10.5105
▁Track	-10.5106
▁gay	-10.5111
ol	-10.5111
▁suffering	-10.5112
▁anyone	-10.5114
▁1912	-10.5122
▁chemical	-10.5123
▁mere	-10.513
▁stands	-10.5132
▁girls	-10.5139
▁lies	-10.5139
▁sudden	-10.5139
W	-10.5139
▁characteristics	-10.5144
▁railroad	-10.5148
▁chairman	-10.5153
▁frequent	-10.5155
▁Silver	-10.5155
▁environmental	-10.5158
▁votes	-10.5158
▁Horse	-10.5159
▁eggs	-10.5167
▁Samuel	-10.517
▁huge	-10.5174
▁Swedish	-10.5176
▁colonial	-10.518
shire	-10.5185
▁accounts	-10.5188
▁sector	-10.5196
▁1932	-10.5199
▁68	-10.5204
▁colleague	-10.5208
▁struggl	-10.5218
▁intersect	-10.5219
▁77	-10.5224
▁Mars	-10.5225
▁belong	-10.523
▁78	-10.5231
▁closer	-10.5235
▁UN	-10.5235
▁movements	-10.5243
▁seeing	-10.5243
▁historic	-10.5246
▁Gaga	-10.525
▁Holy	-10.5251
▁universe	-10.5252
▁developer	-10.5253
borne	-10.5256
▁Anthon	-10.5258
▁Ron	-10.5261
▁frame	-10.5262
▁streets	-10.5268
▁Pope	-10.5268
tenance	-10.5274
▁graphics	-10.5277
▁implement	-10.5282
▁orbit	-10.5284
▁require	-10.529
▁adults	-10.5294
▁exception	-10.5298
▁sounds	-10.53
▁beautiful	-10.5312
▁Jason	-10.5316
▁ride	-10.532
mi	-10.532
▁NBC	-10.532
▁superior	-10.5322
▁manage	-10.5329
▁63	-10.5331
▁difference	-10.5332
▁bus	-10.5335
▁Democrat	-10.5338
▁poet	-10.5339
▁influential	-10.5343
▁attempting	-10.5346
▁format	-10.5347
▁Se	-10.5351
▁involve	-10.5353
▁99	-10.5359
▁RAF	-10.5373
▁chapter	-10.5374
▁Detroit	-10.5379
▁Writing	-10.5379
ut	-10.538
▁costume	-10.5382
▁Ra	-10.5383
▁doubt	-10.5385
▁Croatia	-10.5386
▁roll	-10.539
▁dissipat	-10.5392
▁witness	-10.5398
▁qualify	-10.5401
▁transform	-10.5406
▁Frederick	-10.5408
▁graduat	-10.5411
▁squad	-10.5414
▁criticis	-10.5417
▁guilt	-10.5417
▁1929	-10.5421
▁900	-10.5422
▁wooden	-10.5423
▁Tower	-10.5426
▁di	-10.5427
▁meets	-10.543
▁Clinton	-10.543
ent	-10.5431
▁Medal	-10.5441
▁1911	-10.5447
ja	-10.5454
▁96	-10.5465
▁Vice	-10.5468
▁childhood	-10.5469
▁device	-10.5473
7	-10.5475
rew	-10.548
▁understand	-10.5481
▁Israel	-10.5482
▁isolat	-10.5488
▁ethnic	-10.5491
▁hero	-10.5494
▁sharp	-10.55
▁Egyptian	-10.5502
▁executed	-10.5503
▁Lane	-10.5504
▁firing	-10.5506
▁concentration	-10.5517
▁Princess	-10.5525
▁1931	-10.5531
▁USA	-10.5537
▁1922	-10.5537
▁gap	-10.5538
▁Melbourne	-10.5546
▁Spears	-10.5546
▁measures	-10.5549
▁tension	-10.5549
▁Evans	-10.5552
▁diameter	-10.5552
▁afternoon	-10.5559
▁affect	-10.5561
▁fields	-10.5563
▁hearing	-10.5569
▁folk	-10.5571
▁Jesus	-10.5575
▁tribute	-10.5575
▁Stewart	-10.5575
▁Nielsen	-10.5579
▁Guy	-10.5587
▁mix	-10.5599
▁sand	-10.5602
▁hunting	-10.5608
▁speak	-10.561
▁trained	-10.561
▁bound	-10.5612
▁Anglo	-10.5613
▁Colorado	-10.5627
▁victims	-10.5628
▁Xbox	-10.5631
▁shore	-10.5636
▁provision	-10.564
▁Lennon	-10.5647
▁sons	-10.5658
▁Category	-10.5663
▁En	-10.5665
▁instruments	-10.567
▁belief	-10.5674
▁radar	-10.5677
▁recover	-10.5678
▁talent	-10.5681
▁verse	-10.5682
▁footage	-10.5684
▁resigned	-10.5688
▁Dave	-10.5688
▁94	-10.5694
▁flew	-10.57
▁lawyer	-10.57
▁Heart	-10.5702
▁Race	-10.5703
▁facing	-10.5705
▁160	-10.5709
▁audio	-10.5715
▁poetry	-10.572
▁Khan	-10.5721
▁vessel	-10.5721
▁Turkish	-10.5726
▁starts	-10.5731
▁preferred	-10.5732
▁spend	-10.5735
▁Austria	-10.5737
▁remix	-10.5739
▁experiment	-10.5745
▁Sarah	-10.5747
▁holds	-10.5748
▁extent	-10.5749
▁Guard	-10.5749
▁Foundation	-10.5749
▁watching	-10.5754
▁notabl	-10.5757
▁Brazil	-10.5761
▁violent	-10.5766
▁circuit	-10.5769
▁Phil	-10.5775
▁encourag	-10.5781
▁resolution	-10.5786
án	-10.5789
▁Ball	-10.579
▁earth	-10.5791
▁Greece	-10.5792
▁junior	-10.5792
▁militia	-10.5799
▁upgrad	-10.5799
▁du	-10.5801
▁accompany	-10.5802
▁owners	-10.5803
▁skills	-10.5803
▁Austrian	-10.5804
▁Story	-10.5807
▁Wing	-10.5808
▁copy	-10.5808
▁confront	-10.5808
▁Nazi	-10.5817
port	-10.5819
▁trust	-10.5819
▁Baltimore	-10.5819
▁charter	-10.5819
▁touch	-10.5829
▁suspend	-10.5829
▁promise	-10.5829
▁Cooper	-10.5831
▁wrong	-10.5832
▁window	-10.5838
▁hull	-10.5839
▁Du	-10.5841
▁phone	-10.5843
▁74	-10.5844
▁thereafter	-10.5846
▁edit	-10.5847
▁authors	-10.5848
▁enlist	-10.5852
▁memorial	-10.5852
▁teeth	-10.5858
▁technique	-10.5862
one	-10.5864
▁preserv	-10.5866
▁card	-10.5867
▁drums	-10.587
▁moves	-10.5872
▁trail	-10.5873
▁vice	-10.588
▁offering	-10.5881
▁erect	-10.5881
tic	-10.5883
▁carbon	-10.5884
▁Mario	-10.5886
▁Guardian	-10.5887
▁interests	-10.5891
▁Angel	-10.5896
▁interpret	-10.5905
▁standards	-10.5907
▁PA	-10.5911
▁occupation	-10.5918
▁Garden	-10.5919
▁beach	-10.592
▁Iowa	-10.5924
▁87	-10.5934
▁Marshall	-10.5935
▁Harris	-10.5937
▁shock	-10.5938
▁Wrestling	-10.594
▁Somerset	-10.594
▁easy	-10.5941
▁Journal	-10.5942
▁factors	-10.5943
▁continuous	-10.5944
J	-10.5951
▁opponents	-10.5954
▁69	-10.5964
▁genetic	-10.5964
residential	-10.5964
▁publisher	-10.5972
▁stem	-10.5973
▁neck	-10.5976
▁preced	-10.5976
▁territories	-10.5977
▁taught	-10.5977
▁Gilbert	-10.598
▁load	-10.5985
▁fair	-10.5988
▁140	-10.5991
io	-10.5991
▁Su	-10.6
▁alternate	-10.6004
▁1928	-10.6005
▁legs	-10.6005
▁Canal	-10.6006
▁happy	-10.6007
▁82	-10.6009
▁79	-10.6013
▁learning	-10.6017
▁soft	-10.6021
▁identify	-10.6021
▁Col	-10.6025
▁k	-10.6027
▁bright	-10.6032
▁withdrew	-10.6035
▁sentence	-10.6035
▁alliance	-10.6038
▁sure	-10.6042
im	-10.6045
▁Albums	-10.6047
▁creative	-10.6051
▁Every	-10.6056
▁ballad	-10.6061
▁tie	-10.6063
▁Miami	-10.6069
▁snow	-10.6069
▁creature	-10.607
▁representative	-10.6072
▁journal	-10.6076
▁elections	-10.6079
▁alignment	-10.6079
▁1925	-10.6083
▁67	-10.6086
▁deposit	-10.6088
▁Confederate	-10.6093
▁northward	-10.6095
▁reli	-10.6097
▁Open	-10.6103
▁ruin	-10.6106
▁1890	-10.6107
▁Bad	-10.611
▁profit	-10.6116
▁teammate	-10.6118
▁dangerous	-10.6124
▁wedding	-10.6131
▁Kim	-10.6135
▁permission	-10.6137
▁interpretation	-10.6138
▁spin	-10.6142
▁pain	-10.6143
▁medium	-10.6148
▁tourist	-10.6149
▁simultaneous	-10.6151
▁Senator	-10.6152
▁curve	-10.6158
▁crisis	-10.6162
▁Ministr	-10.6165
▁choose	-10.6165
▁pace	-10.617
▁sleep	-10.6172
▁Dance	-10.6176
▁clubs	-10.6185
▁Seattle	-10.6186
▁1924	-10.619
▁boiler	-10.6192
▁shelter	-10.6193
X	-10.6197
▁conservative	-10.6198
▁electronic	-10.62
▁whereas	-10.6207
▁recognis	-10.6219
▁Trek	-10.6222
▁See	-10.6222
ius	-10.6226
▁cruisers	-10.6226
▁Ian	-10.6227
▁inter	-10.6229
▁veteran	-10.6231
▁testing	-10.6231
▁bow	-10.6234
mer	-10.6234
▁Treaty	-10.6238
▁crown	-10.6241
▁Jan	-10.6243
▁shear	-10.6247
▁advice	-10.6248
▁needs	-10.6249
▁Giants	-10.625
▁los	-10.6252
▁Alabama	-10.6255
▁apartment	-10.6259
▁73	-10.6277
▁platinum	-10.6283
▁diet	-10.6283
▁Con	-10.6287
▁engineering	-10.6295
▁mainstream	-10.6299
▁policies	-10.6301
▁submitt	-10.6302
▁difficulties	-10.6303
▁Charlie	-10.6304
▁rarely	-10.6314
▁Native	-10.6315
▁Pre	-10.6316
body	-10.6317
▁Caribbean	-10.6318
▁pounds	-10.6327
▁personality	-10.6327
▁illegal	-10.6335
▁demonstrat	-10.6336
▁reviewers	-10.6337
▁spending	-10.6337
▁column	-10.634
▁specimens	-10.6356
▁Lawrence	-10.636
▁grand	-10.6361
▁scholars	-10.6364
▁1923	-10.6368
▁Inter	-10.6369
▁margin	-10.6369
▁Minnesota	-10.6371
▁drawing	-10.6372
▁forcing	-10.6373
▁suicide	-10.6374
▁Jon	-10.6383
▁elder	-10.6387
▁existed	-10.6388
▁nest	-10.6389
gency	-10.6391
▁balance	-10.6392
U	-10.6397
▁Front	-10.6405
▁finale	-10.6406
▁sit	-10.6415
▁Fair	-10.6415
▁Crown	-10.6416
▁appointment	-10.642
all	-10.6422
▁considerabl	-10.6422
▁smooth	-10.6424
▁Township	-10.6424
▁survive	-10.6425
▁desert	-10.6428
▁Mar	-10.6429
▁attitude	-10.6434
▁canal	-10.6435
▁evolution	-10.6437
▁approval	-10.644
▁dynasty	-10.6441
▁compilation	-10.6442
▁Indians	-10.6448
▁vertical	-10.6452
▁faith	-10.6453
▁shoulder	-10.6454
▁wear	-10.6454
▁emphasis	-10.6457
▁Jo	-10.6457
▁minimum	-10.6459
▁debt	-10.6462
chi	-10.6463
▁secondar	-10.647
▁Hotel	-10.6472
▁perspective	-10.6473
▁prime	-10.6475
▁ideal	-10.6475
▁dream	-10.6475
ab	-10.6476
▁emperor	-10.6477
▁hockey	-10.648
▁spiritual	-10.648
▁71	-10.6483
▁Or	-10.6488
citing	-10.649
▁tenth	-10.6491
un	-10.6503
▁comments	-10.6503
▁Grammy	-10.6504
▁Through	-10.6505
▁appropriate	-10.6506
▁98	-10.6508
▁Hungary	-10.6509
▁neighborhood	-10.6513
▁Health	-10.6516
▁Matthew	-10.6517
▁churches	-10.6518
▁housing	-10.652
▁agents	-10.6523
▁88	-10.6525
▁resum	-10.6529
▁Staff	-10.6537
▁93	-10.6539
▁Country	-10.6539
ang	-10.654
▁withdraw	-10.6541
▁races	-10.6541
older	-10.6547
▁palace	-10.6552
▁Flight	-10.6553
▁Christopher	-10.6553
▁sponsor	-10.6554
▁notice	-10.6559
gate	-10.6559
▁81	-10.6562
▁prepare	-10.6567
cy	-10.6567
▁adjacent	-10.6569
▁fil	-10.6569
▁Belgium	-10.6573
▁th	-10.6575
▁monitor	-10.6576
▁91	-10.6578
ong	-10.658
▁finance	-10.6581
▁landscape	-10.6582
▁bypass	-10.6591
▁Human	-10.6595
▁Camp	-10.6599
▁funeral	-10.6599
▁graduate	-10.66
▁safe	-10.6608
▁Soon	-10.661
▁Down	-10.6611
▁Interstate	-10.6613
▁Diego	-10.6617
▁teacher	-10.6622
▁partnership	-10.6628
▁handed	-10.6628
▁aware	-10.6636
▁grown	-10.6636
▁Walker	-10.6636
▁instrumental	-10.6636
▁destroyers	-10.6638
▁pack	-10.6645
▁hat	-10.6647
tz	-10.6653
▁complain	-10.6656
▁map	-10.6657
▁changing	-10.666
▁pitched	-10.6661
▁windows	-10.6665
▁influences	-10.6668
power	-10.6672
▁wings	-10.6674
▁friendly	-10.6685
▁trace	-10.6685
▁Dead	-10.6686
▁Children	-10.6689
▁Halo	-10.6692
▁victories	-10.6693
▁Seven	-10.6694
▁import	-10.6694
▁attendance	-10.6695
idden	-10.6696
▁Cold	-10.6696
stone	-10.6698
▁poll	-10.6698
▁bombers	-10.6702
▁definition	-10.6704
▁pursue	-10.6704
▁1908	-10.6706
▁elsewhere	-10.6715
▁option	-10.6719
▁1905	-10.6719
▁Benjamin	-10.6726
▁l	-10.6728
▁evil	-10.6729
▁Raw	-10.673
▁1909	-10.673
▁Legacy	-10.6736
▁argument	-10.6742
▁percentage	-10.6742
▁operational	-10.6747
▁jump	-10.6747
▁intensifi	-10.6758
▁aggressive	-10.6762
▁Dream	-10.6764
▁bishop	-10.6766
▁false	-10.6766
▁fighters	-10.6768
▁tunnel	-10.6768
▁lieutenant	-10.6769
▁Building	-10.677
▁languages	-10.6771
▁stress	-10.6771
▁toll	-10.6777
▁loan	-10.6778
▁Car	-10.6783
▁Hockey	-10.6788
▁der	-10.6788
▁teaching	-10.6791
▁entertainment	-10.6792
▁span	-10.6792
▁Alfred	-10.6795
▁Roosevelt	-10.6799
▁evolv	-10.6804
▁opponent	-10.6805
▁mount	-10.6806
▁signing	-10.6807
ists	-10.681
▁chair	-10.6824
▁Manhattan	-10.6828
▁celebrat	-10.6829
ac	-10.6834
▁scholar	-10.6838
▁advisor	-10.6839
▁Hong	-10.6841
▁organizations	-10.6845
▁Chronicle	-10.6848
▁Area	-10.6849
▁concrete	-10.6854
▁courts	-10.6855
▁danger	-10.6861
▁Franklin	-10.6866
▁Peninsula	-10.6878
▁marry	-10.6879
der	-10.6893
▁scientists	-10.6895
▁listing	-10.6895
▁Edge	-10.6902
▁westward	-10.6913
▁knock	-10.6915
ot	-10.6918
▁audition	-10.6921
▁1907	-10.6922
▁Kansas	-10.6925
▁junction	-10.6934
▁Born	-10.6935
▁triple	-10.6938
▁update	-10.6943
▁descend	-10.6943
▁Per	-10.6945
▁Digital	-10.6947
▁Margaret	-10.6951
▁Ho	-10.6951
▁regain	-10.6955
▁truck	-10.6955
▁sees	-10.6955
▁Apple	-10.6962
á	-10.6962
ou	-10.6968
▁credits	-10.6973
▁boys	-10.6975
▁accurate	-10.6977
▁survivors	-10.698
▁impossible	-10.6981
▁Portland	-10.6982
▁Industry	-10.6988
▁telling	-10.6992
▁Hart	-10.6996
▁Much	-10.7002
▁agricultural	-10.7003
▁Chi	-10.7004
▁monarch	-10.7005
▁guide	-10.7007
▁abilities	-10.7011
▁investment	-10.7012
▁Guide	-10.7014
▁Mu	-10.7019
water	-10.7021
▁Bo	-10.7021
▁disaster	-10.7023
▁Real	-10.7024
▁introduce	-10.7025
▁Ni	-10.7026
▁assembl	-10.7027
▁tests	-10.703
▁armament	-10.7032
▁understanding	-10.7037
shore	-10.7037
▁wrestl	-10.7038
▁Independent	-10.7044
▁USD	-10.7045
▁truth	-10.7045
▁Campbell	-10.7052
▁Pat	-10.7054
▁situat	-10.7055
▁super	-10.7056
▁offices	-10.7059
▁1880	-10.706
▁seats	-10.7063
▁covering	-10.7063
pped	-10.7064
▁CR	-10.7066
▁horror	-10.7071
▁mine	-10.7073
▁dense	-10.7076
▁Saturday	-10.7078
ino	-10.7084
▁occasions	-10.7086
▁clean	-10.7092
▁Mississippi	-10.7095
op	-10.7098
▁restoration	-10.7098
▁occasion	-10.7099
▁oxygen	-10.7103
▁relationships	-10.7104
▁communist	-10.7105
▁lock	-10.711
▁USS	-10.7111
▁orchestra	-10.7114
▁fifteen	-10.7118
▁Sullivan	-10.7119
▁Ch	-10.7119
▁profile	-10.7121
▁escap	-10.7122
▁guy	-10.7124
▁97	-10.7127
▁08	-10.7128
▁closing	-10.7133
▁professor	-10.7136
▁f	-10.7136
▁collaboration	-10.7137
▁Philippines	-10.7143
▁Ice	-10.7147
▁ammunition	-10.7151
▁virtual	-10.7151
▁concerts	-10.7152
bo	-10.7153
▁behalf	-10.7154
▁originat	-10.7155
▁thin	-10.7155
▁distinctive	-10.7155
za	-10.7159
▁dancer	-10.716
▁09	-10.7165
▁Ba	-10.7166
▁sank	-10.7167
▁skull	-10.7177
▁statue	-10.718
▁priest	-10.7181
▁tornado	-10.7181
▁explosion	-10.7183
▁Wars	-10.7186
▁Historic	-10.7187
▁proceed	-10.7191
▁context	-10.7193
▁rhythm	-10.7194
▁wins	-10.7199
▁Let	-10.7202
▁Warren	-10.7203
▁Mill	-10.7208
▁twin	-10.7211
▁symptoms	-10.7214
▁paintings	-10.7217
▁84	-10.722
▁PC	-10.7226
▁sunk	-10.7226
▁Liberal	-10.7228
▁bridges	-10.7232
▁hear	-10.7236
▁legend	-10.7238
▁Bros	-10.7241
▁explore	-10.7243
▁ocean	-10.7248
▁DC	-10.7256
wore	-10.7257
▁resemble	-10.7263
▁celebration	-10.727
▁cargo	-10.7271
▁complet	-10.7271
▁illness	-10.7272
▁scatter	-10.7273
▁89	-10.7283
▁organis	-10.7293
▁92	-10.7311
▁Graham	-10.7312
▁Tennessee	-10.7316
▁Louisiana	-10.7316
▁bonus	-10.7316
▁dramatic	-10.7323
▁underground	-10.7329
▁sing	-10.7332
▁bear	-10.734
▁construct	-10.7344
▁86	-10.7345
▁1870	-10.7347
▁styles	-10.7351
▁360	-10.7356
▁Cap	-10.7356
▁Pe	-10.7358
▁earthquake	-10.7358
▁regulation	-10.7359
ica	-10.7365
▁Small	-10.7369
▁Labour	-10.737
▁interesting	-10.737
▁Depression	-10.7374
▁Missouri	-10.7374
▁artistic	-10.7382
▁1906	-10.7382
▁Pan	-10.7383
▁grey	-10.7388
▁purposes	-10.74
▁Montreal	-10.7401
aw	-10.7403
▁pit	-10.7403
▁1904	-10.7414
ich	-10.7414
▁explain	-10.7415
▁Run	-10.7417
▁Tamil	-10.7418
▁newspapers	-10.7423
▁Ridge	-10.7425
▁Marie	-10.7427
▁Championships	-10.7431
▁temporari	-10.7433
▁candidates	-10.7434
▁drum	-10.7435
▁guitarist	-10.7438
▁How	-10.7439
▁pointed	-10.7441
▁communication	-10.7442
▁rates	-10.7445
▁Har	-10.7454
▁Bas	-10.7474
ure	-10.7474
▁craft	-10.748
▁sun	-10.7486
▁forty	-10.7491
▁Harvey	-10.7492
▁degrees	-10.7496
▁Persian	-10.7497
▁jazz	-10.7499
▁proper	-10.7501
▁Mitchell	-10.7503
▁rush	-10.7508
▁expensive	-10.7511
▁Ali	-10.7514
▁fifty	-10.7523
▁radical	-10.7523
▁solution	-10.7523
▁helping	-10.7526
▁strengthen	-10.7527
▁Dragon	-10.7529
▁publicly	-10.7531
ci	-10.7538
▁investigate	-10.7541
▁Pi	-10.7545
▁administrative	-10.7547
▁artwork	-10.7548
▁drove	-10.7549
▁Near	-10.756
▁Critics	-10.7565
▁typhoon	-10.7567
mann	-10.7569
▁dozen	-10.7571
▁familiar	-10.7575
▁Forces	-10.7577
▁Business	-10.7579
▁Report	-10.7579
▁Wind	-10.7586
▁measured	-10.7588
▁Cuba	-10.7588
▁values	-10.7589
▁Ne	-10.7597
▁bid	-10.76
▁labor	-10.7603
▁inhabitant	-10.7607
wa	-10.7607
▁pursu	-10.7611
ger	-10.7614
▁rebuilt	-10.7622
▁da	-10.7624
▁Tu	-10.7625
▁meat	-10.7629
▁associate	-10.763
▁bronze	-10.763
▁Billy	-10.7632
▁characteriz	-10.7638
▁strict	-10.7638
WC	-10.7639
▁defender	-10.7642
▁revolt	-10.7642
▁comparison	-10.765
▁feed	-10.7655
gan	-10.766
▁fled	-10.7661
ran	-10.7666
▁Saxon	-10.7667
▁willing	-10.7668
▁disorder	-10.767
▁alcohol	-10.7677
ung	-10.7679
out	-10.768
▁runner	-10.7682
▁coverage	-10.7686
▁cancelled	-10.769
▁loop	-10.7691
▁salt	-10.7694
▁racing	-10.7695
▁abuse	-10.7701
▁minimal	-10.7709
▁parish	-10.771
▁rising	-10.7711
uk	-10.7712
▁repairs	-10.7713
▁enabl	-10.7715
▁coat	-10.7721
▁colonie	-10.7723
▁rebellion	-10.7731
▁recordings	-10.7733
▁Key	-10.7735
▁execution	-10.7739
▁mechanism	-10.7739
▁exhibition	-10.7743
que	-10.7745
▁cult	-10.7748
▁feelings	-10.775
▁songwriter	-10.7751
▁wicket	-10.7754
▁waves	-10.7754
▁practical	-10.7758
▁render	-10.7759
▁ownership	-10.7768
▁Gun	-10.777
▁satellite	-10.777
▁Bureau	-10.7772
▁string	-10.7779
▁Tokyo	-10.7779
▁180	-10.778
▁Arizona	-10.7783
▁ruling	-10.7787
▁angle	-10.779
▁application	-10.7791
▁Files	-10.7796
▁Athletic	-10.78
▁cousin	-10.78
▁battles	-10.78
▁Indies	-10.7801
▁Dylan	-10.7804
▁absolute	-10.7808
▁assists	-10.7813
▁conversion	-10.7816
▁Hero	-10.782
▁Such	-10.7823
▁Nine	-10.7825
▁basin	-10.7837
▁Sony	-10.7848
▁representation	-10.7852
▁Ha	-10.7858
▁print	-10.7867
ised	-10.7871
▁tribes	-10.7877
ney	-10.7881
▁Delaware	-10.7881
▁remnants	-10.789
▁flagship	-10.789
▁reinforcement	-10.7894
▁shells	-10.79
▁predecessor	-10.7901
▁chapel	-10.7902
▁thinking	-10.7908
▁earning	-10.7911
ny	-10.7915
▁bases	-10.7917
▁Blues	-10.7919
▁functions	-10.7923
idae	-10.7925
▁gust	-10.7935
mo	-10.7938
▁prize	-10.794
▁Oklahoma	-10.7943
▁frigate	-10.7943
▁bat	-10.7944
▁respond	-10.7945
▁adventure	-10.7948
▁legislature	-10.7959
▁Ward	-10.796
▁faction	-10.7963
▁Federation	-10.7968
▁flee	-10.7969
▁Murphy	-10.7969
▁fallen	-10.797
▁quiet	-10.7972
▁shall	-10.7977
▁Album	-10.7978
▁Miss	-10.798
▁Iraq	-10.7981
▁reverse	-10.7986
▁Return	-10.799
▁obvious	-10.7992
▁Broadway	-10.7993
▁dominant	-10.8006
▁1901	-10.8007
▁Switzerland	-10.8009
▁universal	-10.8009
▁Base	-10.8011
▁wider	-10.8018
▁perceiv	-10.8021
▁shield	-10.8022
▁Roy	-10.8023
▁restricted	-10.8028
ow	-10.8029
▁Rico	-10.803
▁Prize	-10.803
▁console	-10.8033
▁excellent	-10.8034
▁ABC	-10.8038
▁plus	-10.8039
▁05	-10.8047
▁arts	-10.8047
▁Personal	-10.8047
▁VII	-10.8048
ara	-10.805
▁faster	-10.8051
▁contributions	-10.8052
▁Wild	-10.8053
▁spotted	-10.8055
▁Are	-10.8061
▁manufacture	-10.8068
▁panel	-10.8072
▁Rob	-10.8072
▁playoffs	-10.8074
▁spore	-10.8074
▁settler	-10.8078
▁wound	-10.8078
lo	-10.8083
▁announcement	-10.8084
▁del	-10.809
▁musician	-10.8091
▁storage	-10.8093
▁absorb	-10.8095
▁Kurt	-10.8097
▁mayor	-10.81
▁institutions	-10.8107
▁suggestion	-10.811
▁rounds	-10.8112
▁concentrat	-10.8118
▁Tag	-10.8121
ini	-10.8123
▁loose	-10.8124
▁quarterback	-10.8126
ea	-10.8127
▁w	-10.8128
▁Baker	-10.8129
bury	-10.8136
▁riders	-10.8137
▁subspecies	-10.8139
▁1903	-10.8156
▁striking	-10.816
▁justice	-10.8164
▁neighbor	-10.8168
▁targets	-10.8168
▁mountains	-10.8171
▁Die	-10.8174
▁vast	-10.8177
▁marks	-10.8177
▁touring	-10.8178
▁Shakespeare	-10.818
▁legac	-10.8182
▁1902	-10.8182
▁83	-10.8182
▁examples	-10.8184
▁Karl	-10.819
▁apply	-10.8193
▁07	-10.8194
▁Juan	-10.8197
▁Leslie	-10.8198
▁patterns	-10.82
▁Amy	-10.8208
▁theatrical	-10.821
▁surgery	-10.8211
▁Perry	-10.8212
▁seal	-10.8217
▁sequences	-10.8226
▁mature	-10.8227
▁objective	-10.8228
▁disappear	-10.8231
▁Baseball	-10.8236
▁Cal	-10.8236
ho	-10.8239
▁VI	-10.824
▁altitude	-10.824
▁philosophy	-10.824
▁reconnaissance	-10.824
▁explains	-10.8243
▁Actor	-10.8243
▁stole	-10.8245
▁06	-10.8251
▁sq	-10.8251
ani	-10.8256
▁fixed	-10.8262
▁Atlanta	-10.8266
▁Nixon	-10.8266
▁behaviour	-10.8268
▁biographer	-10.8271
▁x	-10.8278
▁Del	-10.8279
▁105	-10.8279
▁refuse	-10.8282
▁pretty	-10.8283
▁ignor	-10.8287
▁Denmark	-10.8287
▁emotion	-10.8288
▁Jonathan	-10.83
▁circumstances	-10.8305
▁farmer	-10.8306
▁Hell	-10.8309
▁organ	-10.8313
▁portrayal	-10.8317
▁Hudson	-10.8317
ella	-10.8318
▁realize	-10.8318
▁Johnny	-10.8321
▁dubb	-10.8322
▁Campaign	-10.8325
▁Friday	-10.8325
▁theater	-10.8326
▁expect	-10.8326
▁bombing	-10.8328
▁Cook	-10.8328
▁conventional	-10.8337
▁Rihanna	-10.8338
▁subjects	-10.834
▁goods	-10.8347
▁useful	-10.8348
yn	-10.8349
▁incorporate	-10.835
ett	-10.8352
▁Abbey	-10.8354
em	-10.8355
▁organisation	-10.8358
▁embark	-10.8359
▁whils	-10.836
▁poems	-10.8375
▁Hay	-10.8376
▁friendship	-10.8378
▁printed	-10.8381
▁holiday	-10.8381
▁chamber	-10.8381
▁alive	-10.8386
▁Potter	-10.8386
▁Call	-10.8391
▁Victor	-10.8397
▁god	-10.8399
▁elevation	-10.8399
▁halt	-10.8399
▁represents	-10.84
▁regime	-10.8402
▁tissue	-10.8403
▁expression	-10.8406
▁offense	-10.8412
▁flights	-10.8415
▁Enterprise	-10.8417
▁abandon	-10.8422
▁investigat	-10.8424
▁EP	-10.8432
ker	-10.8433
▁stream	-10.8436
▁Arnold	-10.8442
▁Communist	-10.8447
▁Baby	-10.8448
▁payment	-10.8452
▁pool	-10.8453
jo	-10.8453
▁Railroad	-10.8455
▁Da	-10.846
▁backing	-10.846
▁remarked	-10.8461
isation	-10.8467
▁Keith	-10.8469
▁architect	-10.847
▁warn	-10.8477
▁punk	-10.8481
▁Impact	-10.8485
▁Honor	-10.8485
▁electron	-10.8486
▁Obama	-10.8498
▁mainland	-10.85
▁beam	-10.8503
▁Wayne	-10.8505
▁Pearl	-10.8512
▁donat	-10.8515
▁tight	-10.8517
▁impression	-10.8519
▁Jimmy	-10.852
▁feud	-10.852
▁releases	-10.8521
▁external	-10.8529
▁Internet	-10.8533
▁soldier	-10.8537
▁indicat	-10.8537
▁Reserve	-10.8537
▁readers	-10.8538
▁employ	-10.8538
▁merg	-10.8539
▁Hugh	-10.8541
▁Rachel	-10.8542
▁Fred	-10.8543
▁marine	-10.8543
▁carriers	-10.8544
▁pioneer	-10.8551
▁Defence	-10.8551
▁cloud	-10.8551
▁exposure	-10.8556
▁Cole	-10.8558
▁Shaw	-10.8562
▁casting	-10.8568
▁strain	-10.8573
▁meter	-10.8573
▁Peace	-10.8577
▁Tracy	-10.8577
▁cutting	-10.8577
▁nominations	-10.858
▁prove	-10.8582
craft	-10.8591
▁sung	-10.8591
▁cancel	-10.8592
▁Rick	-10.8592
▁inland	-10.8594
▁Drive	-10.8596
▁strengthened	-10.8597
▁empire	-10.8599
▁compound	-10.8601
▁mobile	-10.8603
dale	-10.8606
▁Eventual	-10.8612
▁Universal	-10.8613
ful	-10.8615
ade	-10.8622
▁evacuat	-10.8624
▁routine	-10.8625
▁Trust	-10.8626
▁Know	-10.8626
▁constitution	-10.8628
▁Birmingham	-10.863
▁Type	-10.863
▁demolished	-10.863
▁plate	-10.8633
▁dancing	-10.8634
▁kW	-10.8642
▁Hindu	-10.8654
▁constitutional	-10.8654
▁uniform	-10.8656
▁McCartney	-10.8656
▁expense	-10.8661
▁Snow	-10.8661
▁Our	-10.8662
don	-10.8663
▁arc	-10.8663
▁experimental	-10.8665
▁ritual	-10.8665
▁Belgian	-10.8665
▁uncle	-10.8665
▁Express	-10.8666
▁reduction	-10.8666
▁Week	-10.8667
▁Leonard	-10.8674
▁bearing	-10.8674
▁Boat	-10.8674
▁Yankees	-10.8677
oc	-10.8678
▁Hu	-10.8685
▁Mother	-10.8685
▁artificial	-10.8687
▁favorabl	-10.8691
▁mining	-10.8692
▁researcher	-10.8692
▁roots	-10.8697
▁pitcher	-10.8697
over	-10.8699
▁attraction	-10.8701
▁Dam	-10.8703
8	-10.8704
▁seed	-10.8708
▁Bobby	-10.8708
▁Lost	-10.8711
▁oversea	-10.8712
▁Champion	-10.8714
▁Fall	-10.8715
▁Phoenix	-10.8723
▁Gate	-10.8723
▁Mint	-10.8723
▁factory	-10.8729
▁Morrison	-10.8729
▁stores	-10.8732
▁delivery	-10.874
▁secretary	-10.874
▁Wolf	-10.8744
▁renew	-10.8748
▁depiction	-10.8749
▁fin	-10.8749
▁Gray	-10.8751
▁Spring	-10.8753
▁sitting	-10.8754
▁favourite	-10.8756
▁covers	-10.876
▁trouble	-10.8762
▁crest	-10.8768
per	-10.877
▁acoustic	-10.8772
▁Connecticut	-10.8777
▁deliberate	-10.8778
▁Todd	-10.8778
▁Madagascar	-10.8781
▁Mad	-10.879
▁baby	-10.879
▁check	-10.8795
▁mines	-10.8798
▁infection	-10.88
▁strategic	-10.8805
▁personally	-10.8805
▁armie	-10.8806
▁imperial	-10.8815
▁delegate	-10.8818
▁drugs	-10.8823
▁electrical	-10.8827
off	-10.8829
▁withdrawal	-10.8829
▁placing	-10.883
▁Napoleon	-10.8833
▁Ontario	-10.8839
▁aerial	-10.884
▁permitt	-10.8843
ster	-10.8845
▁removal	-10.8846
▁battalions	-10.8847
▁inherit	-10.8848
▁Canterbury	-10.8848
▁license	-10.886
▁Community	-10.8862
▁discussion	-10.8866
▁Jupiter	-10.8867
▁Wa	-10.8871
▁magic	-10.8877
▁Fleming	-10.888
▁raising	-10.888
ena	-10.8881
▁aftermath	-10.8889
▁Bus	-10.889
▁diamond	-10.8894
▁articles	-10.8894
▁solar	-10.8895
▁Ash	-10.8899
▁villain	-10.89
▁Ultimate	-10.8903
ura	-10.8906
▁Ju	-10.8908
▁Victorian	-10.8909
▁mechanical	-10.8911
hi	-10.8919
▁guid	-10.8919
▁bone	-10.892
▁Mrs	-10.8925
▁Foreign	-10.8926
▁Convention	-10.8926
▁remark	-10.8928
▁Trail	-10.8943
▁Yo	-10.8943
▁TNA	-10.8944
▁rivers	-10.8948
▁duo	-10.8957
▁Rights	-10.8959
▁Greg	-10.896
▁Natural	-10.8966
▁Sh	-10.8976
▁acknowledged	-10.8977
▁queen	-10.8985
▁vs	-10.8989
▁specimen	-10.8994
▁amateur	-10.8994
▁Windows	-10.9004
▁nickname	-10.901
stood	-10.901
▁react	-10.9013
▁inhabit	-10.9017
▁UEFA	-10.9017
▁realized	-10.9019
▁membership	-10.902
▁suppli	-10.9021
▁commenc	-10.9024
▁blocks	-10.9026
▁translat	-10.9028
▁parliament	-10.9031
▁decay	-10.9031
hood	-10.9036
▁initiated	-10.9042
▁resist	-10.9049
▁Vancouver	-10.9049
▁Triple	-10.9052
▁garner	-10.9054
▁fame	-10.9054
▁Lu	-10.9059
▁extratropical	-10.9063
▁Take	-10.9065
▁Gary	-10.9065
▁anchor	-10.9066
▁Works	-10.9074
▁publishing	-10.9075
▁plain	-10.9081
▁ensu	-10.9084
▁125	-10.9084
▁bombs	-10.9084
▁Administration	-10.9086
▁translation	-10.9087
▁proportion	-10.9093
▁Glen	-10.9094
▁sisters	-10.9096
▁lover	-10.9096
▁planets	-10.9099
▁fantasy	-10.91
▁youngest	-10.9105
▁fewer	-10.9105
▁trailer	-10.9107
▁encourage	-10.911
went	-10.9112
▁conversation	-10.9127
▁Deep	-10.9128
▁Par	-10.9135
▁ongoing	-10.9136
▁Hardy	-10.9136
▁Marvel	-10.9139
▁coup	-10.9141
▁tenure	-10.9144
▁parent	-10.9147
▁racial	-10.9147
▁Alice	-10.9151
▁Social	-10.9151
▁Village	-10.9152
▁Te	-10.9152
▁Pass	-10.9154
▁Local	-10.9157
▁Portuguese	-10.916
▁1860	-10.9166
▁Bradman	-10.9167
▁Inc	-10.9167
▁Grey	-10.917
▁Villa	-10.9177
ee	-10.9178
ical	-10.9178
gen	-10.9179
▁clock	-10.918
▁pages	-10.918
▁funny	-10.9182
▁et	-10.9184
▁compounds	-10.9186
▁Maya	-10.9191
▁Va	-10.9191
pa	-10.9193
▁photo	-10.9193
▁heading	-10.9197
▁upgrade	-10.92
▁listen	-10.9202
▁putting	-10.9203
▁battlecruiser	-10.9207
▁revolution	-10.9209
▁Dwight	-10.9212
▁exploit	-10.9215
▁architectural	-10.9216
▁exceed	-10.9218
▁matters	-10.9219
▁characteristic	-10.922
▁substitute	-10.9221
▁NCAA	-10.9221
▁collaps	-10.9223
▁improvements	-10.9225
▁competitive	-10.9227
▁Stan	-10.9228
▁Trophy	-10.9231
▁mushroom	-10.9235
bridge	-10.9239
▁accomplish	-10.9239
▁sang	-10.9242
▁Marge	-10.9243
▁1893	-10.9245
▁impos	-10.9246
▁invad	-10.9248
▁intervention	-10.9249
▁rap	-10.925
▁watershed	-10.9254
▁disturbance	-10.9254
▁ban	-10.9256
▁explosive	-10.9259
▁shop	-10.9259
▁hydrogen	-10.9263
▁banks	-10.9264
▁chase	-10.9266
han	-10.9266
▁Howe	-10.9268
▁trigger	-10.9268
▁Oliver	-10.927
▁relocat	-10.927
▁intellectual	-10.9277
▁birthday	-10.9278
▁04	-10.9278
▁bay	-10.9279
led	-10.9281
▁elaborate	-10.9282
▁Hampshire	-10.9282
▁density	-10.9283
▁provincial	-10.9283
▁waste	-10.9286
qualified	-10.9291
▁bones	-10.9291
▁shallow	-10.9292
▁1896	-10.9292
▁Ja	-10.9294
▁Professor	-10.9296
▁guarantee	-10.9296
utstanding	-10.9297
▁burn	-10.9299
▁walking	-10.9301
▁educational	-10.9307
▁insects	-10.9315
▁identical	-10.9315
▁exile	-10.932
▁terrain	-10.9325
▁Edinburgh	-10.9329
▁Armenian	-10.933
▁Collins	-10.9331
▁ratio	-10.9334
sis	-10.9335
▁leads	-10.9338
▁liquid	-10.9338
▁feeding	-10.9341
▁creek	-10.9344
ru	-10.9346
▁Pakistan	-10.9351
▁examination	-10.9359
▁Turner	-10.936
▁trough	-10.9372
yan	-10.9372
▁voyage	-10.9377
▁1898	-10.9377
▁Side	-10.9379
▁parody	-10.9386
▁duration	-10.9386
▁Ham	-10.9389
▁Flying	-10.9391
ber	-10.9393
▁Season	-10.9393
▁streak	-10.9396
▁assembly	-10.9399
ze	-10.94
▁neighbour	-10.94
▁Province	-10.9401
▁seized	-10.9405
▁directors	-10.9408
▁condemn	-10.9409
▁Champions	-10.9419
▁350	-10.9422
▁wreck	-10.9424
▁JT	-10.9434
▁automatic	-10.9434
▁anime	-10.944
▁flower	-10.9445
▁Historical	-10.9446
po	-10.9447
▁photograph	-10.9448
▁medicine	-10.9448
▁jury	-10.9449
▁tube	-10.9457
▁promotional	-10.9462
▁Yorkshire	-10.9468
▁Argentina	-10.9468
▁cave	-10.947
▁Wii	-10.9471
▁Virgin	-10.9474
▁tubes	-10.9474
▁requires	-10.9475
▁defences	-10.9475
▁repeat	-10.9478
▁Blood	-10.9482
▁float	-10.9482
▁videos	-10.9482
▁assess	-10.9483
burn	-10.9486
▁Performance	-10.9487
▁Boys	-10.949
▁exclusive	-10.949
▁advertising	-10.9492
▁jurisdiction	-10.9492
▁ceased	-10.9494
▁approaching	-10.95
▁Mission	-10.9503
▁employment	-10.9505
▁Lloyd	-10.9506
▁mistake	-10.9507
▁trend	-10.9508
▁accidental	-10.9508
▁Mountains	-10.9514
▁Hills	-10.9514
▁unclear	-10.9517
▁Mi	-10.9521
▁Bach	-10.9523
▁hunt	-10.9524
▁displac	-10.9525
▁commitment	-10.9526
▁Overall	-10.9527
▁stick	-10.953
ver	-10.9537
▁magnitude	-10.954
▁jobs	-10.954
▁output	-10.9542
í	-10.9544
▁arrangements	-10.9545
▁drummer	-10.9545
▁annually	-10.9546
▁revis	-10.9551
▁predominant	-10.9555
▁preserve	-10.9558
▁origins	-10.9561
▁Then	-10.9565
▁progressive	-10.9565
▁sky	-10.9566
▁distant	-10.9569
▁commentary	-10.957
▁swimm	-10.9577
▁software	-10.9579
▁Celtic	-10.9579
▁wake	-10.9579
▁steps	-10.9579
▁taste	-10.958
▁phrase	-10.9581
▁succession	-10.9583
▁Eve	-10.9584
▁1899	-10.9584
▁contribution	-10.9585
▁Jerry	-10.9585
▁recall	-10.9586
▁imagery	-10.9587
▁Arm	-10.9589
▁replied	-10.9594
▁Bird	-10.9595
hitting	-10.9596
▁liner	-10.9597
▁Swift	-10.9598
▁tip	-10.96
▁proclaim	-10.9603
▁brick	-10.9605
▁Kate	-10.9605
▁thirteen	-10.9608
▁explanation	-10.9608
▁compliment	-10.9609
▁fur	-10.9612
▁Subsequent	-10.9613
▁Blu	-10.9613
▁ruler	-10.9614
▁Lucas	-10.962
▁Steven	-10.9621
▁ow	-10.9622
▁worship	-10.9625
ón	-10.9626
▁Gen	-10.9627
▁drinking	-10.963
▁publications	-10.9631
▁wheel	-10.9632
▁mirror	-10.9632
▁lawsuit	-10.9632
▁biograph	-10.9634
▁reluctant	-10.964
▁burial	-10.9647
▁Bennett	-10.9649
▁vary	-10.9652
▁Queensland	-10.9652
▁Grace	-10.9652
▁Get	-10.9653
ola	-10.9656
▁Po	-10.9656
▁failing	-10.9658
▁Finland	-10.9662
▁cannon	-10.9664
▁prohibit	-10.9665
▁monaster	-10.9666
car	-10.967
▁Mayor	-10.967
▁Hal	-10.9671
▁petition	-10.9674
▁restore	-10.9676
▁sending	-10.9676
▁structural	-10.9678
▁Brothers	-10.968
▁Ke	-10.9683
▁improvement	-10.9684
▁Norfolk	-10.9691
▁electricity	-10.9691
▁liberal	-10.9693
▁prospect	-10.9701
▁destroyer	-10.9701
▁Sega	-10.971
▁branches	-10.9712
▁mill	-10.9715
▁bann	-10.9718
▁mask	-10.9719
▁Bernard	-10.9721
▁Burton	-10.9722
▁Hawaii	-10.9734
▁activist	-10.9737
▁divorce	-10.9739
▁Still	-10.9739
▁Barry	-10.9744
▁crews	-10.9744
▁Heritage	-10.9745
▁cabinet	-10.9745
▁Rio	-10.9748
▁presentation	-10.9751
ata	-10.9755
▁demonstrate	-10.9766
▁eastward	-10.9767
▁Nicholas	-10.977
che	-10.9772
▁Harbor	-10.9773
▁turbine	-10.9775
▁attending	-10.9778
▁Guinea	-10.978
▁Girls	-10.9781
▁radiation	-10.9785
▁stronger	-10.9792
▁1850	-10.9796
▁eagle	-10.9798
▁precipitation	-10.9805
▁Brazilian	-10.9806
▁Catherine	-10.981
ette	-10.9811
▁Craig	-10.9814
▁atomic	-10.9817
▁Vincent	-10.982
▁Medical	-10.982
▁reinforc	-10.9826
▁instrument	-10.9827
▁signature	-10.983
▁explor	-10.9831
▁athletic	-10.9834
▁photographs	-10.9835
▁exclusively	-10.9837
▁gender	-10.9844
▁pursuit	-10.9845
▁Next	-10.9848
▁beaut	-10.9848
▁slavery	-10.9849
▁inscription	-10.9849
▁contribute	-10.9852
▁grave	-10.9852
▁Penn	-10.9854
▁celebrate	-10.9854
▁loved	-10.9857
▁Emmy	-10.9859
▁cup	-10.9863
▁Davies	-10.9866
sburg	-10.9866
▁hole	-10.9866
▁Edwards	-10.9868
▁Transportation	-10.987
▁Yellow	-10.9874
▁Pa	-10.9877
mar	-10.9879
took	-10.9881
▁Training	-10.9882
▁dogs	-10.9884
▁Kane	-10.9885
▁Anti	-10.9886
▁lists	-10.9887
▁varied	-10.9889
▁volumes	-10.9891
▁Farm	-10.9894
▁Plan	-10.9895
▁Common	-10.9897
sh	-10.9898
▁rent	-10.99
▁limits	-10.99
▁sheet	-10.9906
▁ports	-10.9908
▁fourteen	-10.991
▁o	-10.9912
▁accommodate	-10.9914
▁Sub	-10.9919
▁Scientology	-10.9924
▁Rangers	-10.9927
▁virus	-10.9929
ari	-10.9934
▁champions	-10.9934
tra	-10.9936
▁Hughes	-10.9937
cha	-10.9939
▁Harvard	-10.994
▁storms	-10.9941
▁copper	-10.9945
▁frequency	-10.9953
▁motor	-10.9953
▁Beginning	-10.9955
▁Credits	-10.9957
▁1897	-10.9961
ori	-10.9961
▁Ar	-10.9963
▁Prix	-10.9965
▁lyrical	-10.9966
▁airfield	-10.9967
▁fatal	-10.9969
▁blind	-10.997
▁anger	-10.9973
▁smoke	-10.9981
▁survival	-10.9985
▁recognize	-10.9987
▁sugar	-10.999
▁legislative	-10.999
▁dealing	-10.9991
▁respective	-10.9992
▁suspect	-10.9995
▁Oslo	-10.9996
▁Kirk	-10.9996
▁examin	-11
▁Swiss	-11.0001
▁Well	-11.0003
stein	-11.0004
▁advised	-11.0004
▁sixteen	-11.0005
▁collective	-11.0006
▁promis	-11.0009
▁Cameron	-11.001
▁Gallery	-11.001
▁Indonesia	-11.0011
▁evacuation	-11.0011
▁valuable	-11.0012
▁Classic	-11.0012
▁crystal	-11.0021
▁conceived	-11.0023
▁Owen	-11.0023
▁demo	-11.0025
▁summit	-11.0026
di	-11.0028
▁Susan	-11.0028
▁Jam	-11.0029
▁Officer	-11.0029
▁Moscow	-11.0031
▁sacrifice	-11.0031
▁Vi	-11.0034
▁Box	-11.0037
▁leak	-11.0038
▁initiative	-11.0041
▁Israeli	-11.0044
▁commentator	-11.0046
▁charity	-11.0046
▁representatives	-11.0048
▁Upper	-11.0048
▁mate	-11.0059
▁serial	-11.0063
▁Luke	-11.0064
▁Indonesian	-11.0065
▁voting	-11.0066
▁Pittsburgh	-11.0071
▁export	-11.0071
▁sample	-11.0079
▁worn	-11.0082
▁Stevens	-11.0085
▁Ram	-11.0091
▁burned	-11.0091
▁Antonio	-11.0093
▁supplement	-11.0093
▁cinema	-11.0094
▁servant	-11.0095
▁Female	-11.0102
ita	-11.0102
▁shaft	-11.0102
▁Orange	-11.0103
▁spoken	-11.0106
▁autumn	-11.0112
▁decorat	-11.0117
▁Junior	-11.0117
ik	-11.0123
sky	-11.0125
▁photography	-11.0126
▁Trade	-11.0127
▁tactics	-11.0127
▁confidence	-11.0128
▁Alaska	-11.0129
▁celebrit	-11.0133
ez	-11.0137
▁attorney	-11.0138
▁Pink	-11.014
▁humor	-11.0142
▁fate	-11.0143
▁manga	-11.0145
▁boss	-11.0146
▁puzzle	-11.0148
▁flowers	-11.0149
▁laborator	-11.0149
▁Metro	-11.0151
▁dam	-11.0152
▁nautical	-11.0153
▁Wallace	-11.0153
▁Terry	-11.0154
▁Globe	-11.0155
▁stuff	-11.0158
▁prepar	-11.0159
ular	-11.016
▁Bath	-11.016
▁carrie	-11.0164
▁recommendation	-11.0166
▁roadway	-11.0171
ence	-11.0173
▁List	-11.0179
▁explicit	-11.0179
▁Studio	-11.0179
▁melody	-11.0184
▁Edition	-11.0185
▁tonnes	-11.0186
▁Ti	-11.0186
▁sight	-11.0187
▁assume	-11.0194
▁proceeded	-11.0195
▁None	-11.0203
▁Section	-11.0205
▁urani	-11.0208
▁admir	-11.0211
▁careful	-11.0212
▁Bull	-11.0214
▁tag	-11.0216
▁inclusion	-11.0219
▁Bi	-11.022
▁harbour	-11.022
▁Bryan	-11.0221
▁cat	-11.0225
▁Microsoft	-11.0225
▁Transport	-11.023
▁Syria	-11.0232
▁spell	-11.0233
▁undergo	-11.0236
▁Formation	-11.0237
▁Afterma	-11.0239
▁Judge	-11.024
▁Description	-11.0241
▁Charts	-11.0246
▁indeed	-11.0247
▁dispatch	-11.025
▁Defense	-11.0251
▁occupy	-11.0257
▁minority	-11.0257
▁Secret	-11.0258
▁institution	-11.0259
▁Thing	-11.0261
▁Jefferson	-11.0267
▁Work	-11.028
▁tape	-11.0284
▁Mel	-11.0289
▁Richmond	-11.0293
▁programming	-11.0293
▁burning	-11.0296
▁steal	-11.0297
▁Security	-11.0301
▁mail	-11.0304
▁fossil	-11.0308
▁authoriz	-11.0308
▁01	-11.0308
▁samples	-11.0311
▁Las	-11.0312
▁sculpture	-11.0313
▁Sheffield	-11.0314
▁devices	-11.0317
▁conservation	-11.0319
▁Larry	-11.0319
▁Malaysia	-11.0326
▁wine	-11.0327
▁warfare	-11.033
▁demonstration	-11.0331
▁fairly	-11.0331
▁Lo	-11.0332
▁Soul	-11.0342
▁Ralph	-11.0345
▁users	-11.0345
▁tempo	-11.0352
▁gear	-11.0356
▁1895	-11.0357
▁discipline	-11.0358
▁Dallas	-11.0366
▁package	-11.0368
▁Zero	-11.0374
▁Austin	-11.0377
▁essay	-11.0386
▁riding	-11.0388
▁Herald	-11.0388
▁Allie	-11.0388
▁Ring	-11.0391
▁Johnston	-11.0393
▁rivalry	-11.0395
▁collaborat	-11.0398
▁Together	-11.0398
▁bombardment	-11.0398
▁pale	-11.0399
▁prices	-11.0404
▁inflict	-11.0408
ev	-11.0409
▁uncertain	-11.041
▁FBI	-11.0414
▁administer	-11.0419
▁Cyrus	-11.0419
▁warrior	-11.0424
itis	-11.0428
▁gray	-11.0434
▁transportation	-11.0434
▁Clarke	-11.0434
▁participation	-11.0438
▁Dick	-11.0439
▁Amendment	-11.044
▁Woman	-11.0442
▁papers	-11.0445
▁modification	-11.0451
▁03	-11.0451
▁Abu	-11.0451
▁Picture	-11.0454
▁remote	-11.0456
▁Room	-11.0462
▁Books	-11.0462
▁victim	-11.047
▁airline	-11.0472
▁cruise	-11.0482
▁Musical	-11.0482
▁Wilhelm	-11.0488
▁girlfriend	-11.0493
▁02	-11.0493
▁tale	-11.0501
▁imprison	-11.0503
▁multiplay	-11.0504
ach	-11.0504
▁Off	-11.0507
▁sav	-11.0519
▁brilliant	-11.0525
▁knee	-11.0526
▁Parsons	-11.0527
pe	-11.0529
▁crops	-11.0531
▁wrestler	-11.0532
▁dynamic	-11.0533
▁Armstrong	-11.0536
ig	-11.0538
▁Nova	-11.0538
▁Half	-11.054
▁Danish	-11.0543
▁disband	-11.0546
▁Chelsea	-11.0547
▁salary	-11.0547
▁anticipat	-11.0549
▁Movie	-11.0554
▁habit	-11.0556
▁instruct	-11.0556
▁grandfather	-11.0557
ju	-11.0561
▁Hunt	-11.0562
▁beats	-11.0564
ther	-11.0566
▁beating	-11.0569
▁expectation	-11.0575
▁advocate	-11.0582
▁Hard	-11.0583
▁slight	-11.0583
▁Cathedral	-11.0584
▁platforms	-11.0587
▁Quebec	-11.0595
▁Greater	-11.0596
▁curv	-11.0596
▁Buffalo	-11.06
▁Mega	-11.0605
▁persuad	-11.0608
▁principle	-11.0608
▁principles	-11.0609
▁recurring	-11.0611
▁Sch	-11.0611
▁hook	-11.0616
▁educat	-11.0617
▁Fourth	-11.0619
▁diverse	-11.0622
▁dinosaur	-11.0627
▁dinner	-11.0627
▁playoff	-11.0628
▁vulnerable	-11.0629
▁Apollo	-11.0632
▁revival	-11.0635
▁Cultural	-11.0638
▁Years	-11.0638
▁mytholog	-11.0639
▁orange	-11.0641
▁significance	-11.0644
▁aft	-11.0646
▁deteriorat	-11.0646
▁Agency	-11.0648
▁mixture	-11.0649
▁recovery	-11.0649
▁Authority	-11.065
▁conquer	-11.0656
▁Fighter	-11.0657
▁Spider	-11.066
▁Pictures	-11.0662
▁advertisement	-11.0665
▁Lang	-11.0672
▁conquest	-11.0681
▁gift	-11.0683
▁Fund	-11.0688
▁connections	-11.0688
▁Guitar	-11.069
▁Serbian	-11.0695
▁statistics	-11.0695
▁traveling	-11.0697
▁Stuart	-11.0697
▁Rain	-11.0702
▁Darwin	-11.0706
▁conclude	-11.0709
▁confirm	-11.0711
▁rebels	-11.0714
lan	-11.0719
▁Orleans	-11.0719
▁Tyler	-11.0719
▁consult	-11.0721
▁descent	-11.0725
▁tribe	-11.0726
▁Sal	-11.0727
▁Regional	-11.0733
▁unexpected	-11.0736
▁outcome	-11.0736
▁Utah	-11.0741
▁steer	-11.0743
▁exclud	-11.0749
▁kilometer	-11.0752
▁rug	-11.0752
▁Cricket	-11.0755
▁surge	-11.0756
▁efficient	-11.0757
▁1861	-11.0758
▁interaction	-11.0759
Z	-11.0759
▁Harold	-11.0763
ala	-11.0764
▁Charlotte	-11.0768
▁descendant	-11.0769
▁chest	-11.077
▁cathedral	-11.0774
▁installation	-11.0774
▁error	-11.0775
▁requir	-11.0777
back	-11.0777
▁drift	-11.0778
▁CBS	-11.0779
▁Typhoon	-11.0779
▁Spirit	-11.0785
▁1889	-11.0786
ven	-11.0789
ai	-11.079
▁Child	-11.0791
▁Justin	-11.0791
▁patron	-11.0794
▁FIFA	-11.0796
▁killer	-11.0796
▁magazines	-11.0796
▁Newton	-11.0798
▁texts	-11.0803
▁net	-11.0804
▁Metropolitan	-11.0807
▁experiments	-11.0808
▁mood	-11.0808
▁Constantine	-11.0811
▁Tri	-11.0813
▁Sonic	-11.0816
▁Stand	-11.0821
▁Hunter	-11.0824
▁commanding	-11.0824
▁Jacob	-11.0826
▁Muhammad	-11.0834
▁Bulgarian	-11.0835
▁flows	-11.0835
▁pm	-11.0836
▁Sweet	-11.0839
▁taxe	-11.0843
▁1894	-11.0846
▁upset	-11.0846
▁115	-11.0849
▁fee	-11.085
chemistry	-11.0851
▁Voice	-11.0855
▁destination	-11.0862
work	-11.0863
▁theories	-11.0864
▁wage	-11.0866
▁Pete	-11.0866
▁compil	-11.0867
▁markets	-11.087
▁enable	-11.0873
▁movies	-11.0875
▁scholarship	-11.0879
▁Mid	-11.0879
▁talks	-11.0879
▁diplomatic	-11.0881
iness	-11.0882
▁screenplay	-11.0884
▁Hope	-11.0888
▁competitor	-11.0889
▁resolv	-11.0896
▁provinces	-11.0899
▁tough	-11.09
▁elite	-11.0901
▁lifetime	-11.0904
▁heritage	-11.0906
▁reward	-11.0909
▁Bible	-11.0909
▁highways	-11.0909
▁Wells	-11.0913
ii	-11.0913
▁1000	-11.0915
▁Executive	-11.0917
▁physic	-11.0919
▁saving	-11.0919
▁decisive	-11.0923
▁Freedom	-11.0928
▁1891	-11.0929
▁Mason	-11.093
▁grass	-11.0931
▁rejoin	-11.0934
▁empty	-11.0935
▁illustrat	-11.0937
▁Code	-11.0937
▁sings	-11.094
▁Services	-11.0941
▁fundamental	-11.0942
▁Si	-11.0942
▁Rhodes	-11.0946
▁jet	-11.0956
▁variation	-11.0957
▁processes	-11.096
▁YouTube	-11.0962
▁southeastern	-11.0962
▁lie	-11.0965
he	-11.0968
▁Ruth	-11.0968
▁suitabl	-11.0972
▁Liz	-11.0973
▁immun	-11.0974
▁trick	-11.0976
▁Tan	-11.0978
▁nice	-11.0979
▁joke	-11.099
▁sword	-11.0993
▁evident	-11.0995
▁confusion	-11.0995
▁Cardiff	-11.0995
▁Zone	-11.0998
▁shut	-11.1
▁bulk	-11.1
▁agriculture	-11.1001
▁reache	-11.1004
▁Stock	-11.1008
ó	-11.1009
bar	-11.101
▁cable	-11.101
▁disrupt	-11.101
▁dwarf	-11.1012
▁golden	-11.1013
ated	-11.1014
▁batt	-11.1016
▁telephone	-11.1018
▁Grade	-11.1023
▁Register	-11.1023
▁1892	-11.1024
▁Kyle	-11.1025
▁timber	-11.1029
▁grain	-11.1029
▁millimeter	-11.1034
▁precise	-11.1034
▁proof	-11.104
▁moon	-11.1041
▁Place	-11.1041
▁tune	-11.1042
▁communications	-11.1043
▁Ver	-11.1044
▁biological	-11.1046
▁devoted	-11.1046
ensis	-11.1047
▁Symphony	-11.1051
▁measurement	-11.1052
▁Oak	-11.1054
▁Cat	-11.1055
▁scenario	-11.1057
▁Bat	-11.106
▁followers	-11.1064
▁oriented	-11.1065
▁bowler	-11.1071
▁Electric	-11.1072
▁Beck	-11.1074
▁tru	-11.1074
▁104	-11.1076
▁neutral	-11.1079
▁skill	-11.1079
▁1800	-11.108
▁Conservation	-11.1085
▁infrastructure	-11.1086
▁240	-11.1088
▁asset	-11.1091
▁Falls	-11.1095
▁convey	-11.1095
▁Wisconsin	-11.1096
▁tooth	-11.1099
▁extinct	-11.1101
▁Orchestra	-11.1102
▁pregnant	-11.1102
▁Until	-11.1102
▁Magic	-11.1104
▁refugee	-11.1106
▁opt	-11.1108
▁observer	-11.1111
▁Den	-11.1111
▁Donald	-11.1112
▁sailing	-11.1115
▁tomb	-11.1117
▁applications	-11.1119
▁Sox	-11.1125
▁Danny	-11.1125
▁web	-11.1129
▁Salt	-11.1132
▁steep	-11.1132
▁literal	-11.1135
▁Ga	-11.1136
▁widow	-11.1137
▁Pine	-11.1138
▁arena	-11.1138
▁dimension	-11.1141
▁Cavalry	-11.1142
ren	-11.1144
▁lighting	-11.1155
▁Fish	-11.1157
▁categorie	-11.1159
▁Bel	-11.1159
▁Islamic	-11.116
▁Actress	-11.1165
▁prince	-11.1166
▁Branch	-11.117
▁Jerusalem	-11.117
▁resort	-11.117
▁Oscar	-11.117
tes	-11.1173
ay	-11.1176
▁Attorney	-11.1181
▁Isle	-11.1192
▁onward	-11.1195
▁census	-11.1199
▁Burns	-11.1207
▁pleas	-11.1207
▁sat	-11.1208
▁commenting	-11.1209
▁inning	-11.1209
thel	-11.121
▁afford	-11.1216
▁manuscript	-11.1219
▁Brooks	-11.1219
▁nose	-11.1222
▁Mal	-11.1222
▁impressive	-11.1222
▁bats	-11.1223
▁retail	-11.1226
▁Boeing	-11.1227
▁Airlines	-11.1228
▁fortress	-11.1239
▁MP	-11.1241
▁Again	-11.1242
ron	-11.1243
▁Panzer	-11.1244
▁portrait	-11.1248
▁mini	-11.125
▁Montgomery	-11.125
▁1888	-11.1251
▁blast	-11.1252
ivity	-11.1253
▁fortune	-11.1256
▁Helen	-11.1257
▁scandal	-11.1261
▁overlook	-11.1262
▁pupil	-11.1262
▁Pierre	-11.1263
▁reforms	-11.1264
▁airing	-11.1267
▁Sri	-11.1271
▁realistic	-11.1272
▁Marc	-11.1273
▁alert	-11.1276
vo	-11.1277
▁manufacturer	-11.1277
▁CE	-11.128
▁Chapel	-11.1282
▁lesson	-11.1282
▁proceeding	-11.1285
▁Barnes	-11.1288
▁Czech	-11.129
▁harm	-11.1293
sk	-11.1293
▁Shin	-11.1297
▁pictures	-11.1297
hose	-11.1302
▁Sean	-11.1303
▁clothes	-11.1303
▁Pam	-11.1307
▁Draft	-11.1308
▁comprise	-11.131
▁traditions	-11.1313
▁Turkey	-11.1314
▁speculation	-11.1314
▁Cemetery	-11.1325
▁Independence	-11.1325
▁vital	-11.1325
▁hostile	-11.1326
▁Ta	-11.1326
▁Oh	-11.1328
▁111	-11.1329
▁persons	-11.1329
▁Saturn	-11.1331
▁prototype	-11.1333
▁MacArthur	-11.1337
▁Baltic	-11.1337
▁Sherman	-11.1338
▁yield	-11.1339
▁equally	-11.134
ric	-11.1341
▁promot	-11.1342
▁daughters	-11.1343
▁1885	-11.1344
▁Scots	-11.1349
▁autobiograph	-11.1353
▁naming	-11.1354
▁metric	-11.1357
▁bell	-11.1362
▁approache	-11.1362
▁Leo	-11.1363
Without	-11.1363
▁Say	-11.1365
▁Century	-11.1366
hill	-11.137
zo	-11.1374
▁Sin	-11.1379
▁Joan	-11.1381
▁captur	-11.1383
ada	-11.1385
▁wet	-11.1385
▁Evil	-11.1397
▁swing	-11.1409
▁warships	-11.141
▁explaining	-11.141
▁dependent	-11.1413
▁relation	-11.1419
▁spark	-11.1422
▁strand	-11.1423
▁amendment	-11.143
▁rumor	-11.143
▁concurrent	-11.1441
ae	-11.1446
▁Nature	-11.1449
▁dual	-11.1452
vin	-11.1453
▁Program	-11.1456
▁closure	-11.1459
▁Management	-11.1459
▁hurt	-11.1459
▁columns	-11.146
▁generate	-11.146
▁dying	-11.1464
▁tin	-11.148
▁circular	-11.1482
navy	-11.1482
▁galax	-11.1483
▁Minor	-11.1485
▁intent	-11.1488
▁Reagan	-11.1488
▁Baron	-11.1489
▁predators	-11.1493
▁Sen	-11.1493
▁Neil	-11.1493
▁Thames	-11.1494
▁opin	-11.1494
▁Glee	-11.1495
▁par	-11.1504
▁suspension	-11.1506
▁Barbara	-11.1507
▁Fran	-11.1509
▁scrap	-11.1509
▁disagree	-11.1511
▁978	-11.1516
▁Miles	-11.1516
▁separation	-11.1518
▁romance	-11.152
▁Against	-11.1522
▁segments	-11.1523
▁Tribune	-11.1524
▁Heavyweight	-11.1524
▁distinction	-11.1526
▁Organization	-11.153
▁invest	-11.1531
Y	-11.1533
▁dust	-11.1534
▁Romney	-11.1535
▁blow	-11.1537
▁Shiva	-11.1542
▁trapp	-11.1544
▁myster	-11.1544
▁manufacturing	-11.1547
▁Action	-11.1548
▁1865	-11.1548
▁kills	-11.1549
▁districts	-11.155
▁Athens	-11.1553
▁crimes	-11.1558
▁Son	-11.1559
▁doctrine	-11.1559
▁Ge	-11.1559
▁Dog	-11.1565
▁bears	-11.1565
▁velocity	-11.1565
▁homosexual	-11.1566
9	-11.1567
▁forecast	-11.1568
▁reliev	-11.157
long	-11.1572
her	-11.1577
▁bomber	-11.1578
▁sweet	-11.1579
▁Vol	-11.1579
▁shortage	-11.1579
▁handling	-11.158
▁enroll	-11.1582
▁volcanic	-11.1585
▁blend	-11.1586
▁enhanc	-11.1587
▁Comedy	-11.1589
▁109	-11.1593
tre	-11.1599
▁stroke	-11.16
▁Duch	-11.1602
▁Sport	-11.1603
▁Robin	-11.1606
▁abroad	-11.1608
▁cards	-11.1609
▁harsh	-11.1612
▁NATO	-11.1612
▁Nancy	-11.1613
▁Fu	-11.1614
▁towers	-11.162
▁universities	-11.1622
▁kings	-11.1622
▁cattle	-11.1624
▁Fisher	-11.1625
▁volunteers	-11.1626
▁Set	-11.1627
▁culminat	-11.1628
▁Roll	-11.1629
▁epic	-11.1632
▁visits	-11.1633
▁sinking	-11.1639
▁Cor	-11.1642
▁unveil	-11.1642
▁municipal	-11.1644
▁blues	-11.1644
▁campaigns	-11.1646
▁interrupt	-11.1647
▁exists	-11.1649
▁commanders	-11.1652
▁Cyclone	-11.166
▁squadrons	-11.1662
▁belonging	-11.1668
▁hang	-11.167
▁Protestant	-11.1673
▁usage	-11.168
▁physician	-11.168
▁cyclones	-11.1686
▁corps	-11.169
▁Portugal	-11.169
▁cash	-11.1696
fa	-11.1701
▁rider	-11.1703
▁marking	-11.1704
▁Representatives	-11.1705
ex	-11.1705
▁studying	-11.171
▁Father	-11.1713
▁Angle	-11.1716
▁rushing	-11.1717
▁450	-11.1719
▁Constantinople	-11.172
▁centers	-11.1728
▁Ivan	-11.1728
▁lighter	-11.1729
▁operates	-11.1731
▁participants	-11.1731
▁Newcastle	-11.1733
▁loyal	-11.1733
▁fault	-11.1734
▁housed	-11.1743
▁reactions	-11.1745
▁trait	-11.1748
▁Bu	-11.1752
burg	-11.1753
▁Fe	-11.1754
ston	-11.1755
▁millimetre	-11.1756
▁Personnel	-11.1756
▁massacre	-11.1756
▁Unit	-11.1762
▁Joint	-11.1765
▁Control	-11.1767
ducted	-11.1768
▁ear	-11.1768
▁Eddie	-11.1768
▁Continental	-11.1769
▁settle	-11.1769
ois	-11.1773
▁Drake	-11.1777
▁strange	-11.1777
▁licens	-11.1778
▁gods	-11.1781
▁sentenc	-11.1782
▁concerning	-11.1783
▁batteries	-11.1784
pi	-11.1786
▁Marshal	-11.1786
▁Ancient	-11.1786
▁cheap	-11.1786
▁debri	-11.1794
▁advocat	-11.1795
▁demographic	-11.1799
▁Cena	-11.1799
▁ceiling	-11.1805
▁Shi	-11.1805
▁organisms	-11.1807
▁Ki	-11.1808
▁Tournament	-11.1811
ano	-11.1815
▁Gibraltar	-11.1817
▁enzyme	-11.1817
▁1864	-11.1818
▁Laboratory	-11.1823
▁suspected	-11.1828
▁Cornwall	-11.1829
▁choir	-11.1835
▁admit	-11.1835
▁Liberty	-11.1835
▁displays	-11.1842
▁extract	-11.1846
▁boyfriend	-11.1847
▁ballot	-11.1849
▁Affairs	-11.1851
▁Archbishop	-11.1853
▁genuine	-11.1853
▁Roberts	-11.1854
▁absent	-11.1854
▁sum	-11.1859
▁goddess	-11.1859
▁Lower	-11.1861
tan	-11.1863
▁ERA	-11.1864
▁parks	-11.1864
▁peninsula	-11.1868
ged	-11.187
▁Make	-11.1871
▁Strait	-11.1872
▁ties	-11.1874
▁compromise	-11.1875
▁indigenous	-11.1877
▁dies	-11.1877
▁shadow	-11.1882
▁occurr	-11.1883
▁Malcolm	-11.1884
▁ramp	-11.1884
▁bond	-11.1885
▁arch	-11.1885
beaten	-11.1886
▁quot	-11.1887
▁options	-11.189
▁Career	-11.1892
▁formula	-11.1893
dding	-11.1894
▁Che	-11.1895
▁Val	-11.1895
▁Meteorological	-11.1896
▁blam	-11.1898
▁rivals	-11.1899
▁easier	-11.1899
Hg	-11.19
▁transmission	-11.1902
▁logo	-11.1904
▁corporate	-11.1908
▁hills	-11.1909
▁Collection	-11.1914
▁Boulevard	-11.1914
▁referee	-11.1915
yl	-11.1918
▁Isaac	-11.1923
▁mineral	-11.1925
▁Kenneth	-11.1927
board	-11.1928
▁remake	-11.1933
▁helicopter	-11.1939
▁definite	-11.194
▁statements	-11.1946
▁Opera	-11.1949
▁myth	-11.1949
▁Alberta	-11.195
▁custom	-11.1951
▁Leicester	-11.1951
▁deputy	-11.1951
▁consumption	-11.1951
uri	-11.1952
▁Ro	-11.1952
▁scrapp	-11.1954
▁Where	-11.1955
▁Yu	-11.1956
▁Record	-11.1957
▁metre	-11.1961
ors	-11.1966
▁bore	-11.197
▁hide	-11.1971
▁terminal	-11.1971
▁Ca	-11.1973
▁Low	-11.1973
▁Hans	-11.1973
▁flesh	-11.1976
ries	-11.1981
net	-11.1981
▁Capital	-11.1982
▁DJ	-11.1986
▁excess	-11.1988
▁Pedro	-11.1988
▁measur	-11.1989
▁ordinar	-11.1992
▁resignation	-11.1995
▁nurse	-11.2
▁Energy	-11.2001
▁Dublin	-11.2001
osaurus	-11.2001
▁Angelo	-11.2005
▁Resident	-11.2007
▁Chamberlain	-11.2007
▁José	-11.2007
▁suppress	-11.2012
▁attribute	-11.2012
▁relat	-11.2018
▁Rogers	-11.2018
▁Friends	-11.2023
▁rely	-11.2025
▁dreadnought	-11.2025
▁benefits	-11.2028
▁remov	-11.2029
ngry	-11.2031
▁punishment	-11.2032
con	-11.2034
sch	-11.2034
▁judges	-11.2035
drawn	-11.2039
▁Link	-11.204
▁doors	-11.2043
▁pounder	-11.2044
▁1862	-11.2045
▁Rush	-11.2048
▁comment	-11.2049
▁restrictions	-11.2053
▁Electronic	-11.2057
▁Hearts	-11.206
▁Yugoslavia	-11.206
▁heir	-11.206
▁stern	-11.2063
▁infant	-11.2063
▁Pen	-11.2064
bu	-11.2068
DOT	-11.2068
▁industrie	-11.207
▁corresponding	-11.2071
▁loud	-11.2072
▁sick	-11.2074
▁nephew	-11.2075
▁Bradley	-11.2076
mouth	-11.2079
▁releas	-11.2083
▁Machine	-11.2086
▁Adventure	-11.2096
▁Romanian	-11.2096
ball	-11.2099
▁Lin	-11.21
▁accessibl	-11.2101
▁territorial	-11.2106
▁user	-11.211
▁shipment	-11.211
▁variations	-11.2111
▁organic	-11.2117
▁beliefs	-11.2118
▁rescu	-11.2118
▁vicinit	-11.2119
▁observe	-11.212
▁Dennis	-11.2121
▁disappointed	-11.2129
▁fold	-11.2129
▁settlements	-11.2129
▁Start	-11.2131
▁kilogram	-11.2131
▁Burke	-11.2133
▁Youth	-11.2138
▁corridor	-11.2144
▁101	-11.2145
▁102	-11.2147
▁mixing	-11.2147
▁Dakota	-11.215
▁thunderstorm	-11.215
▁customers	-11.2154
▁bitter	-11.2156
▁rapper	-11.2157
▁Cast	-11.2158
▁positively	-11.2161
▁Political	-11.2163
▁complicated	-11.2163
▁crop	-11.217
▁Historian	-11.2172
▁stall	-11.2173
▁expert	-11.2176
▁revolutionary	-11.2177
ken	-11.2181
▁valid	-11.2185
▁roster	-11.2188
▁barrel	-11.2188
▁ferry	-11.2188
▁particles	-11.2194
▁Churchill	-11.2195
▁lit	-11.2195
▁Bears	-11.2196
▁Serbia	-11.2199
▁log	-11.22
▁Springfield	-11.2201
▁Serb	-11.2204
▁Jake	-11.2206
▁Fi	-11.2206
▁Legend	-11.2209
▁Ya	-11.2209
▁dive	-11.2211
▁pound	-11.2211
▁finals	-11.2214
▁Past	-11.2219
▁Range	-11.222
▁prayer	-11.222
▁convicted	-11.2221
▁burst	-11.2222
▁Rear	-11.2223
▁Morning	-11.2224
▁Tommy	-11.2226
▁humanity	-11.2227
▁Conservative	-11.2228
▁Ages	-11.2229
▁consumer	-11.2229
▁Filming	-11.2233
▁reconstruction	-11.2233
▁inaugural	-11.2239
▁Alliance	-11.2239
▁Count	-11.2239
▁averag	-11.2239
▁steadi	-11.2244
▁Studies	-11.2246
▁Th	-11.2253
▁oversee	-11.2254
▁1840	-11.2259
ise	-11.226
▁mansion	-11.2264
▁sheep	-11.2265
▁Crystal	-11.2271
▁honest	-11.2271
▁220	-11.228
▁lasting	-11.228
▁parliamentar	-11.228
▁sentiment	-11.228
▁challenges	-11.2281
▁mysterious	-11.2283
▁sharks	-11.2284
▁transit	-11.2286
▁possess	-11.2286
mp	-11.2288
▁Wagner	-11.2289
▁Blake	-11.2291
▁colours	-11.2292
▁Hull	-11.2293
▁maps	-11.2293
▁Maine	-11.2296
▁Malta	-11.2297
▁drink	-11.2297
▁silent	-11.2302
▁wash	-11.2304
▁arose	-11.2305
▁Hop	-11.2306
▁Friedrich	-11.2308
▁domain	-11.2309
▁Mind	-11.231
▁cuts	-11.2315
▁Montana	-11.2315
▁Rich	-11.2316
reby	-11.2321
▁combine	-11.2326
▁exterior	-11.2328
▁mammals	-11.233
▁camps	-11.2333
▁medals	-11.2333
▁Cincinnati	-11.234
▁labour	-11.234
hu	-11.2342
om	-11.2343
▁quarters	-11.2343
▁Cho	-11.2344
▁conspiracy	-11.2347
▁pole	-11.2347
je	-11.2352
▁dock	-11.2353
▁courses	-11.2353
▁Olivia	-11.2354
▁gathering	-11.2354
▁le	-11.2355
▁Nation	-11.2357
▁companion	-11.2359
▁noise	-11.2362
▁voters	-11.2366
▁Kaiser	-11.2373
▁Scar	-11.2374
ö	-11.2375
▁gunner	-11.2377
▁permit	-11.2381
▁Reed	-11.2382
▁threatening	-11.2385
lock	-11.2387
▁rotation	-11.2389
▁egg	-11.2393
llied	-11.2394
▁mutual	-11.2398
▁Marines	-11.2398
▁spider	-11.2405
▁Normandy	-11.2405
▁Ex	-11.2409
where	-11.2414
tin	-11.2416
▁Afghanistan	-11.2424
▁asserted	-11.2425
▁stunt	-11.2425
▁ensur	-11.2427
▁rifle	-11.2427
▁VIII	-11.2431
▁reporter	-11.2432
▁Mor	-11.2437
ud	-11.244
▁invent	-11.2446
▁Arena	-11.2453
▁Circle	-11.2456
▁sphere	-11.2458
▁voices	-11.246
ros	-11.2462
var	-11.2463
▁1887	-11.2464
▁dropping	-11.2464
▁plates	-11.2469
▁skeleton	-11.2469
▁Madison	-11.2469
▁assassination	-11.247
▁feathers	-11.2472
▁bi	-11.2472
▁Yugoslav	-11.2472
▁Devil	-11.2474
ff	-11.2476
▁Ku	-11.2477
▁Edmund	-11.2482
▁installment	-11.2483
▁trio	-11.2484
▁Twitter	-11.2489
▁Gay	-11.2489
▁patent	-11.2489
▁outstanding	-11.2491
▁random	-11.2495
▁Curtis	-11.2502
▁Julian	-11.2503
▁DS	-11.2505
▁fat	-11.2507
▁Future	-11.2508
▁disabl	-11.251
▁1863	-11.2516
▁mild	-11.2522
▁Vegas	-11.2529
▁filmmaker	-11.253
▁Former	-11.2533
▁1886	-11.2536
▁Sand	-11.2539
▁pump	-11.2539
▁root	-11.2539
▁Gregory	-11.254
▁readi	-11.2542
▁Orton	-11.2544
▁tools	-11.2547
▁Technology	-11.2547
▁enact	-11.2548
▁Milan	-11.2549
ap	-11.2549
worth	-11.2557
▁Brook	-11.2559
▁migration	-11.2559
tis	-11.2559
▁pink	-11.2561
▁routing	-11.2564
▁borrow	-11.2566
▁JNA	-11.2569
▁intermediate	-11.2573
▁Schumach	-11.2575
▁varying	-11.258
▁Tr	-11.258
▁exploration	-11.2581
▁Leeds	-11.2587
▁Mercury	-11.2587
▁Brooklyn	-11.2587
▁Banks	-11.259
ida	-11.2592
▁fungus	-11.2593
▁teenager	-11.2596
▁Em	-11.2597
mm	-11.2598
▁judicial	-11.26
▁Mir	-11.2603
▁Kings	-11.2604
▁MLB	-11.2606
▁grid	-11.2607
▁Wi	-11.2614
▁Urban	-11.2615
▁Origin	-11.2616
▁Iran	-11.2621
▁Comics	-11.2622
▁gauge	-11.2631
▁harbor	-11.2633
▁complement	-11.2634
▁comics	-11.2638
▁trans	-11.2638
▁Hubbard	-11.2639
▁faculty	-11.2646
▁submerg	-11.2646
▁swept	-11.2646
we	-11.2646
▁witnesses	-11.2647
▁Herbert	-11.2653
▁Planet	-11.2654
▁Princeton	-11.2658
▁Sultan	-11.2665
▁McKinley	-11.2666
▁independently	-11.2669
▁sad	-11.2677
▁Month	-11.2679
▁psychological	-11.2679
▁emission	-11.2679
▁murdered	-11.2679
▁bombard	-11.268
▁blockade	-11.2684
▁enormous	-11.2685
▁Eagle	-11.2686
▁zero	-11.2686
▁ion	-11.2694
▁Buddhist	-11.2699
▁declaration	-11.27
▁pav	-11.2711
▁magnetic	-11.2712
▁martial	-11.2712
▁corporation	-11.2719
▁1884	-11.272
▁Tigers	-11.2725
▁Official	-11.2729
min	-11.2732
▁allegation	-11.2732
▁NASA	-11.2733
▁holes	-11.2733
▁touchdowns	-11.2736
fshore	-11.2737
thrown	-11.2738
▁rains	-11.2741
▁sketch	-11.2742
▁Eight	-11.2749
▁stability	-11.2749
▁Theater	-11.2752
▁atop	-11.2753
▁coastline	-11.2755
▁Computer	-11.2761
▁Want	-11.2761
▁excessive	-11.2766
▁censor	-11.2766
▁Les	-11.2768
▁detect	-11.2769
ika	-11.2769
▁irregular	-11.2772
▁Austro	-11.2772
▁Total	-11.2774
▁boost	-11.2776
▁consequence	-11.2778
▁locomotives	-11.2779
▁violation	-11.278
▁rebel	-11.2784
▁Glasgow	-11.2785
▁confused	-11.2791
▁scores	-11.2791
▁acquisition	-11.2792
▁insurance	-11.2792
▁decoration	-11.2794
▁flown	-11.2794
▁ceremoni	-11.2795
▁torpedoes	-11.2797
▁fortifications	-11.2797
▁polar	-11.2801
▁harvest	-11.2805
▁echo	-11.2809
ok	-11.2809
▁Canucks	-11.2811
▁collections	-11.2812
▁challenging	-11.2812
era	-11.2814
har	-11.2815
▁calm	-11.2817
▁tender	-11.2819
▁HD	-11.2822
▁couldn	-11.2823
▁Ernest	-11.2827
▁rice	-11.283
▁cotton	-11.2832
▁noble	-11.2833
▁scout	-11.2833
▁Turn	-11.2838
▁engineers	-11.2839
▁Theodore	-11.2841
▁wire	-11.2844
▁adjust	-11.2845
▁deployment	-11.2847
▁nationalist	-11.2851
▁Fifth	-11.2852
▁Phillies	-11.2852
▁uprising	-11.2856
▁Gar	-11.2858
▁Ottawa	-11.2859
▁rocks	-11.2861
▁quest	-11.2862
▁Millennium	-11.2866
▁Tintin	-11.2867
▁diversity	-11.2867
▁remind	-11.2868
▁worse	-11.2871
▁Denver	-11.2873
▁laps	-11.2873
▁Westminster	-11.2873
▁milk	-11.288
▁resembl	-11.289
▁viewing	-11.2891
▁Nevada	-11.2893
▁Percy	-11.2893
▁UB	-11.2896
ei	-11.2897
▁Days	-11.2897
row	-11.2898
▁BCE	-11.2903
▁Otto	-11.2904
▁collector	-11.2906
mont	-11.2907
▁Chuck	-11.2912
▁CEO	-11.2914
▁gene	-11.2919
▁Basketball	-11.292
▁jail	-11.292
▁1877	-11.2921
▁exceptional	-11.2927
▁bottle	-11.2927
shi	-11.2928
▁Rap	-11.2928
▁scar	-11.2929
▁fulfill	-11.293
▁Non	-11.2931
ward	-11.2931
rat	-11.2932
▁Brad	-11.2934
▁aesthetic	-11.2934
▁Current	-11.2934
▁myself	-11.2935
▁Gothic	-11.2936
▁donation	-11.294
▁1876	-11.2948
▁Manuel	-11.2949
▁emphasiz	-11.2949
▁Mont	-11.295
▁beside	-11.2952
▁outfit	-11.2955
▁cemetery	-11.2957
▁agencies	-11.2961
▁jersey	-11.2961
▁Stage	-11.2961
▁conviction	-11.2961
▁Mercedes	-11.2962
▁adapt	-11.2962
cher	-11.2965
night	-11.2965
▁file	-11.2966
▁threats	-11.2966
▁motif	-11.2968
▁CO	-11.297
▁Ground	-11.2971
▁detected	-11.2973
▁eliminate	-11.2974
red	-11.2977
▁Colin	-11.2979
▁battlefield	-11.2981
▁notion	-11.2981
▁Walt	-11.2983
▁Large	-11.2988
ula	-11.2988
ize	-11.2989
▁Ellen	-11.2991
▁rebounds	-11.2994
▁dissolv	-11.2994
▁guests	-11.2994
▁Inside	-11.2998
▁congregation	-11.2999
▁relate	-11.3006
▁hypothesis	-11.3009
▁Emma	-11.301
▁Albany	-11.3012
▁Watch	-11.3014
istic	-11.3015
▁sensitive	-11.3015
▁Gloucester	-11.3015
▁Cox	-11.3018
▁editions	-11.302
▁hybrid	-11.3022
▁Ronald	-11.3023
▁radius	-11.3023
ugh	-11.3026
▁revenge	-11.3029
▁assignment	-11.303
▁hint	-11.303
▁variable	-11.3036
▁Hood	-11.3037
▁Grove	-11.3043
▁varie	-11.3044
▁monster	-11.3047
▁eligible	-11.3051
▁elevated	-11.3053
▁consideration	-11.3055
sson	-11.3056
▁Territory	-11.3057
▁declare	-11.3058
Brien	-11.3061
▁strikes	-11.3061
▁Hand	-11.3063
ram	-11.307
▁hail	-11.3074
▁calculat	-11.3075
▁reviv	-11.3076
▁competitions	-11.3082
▁Nash	-11.3083
▁links	-11.309
▁Composition	-11.3091
▁Mass	-11.3092
▁1830	-11.3093
▁pet	-11.3093
▁prompting	-11.3094
▁Weather	-11.3098
▁Delta	-11.3099
▁Gu	-11.31
▁fed	-11.3101
▁steppe	-11.3104
▁specialist	-11.3108
wick	-11.3109
ix	-11.311
▁Islam	-11.3111
▁emerge	-11.3112
▁Chester	-11.3113
▁resolve	-11.3113
▁aside	-11.3114
▁Win	-11.3117
▁finest	-11.3117
▁Canyon	-11.3119
▁fossils	-11.312
▁crush	-11.3122
fer	-11.3123
▁kiss	-11.3124
▁Barcelona	-11.3126
▁Pokémon	-11.3126
▁venture	-11.3127
▁indirect	-11.3129
▁integrated	-11.3131
▁1875	-11.3134
▁lava	-11.3134
▁achievement	-11.3137
▁enthusiastic	-11.314
▁Foster	-11.3147
ira	-11.3152
▁cubic	-11.3155
▁odd	-11.3157
▁Carr	-11.3161
▁Parkway	-11.3166
▁linear	-11.3167
▁sharing	-11.3174
▁Henderson	-11.3174
▁width	-11.3174
▁archaeological	-11.3174
▁Round	-11.3175
▁Carlos	-11.3175
▁Labor	-11.3175
▁230	-11.3178
▁SmackDown	-11.3188
▁Enix	-11.3188
▁yd	-11.3192
▁laugh	-11.3192
▁Was	-11.3194
▁blame	-11.3194
▁abundant	-11.3195
▁notic	-11.3198
▁breach	-11.32
▁Got	-11.3202
tel	-11.3202
▁Raymond	-11.3202
▁instant	-11.3203
▁carv	-11.3207
▁weakness	-11.3207
▁Lion	-11.321
▁resign	-11.3212
▁horn	-11.3215
qua	-11.3215
▁leaf	-11.3218
▁Duncan	-11.3223
▁Blair	-11.3223
▁infect	-11.3224
▁encounters	-11.3226
▁vegetation	-11.323
▁southwestern	-11.3231
▁successive	-11.3236
▁Derby	-11.3238
▁1883	-11.3239
ona	-11.324
▁memoir	-11.3244
▁speculat	-11.3247
▁kids	-11.3248
▁tier	-11.3249
▁Professional	-11.3258
▁1881	-11.326
▁Desert	-11.326
▁Leigh	-11.3261
▁spawn	-11.3262
▁Store	-11.3262
▁manag	-11.3263
▁scientist	-11.3264
▁Josh	-11.3265
▁hunter	-11.3269
▁continental	-11.3271
▁delegation	-11.3272
▁lease	-11.3275
▁borough	-11.3277
▁submarines	-11.3279
▁invitation	-11.3279
▁properly	-11.3279
iv	-11.3281
▁Auto	-11.3292
▁verses	-11.3292
▁acquire	-11.3295
▁aggregate	-11.3295
▁135	-11.3296
▁Solar	-11.3296
▁Veronica	-11.33
▁Northwest	-11.3301
▁Scout	-11.3305
▁coaches	-11.3306
ec	-11.3306
▁propaganda	-11.3307
aki	-11.3309
▁Marsh	-11.3312
▁Tar	-11.3317
▁Lead	-11.3318
▁Jamaica	-11.332
▁170	-11.332
▁printing	-11.3321
▁Cardinals	-11.3322
mon	-11.3322
▁lesser	-11.3324
▁presidenc	-11.3326
▁Powell	-11.3329
▁procedure	-11.333
▁exhaust	-11.3331
▁hence	-11.3332
▁Lancashire	-11.3336
▁backed	-11.3338
▁orchestral	-11.3339
tion	-11.334
▁Richardson	-11.3342
▁consciousness	-11.3344
▁crucial	-11.3344
▁1869	-11.3344
▁Gene	-11.3345
▁190	-11.3347
▁tendenc	-11.3354
▁Tang	-11.3354
▁Ferdinand	-11.3357
▁damaging	-11.3357
▁Standard	-11.3359
▁Holland	-11.3362
▁Gil	-11.3363
▁Calgary	-11.3364
▁detachment	-11.3364
▁championships	-11.337
refore	-11.3372
▁Venic	-11.3378
▁instructions	-11.3378
comprising	-11.3379
▁northeastern	-11.338
▁Mail	-11.338
▁Shah	-11.3381
▁Ber	-11.3382
Q	-11.3393
ero	-11.3394
▁spite	-11.3396
▁nervous	-11.3399
▁1866	-11.3401
▁Butler	-11.3402
▁genres	-11.3402
versus	-11.3412
▁compar	-11.3414
bi	-11.3419
▁sortie	-11.3419
▁Floyd	-11.3421
urged	-11.3422
▁possessed	-11.3426
▁hamlet	-11.3428
▁woodland	-11.343
▁sailors	-11.3434
▁Culture	-11.3435
if	-11.3436
▁modest	-11.3443
▁750	-11.3443
▁Wellington	-11.3443
▁button	-11.3443
▁worker	-11.3449
dom	-11.3451
▁LP	-11.3452
▁ambassador	-11.3456
▁Gabriel	-11.3462
▁remarkabl	-11.3464
▁Mann	-11.3465
▁Beij	-11.3465
▁Viet	-11.3468
pin	-11.3469
▁Cloud	-11.3469
▁Palestin	-11.347
▁seeming	-11.347
▁corruption	-11.3471
▁Headquarters	-11.3472
▁Using	-11.3475
▁populat	-11.3477
▁clan	-11.3477
▁Michel	-11.3477
▁phenomenon	-11.3478
▁Euro	-11.3482
▁filter	-11.3484
▁Crawford	-11.3485
▁Solomon	-11.3485
▁Ban	-11.3485
▁Members	-11.349
▁Steel	-11.3491
▁Aaron	-11.3492
▁Cry	-11.3493
▁Market	-11.3496
▁gam	-11.3497
▁whale	-11.3498
▁input	-11.3499
▁philosopher	-11.3499
▁Cha	-11.35
▁Punk	-11.3504
▁thanks	-11.3507
▁Flanders	-11.3507
▁consent	-11.3507
▁lifestyle	-11.3507
▁Metal	-11.3511
▁Episode	-11.3512
▁anthem	-11.3512
itt	-11.3513
▁127	-11.3513
▁Telegraph	-11.3514
▁clouds	-11.352
▁cameo	-11.3521
▁Rama	-11.3524
▁surprising	-11.3528
▁Hit	-11.3532
▁dimensional	-11.3533
▁coordinate	-11.3533
▁eighteen	-11.3534
gi	-11.3535
▁kitchen	-11.3536
▁colored	-11.3543
▁silk	-11.3543
▁Monster	-11.3543
▁Watson	-11.3543
▁Fischer	-11.3544
▁Tucker	-11.3546
▁Thor	-11.3546
▁Titan	-11.3547
▁Food	-11.3547
▁Chile	-11.3548
▁poverty	-11.355
▁ambition	-11.355
▁1873	-11.3551
▁Truman	-11.3551
▁insert	-11.3553
fish	-11.3554
▁innovation	-11.3557
▁awareness	-11.356
▁subtropic	-11.3561
▁achievements	-11.3562
▁commend	-11.3563
▁shopp	-11.3563
▁Heavy	-11.3564
▁stripp	-11.3565
▁1882	-11.3566
▁arcade	-11.3572
▁rehearsal	-11.3573
▁mbar	-11.3576
▁consequent	-11.3578
▁Alpha	-11.3581
▁regiments	-11.3581
▁ensemble	-11.3586
▁persuade	-11.359
ora	-11.3592
▁1871	-11.3597
▁conducting	-11.36
▁Quest	-11.36
▁eruption	-11.3603
▁theaters	-11.3604
▁1867	-11.3609
▁listening	-11.3613
▁Monument	-11.3615
▁ca	-11.3615
▁pleasure	-11.3615
▁molecular	-11.3618
yne	-11.3621
▁poison	-11.3622
▁troop	-11.3622
▁variant	-11.3625
▁stor	-11.3628
▁Kepler	-11.363
▁Revolutionar	-11.363
air	-11.363
▁Mer	-11.3633
▁overcome	-11.3637
▁Sel	-11.3638
▁Too	-11.3638
▁McCarthy	-11.3644
▁tactical	-11.3645
▁acceptance	-11.3647
▁rocket	-11.3648
▁navigation	-11.3648
▁assessment	-11.3656
▁clip	-11.3658
▁arguments	-11.3658
▁mechanics	-11.3663
▁Bengal	-11.3664
▁surpassed	-11.3672
▁reopen	-11.3673
▁fierce	-11.3674
▁interact	-11.3676
▁realm	-11.3676
▁mast	-11.3678
▁Dudley	-11.3681
ide	-11.3681
▁forth	-11.3681
▁Norse	-11.3682
▁erupt	-11.3687
art	-11.3688
▁Vo	-11.3688
▁elephant	-11.3688
▁relay	-11.369
▁revealing	-11.369
▁overwhelming	-11.3691
▁Christians	-11.3694
▁Bal	-11.3694
▁performers	-11.3697
▁intelligent	-11.3698
▁winners	-11.3698
ku	-11.3701
▁Deputy	-11.3703
▁peasant	-11.3703
▁tributar	-11.3703
▁unanimous	-11.3703
▁1878	-11.3704
▁Mall	-11.3706
▁ease	-11.371
▁Gibson	-11.371
▁Newman	-11.3713
▁genera	-11.3715
▁comprised	-11.3715
▁ambush	-11.3716
▁pocket	-11.3717
▁Heaven	-11.3717
▁Movement	-11.3718
▁functional	-11.372
▁fitting	-11.3722
▁syndrome	-11.3725
▁focuse	-11.3729
▁Number	-11.3731
▁oak	-11.3733
▁Commercial	-11.3739
▁Hi	-11.3742
▁clash	-11.3746
▁Luftwaffe	-11.3747
▁ironclad	-11.3747
▁harmon	-11.3748
▁allocat	-11.3752
▁Isles	-11.3752
▁sic	-11.3752
▁Damage	-11.3755
▁Hor	-11.3759
▁iTune	-11.3762
▁prefer	-11.3768
▁Trinity	-11.3769
sville	-11.3776
▁boom	-11.3783
▁Hawaiian	-11.3787
▁Spin	-11.379
▁divine	-11.379
▁graphic	-11.3791
▁privilege	-11.3792
▁vocalist	-11.3794
▁Burger	-11.3794
▁dome	-11.3795
▁Region	-11.3796
▁micro	-11.3796
▁Body	-11.3796
19	-11.38
ax	-11.38
▁gang	-11.3801
▁Mobile	-11.3808
▁Leader	-11.381
▁Expedition	-11.3813
stream	-11.3816
▁reinforce	-11.3817
▁Fat	-11.3821
▁Choice	-11.3821
▁jaw	-11.3821
▁legitimate	-11.3821
▁bowled	-11.3823
▁raw	-11.3824
elli	-11.3828
▁feminist	-11.3828
tus	-11.3829
▁underwater	-11.3839
▁reader	-11.3842
pop	-11.3845
▁Combat	-11.3846
▁Metacritic	-11.385
▁statute	-11.3851
▁Logan	-11.3854
▁plantation	-11.3859
zi	-11.3861
ick	-11.3862
▁Bermuda	-11.3865
▁lesbian	-11.3865
▁qualification	-11.3865
▁Lone	-11.3866
▁Fa	-11.387
▁Springs	-11.3877
▁situations	-11.388
▁Sar	-11.3883
▁missile	-11.3883
▁quit	-11.3885
▁Ever	-11.3886
▁Taiwan	-11.3887
▁consensus	-11.3888
▁bag	-11.3894
▁pine	-11.3896
▁spare	-11.3897
▁shirt	-11.3898
▁Trans	-11.3901
▁qualities	-11.3903
▁synthesis	-11.3903
▁Shelley	-11.3903
▁Notable	-11.3903
▁Steam	-11.3904
▁Monroe	-11.3904
▁Qu	-11.3906
▁intact	-11.391
▁manual	-11.3911
▁loyalty	-11.3911
▁crack	-11.3916
▁Kan	-11.3916
q	-11.3917
▁caution	-11.3918
▁coalition	-11.3918
▁perception	-11.3918
▁centered	-11.392
▁directing	-11.3922
▁immigrants	-11.3922
▁Marcus	-11.3923
ag	-11.3925
▁Genesis	-11.3925
▁Chase	-11.3927
▁fragments	-11.3928
▁adequate	-11.3933
▁Spencer	-11.3933
▁knowing	-11.3939
▁Christianit	-11.394
▁whales	-11.3942
▁horizontal	-11.3945
▁Op	-11.3948
▁stake	-11.3948
▁mad	-11.3955
▁Chandler	-11.3955
▁Various	-11.3955
▁1868	-11.3964
▁1872	-11.3964
▁Price	-11.3965
▁Wu	-11.3967
▁Aguilera	-11.397
tte	-11.3971
▁desperate	-11.3973
▁Ellis	-11.3974
▁caliber	-11.3978
▁captive	-11.3978
▁divert	-11.398
▁spots	-11.398
▁declar	-11.3981
▁Starr	-11.3981
▁elde	-11.3981
▁Stars	-11.3982
▁Kid	-11.3983
▁Selena	-11.3986
▁flame	-11.3988
▁peaceful	-11.4005
▁Money	-11.4009
▁Pet	-11.4011
▁Rod	-11.4012
▁knight	-11.4013
hurst	-11.4013
20	-11.4013
ill	-11.4015
▁detective	-11.4017
▁twentieth	-11.4017
10	-11.4021
▁complaints	-11.4021
▁teach	-11.4023
▁insufficient	-11.4023
▁trademark	-11.4024
▁tow	-11.4028
▁Cabinet	-11.4031
▁songwriting	-11.4031
▁instrumentation	-11.4032
▁RNA	-11.4033
▁productions	-11.4034
▁fluid	-11.4038
▁locomotive	-11.4038
▁objection	-11.4042
▁ministers	-11.4043
▁engaging	-11.4046
▁Generation	-11.4046
▁cabin	-11.4046
▁batsman	-11.4046
▁renovation	-11.4046
▁MVP	-11.4047
vi	-11.405
▁Poe	-11.4051
▁flash	-11.4052
▁continent	-11.4052
▁Newport	-11.4053
▁thorough	-11.4053
van	-11.4063
▁Engineering	-11.4063
▁slot	-11.4064
▁preliminar	-11.4069
▁Tiger	-11.4071
▁Contemporar	-11.4071
ane	-11.4072
▁rally	-11.4074
fire	-11.4075
▁Berg	-11.4076
▁Griffin	-11.4076
▁Riley	-11.4077
▁Fear	-11.4079
▁spectators	-11.4082
▁meal	-11.4083
▁bacteria	-11.4083
▁Renaissance	-11.4084
▁internationally	-11.4085
▁Barrett	-11.4086
▁Parachute	-11.4092
▁Beat	-11.4093
▁tea	-11.4095
qui	-11.41
▁judgment	-11.41
▁stance	-11.41
▁Sciences	-11.4101
▁loaded	-11.4104
ology	-11.4105
▁Adelaide	-11.4107
▁machines	-11.4107
▁Commons	-11.4111
▁Come	-11.4114
▁objectives	-11.4115
▁Reading	-11.4115
▁utiliz	-11.4117
▁Franco	-11.4118
▁homeless	-11.4121
▁Mills	-11.4123
▁WWF	-11.4123
▁Tre	-11.4124
ble	-11.4124
▁Guild	-11.4125
▁Glass	-11.413
▁reminiscent	-11.413
▁Principal	-11.413
▁Article	-11.4132
▁Kill	-11.4132
▁punt	-11.4134
▁Der	-11.4136
▁preference	-11.4138
▁Flames	-11.4144
▁pen	-11.4144
▁Surrey	-11.4145
▁dealt	-11.4145
▁Regard	-11.4145
▁wonder	-11.4146
▁motorway	-11.4146
▁weighed	-11.4147
▁Mon	-11.4149
▁interference	-11.4153
▁Maxwell	-11.4154
▁passion	-11.4154
▁attractive	-11.4155
▁laud	-11.4161
▁stain	-11.4167
▁authentic	-11.4169
▁lemurs	-11.4169
▁derive	-11.417
▁texture	-11.4171
▁publish	-11.4177
viation	-11.4178
▁etc	-11.4182
▁gallery	-11.4184
▁depot	-11.4185
▁True	-11.4187
▁Single	-11.419
▁Chancellor	-11.4191
▁attachment	-11.4191
▁consequences	-11.4192
gar	-11.4193
▁175	-11.4194
wich	-11.42
▁wishes	-11.42
▁XI	-11.4204
▁Essex	-11.4207
▁Abraham	-11.4207
▁Skinner	-11.4207
▁chord	-11.4211
▁Heath	-11.4212
▁thickness	-11.4214
▁auction	-11.4214
▁Plymouth	-11.4214
▁quantiti	-11.4214
ub	-11.4215
▁layout	-11.4215
▁Had	-11.4219
▁Carol	-11.422
▁unaware	-11.4222
▁warrant	-11.4223
▁cartoon	-11.4224
▁cylinder	-11.4227
▁volunteer	-11.4228
▁quote	-11.4229
▁mathematics	-11.423
▁Madrid	-11.423
▁parade	-11.4231
▁dislik	-11.4231
▁civilization	-11.4231
ib	-11.4233
▁Banksia	-11.4234
▁Geoffr	-11.4235
▁Mat	-11.4236
▁Baldwin	-11.4238
▁Brigadier	-11.4245
▁Tunnel	-11.4245
▁Why	-11.4247
▁reactor	-11.4249
▁weld	-11.425
rie	-11.4252
▁Hancock	-11.4253
▁locate	-11.4253
▁runway	-11.4257
▁pin	-11.4257
▁ski	-11.4258
▁endors	-11.4259
▁clay	-11.4261
▁revers	-11.4264
▁Preston	-11.4264
▁Beth	-11.4265
▁machinery	-11.4266
▁neglect	-11.4268
▁roller	-11.427
▁Adrian	-11.4276
▁Lancaster	-11.4276
▁Vienna	-11.4276
▁Tin	-11.4285
▁Mongol	-11.429
▁seeds	-11.4293
▁Model	-11.4295
▁flaw	-11.4297
▁Bosnia	-11.4297
named	-11.4298
▁cluster	-11.4299
▁electro	-11.43
▁configuration	-11.43
▁Coach	-11.4301
▁divide	-11.4308
▁Mk	-11.4308
▁rings	-11.431
▁confident	-11.4315
▁ants	-11.4315
▁Florence	-11.4315
▁accelerat	-11.4315
▁chas	-11.4317
▁Diamond	-11.4317
▁Zoo	-11.4319
▁progression	-11.432
▁nominee	-11.4323
▁Belle	-11.4323
▁106	-11.4325
▁lights	-11.4327
▁Aviation	-11.433
▁proximit	-11.4331
▁Flood	-11.4331
▁citizen	-11.4331
▁Admiralty	-11.4335
▁intend	-11.4336
▁fake	-11.4339
▁redesign	-11.4343
én	-11.4347
▁rookie	-11.4349
▁organize	-11.4351
▁Cuban	-11.4352
sha	-11.4354
▁custody	-11.4354
cho	-11.4356
▁guards	-11.4357
▁Phillips	-11.4357
▁merger	-11.4359
▁Senior	-11.4362
▁Twenty	-11.4362
▁Ty	-11.4364
▁grandson	-11.4364
▁Nobel	-11.4364
nik	-11.4371
illa	-11.4372
kar	-11.4373
ef	-11.4378
▁Usher	-11.4379
▁pronounced	-11.4382
▁specializ	-11.4382
▁currency	-11.4383
▁Jennifer	-11.4386
▁incomplete	-11.4386
▁Jeremy	-11.4386
▁Shadow	-11.4386
▁southward	-11.4388
▁Publishing	-11.4388
eur	-11.4389
can	-11.4395
▁funk	-11.4399
▁na	-11.4401
▁platoon	-11.4401
▁accommodation	-11.4402
▁Task	-11.4402
▁Jacque	-11.4406
▁interactions	-11.4408
▁Arkansas	-11.4409
▁Tree	-11.4413
▁processing	-11.4413
▁masse	-11.4418
▁Reich	-11.4418
▁editorial	-11.4418
▁ascend	-11.4419
▁opens	-11.4419
hall	-11.442
▁outdoor	-11.442
▁collision	-11.442
▁Circuit	-11.4425
▁memories	-11.4425
▁Hergé	-11.4425
▁Rail	-11.4426
▁suburb	-11.4426
▁keen	-11.4426
▁Romania	-11.4427
▁muscle	-11.4428
▁smok	-11.4429
▁Ltd	-11.4434
▁bout	-11.4434
▁bench	-11.4437
▁soap	-11.4439
▁cream	-11.4441
▁1879	-11.4442
▁supervis	-11.4442
▁Cher	-11.4446
18	-11.4446
▁obstacle	-11.4449
▁batter	-11.445
▁McCain	-11.445
▁Stories	-11.445
▁reef	-11.4451
rapy	-11.4452
▁correspond	-11.4454
▁tours	-11.4454
moto	-11.4456
▁atmospheric	-11.4457
▁widen	-11.4458
▁sin	-11.4463
▁duet	-11.4464
▁mentions	-11.4466
▁113	-11.4471
▁Drama	-11.4472
▁Capitol	-11.4472
▁McDonald	-11.4472
▁dawn	-11.4472
▁regardless	-11.4474
▁Perth	-11.4477
▁Monday	-11.448
▁Allmusic	-11.448
▁duck	-11.4481
▁Panama	-11.4487
▁molecules	-11.449
▁Pitt	-11.4495
▁scorer	-11.4495
▁Industrial	-11.4496
▁proud	-11.4497
▁Operations	-11.4501
▁sediment	-11.4504
▁comparable	-11.4504
▁Caroline	-11.4505
▁Bowie	-11.4506
▁Manning	-11.4509
▁nineteenth	-11.451
▁Minogue	-11.4512
▁Mirror	-11.4512
▁Tales	-11.4512
ph	-11.4513
▁northwestern	-11.4514
▁sustain	-11.4515
▁Plaza	-11.452
▁JG	-11.4521
ria	-11.4525
▁deny	-11.4526
▁Orthodox	-11.4528
▁Sierra	-11.4528
▁array	-11.4528
our	-11.4535
▁tourism	-11.4535
▁Lithuanian	-11.4536
▁Edmonton	-11.4536
▁Commissioner	-11.4536
▁spaces	-11.4538
gin	-11.4538
▁spann	-11.4539
▁discontinued	-11.4539
▁Legion	-11.4545
▁Kerr	-11.4545
▁prosecution	-11.4552
▁Motion	-11.4553
▁Beautiful	-11.456
▁Newfoundland	-11.456
▁thrust	-11.456
tro	-11.4561
bel	-11.4562
▁photographer	-11.4565
▁volcano	-11.4565
▁diminish	-11.4568
▁Right	-11.4572
▁Ark	-11.4574
▁operator	-11.4574
▁punish	-11.4576
▁muzzle	-11.4576
▁northwestward	-11.4576
▁Lynch	-11.4577
▁Hale	-11.4583
▁Dar	-11.4585
▁Manager	-11.4586
fall	-11.4588
▁Char	-11.4594
▁Je	-11.4594
gu	-11.4595
ians	-11.4599
▁teachers	-11.4601
▁steady	-11.4601
▁partners	-11.4604
▁Waters	-11.4605
▁employer	-11.4606
▁Strong	-11.4606
▁commit	-11.4608
▁Care	-11.4609
ack	-11.461
▁Arabian	-11.461
▁testimon	-11.4616
▁gravity	-11.4616
▁ambitious	-11.4618
▁Janet	-11.4618
ative	-11.4619
igan	-11.4621
▁commemorate	-11.4622
▁Consequent	-11.4624
▁AC	-11.4625
ato	-11.4625
▁Nothing	-11.4626
▁Caesar	-11.463
▁Sol	-11.4632
▁happi	-11.4632
▁recount	-11.4632
▁cooperation	-11.4632
ator	-11.464
▁theoretical	-11.464
▁Ghost	-11.4641
▁accumulat	-11.4643
▁270	-11.4644
▁Ol	-11.4657
▁strings	-11.4657
▁honors	-11.4658
▁barely	-11.4658
▁108	-11.466
▁necessari	-11.4664
▁conjunction	-11.4664
▁Edwin	-11.4665
▁screening	-11.4667
of	-11.467
▁latitude	-11.4672
▁Protection	-11.4673
▁Artist	-11.4673
▁spur	-11.4676
▁memorabl	-11.4677
▁Il	-11.4685
▁busy	-11.4685
▁Kil	-11.4688
▁captivity	-11.4689
ids	-11.4694
▁112	-11.4694
▁substance	-11.47
▁Masters	-11.4702
▁induc	-11.4704
▁Armenia	-11.4704
▁Chamber	-11.4708
▁rulers	-11.4709
▁writings	-11.4711
▁Clay	-11.4712
▁headline	-11.4712
▁reconstruct	-11.4712
▁din	-11.4713
▁Turks	-11.4718
▁editing	-11.4728
▁wonderful	-11.4729
▁discharge	-11.4732
▁cur	-11.4732
how	-11.4734
▁balls	-11.4736
▁magical	-11.474
▁Eye	-11.474
▁Devon	-11.4741
res	-11.4742
▁Sue	-11.4743
ama	-11.4744
▁ibn	-11.4745
▁extinction	-11.4747
nt	-11.4748
▁percussion	-11.4751
▁terrorist	-11.4751
▁welcome	-11.4751
▁rounded	-11.4753
ox	-11.4756
▁AA	-11.4756
apolis	-11.4757
▁deeper	-11.4757
ep	-11.4759
▁Wonder	-11.4761
ps	-11.4762
▁chess	-11.4762
▁Nashville	-11.4771
▁antagonist	-11.4771
▁Gro	-11.4771
▁membrane	-11.4772
▁certification	-11.4778
▁Mix	-11.4781
▁Knights	-11.4785
▁Yet	-11.4786
▁transformation	-11.4789
▁sporting	-11.4792
▁Busch	-11.4796
▁golf	-11.4798
▁jumping	-11.4803
▁Panther	-11.4803
▁confin	-11.4803
▁copyright	-11.4811
▁trophy	-11.4811
▁realis	-11.4811
▁Online	-11.4815
▁disappointment	-11.4819
▁AllMusic	-11.4819
▁panels	-11.4819
wall	-11.482
ito	-11.4826
▁Thunder	-11.4827
▁Louise	-11.483
▁neverthe	-11.4834
▁Chairman	-11.4835
▁anonymous	-11.4835
▁retire	-11.4841
▁rumour	-11.4844
▁tide	-11.4846
▁refit	-11.4849
▁Peak	-11.485
12	-11.4852
▁speeds	-11.4854
▁Edgar	-11.4856
▁Shield	-11.4859
▁Junction	-11.486
▁Maurice	-11.486
▁Sara	-11.4862
▁Emily	-11.4868
▁Rhodesia	-11.4869
▁SH	-11.4875
▁Brand	-11.4876
▁Paramount	-11.4876
elle	-11.4878
▁weigh	-11.4879
▁Horn	-11.4881
▁breast	-11.4882
▁erosion	-11.4885
tri	-11.4888
▁Hanna	-11.4888
▁chapters	-11.4889
▁topic	-11.4892
▁pregnanc	-11.4897
▁Crane	-11.4898
▁Wings	-11.49
▁Jin	-11.4901
▁reserves	-11.4903
▁compare	-11.4903
aj	-11.4904
rus	-11.4907
▁decid	-11.4908
▁clause	-11.4909
▁shrine	-11.491
▁Arctic	-11.491
▁Garfield	-11.491
ben	-11.4911
▁backup	-11.4912
▁demanding	-11.4912
▁Talk	-11.4912
▁Bang	-11.4916
▁thriller	-11.4917
ole	-11.492
▁riff	-11.4921
▁nickel	-11.4926
▁rape	-11.4928
▁RPG	-11.4931
▁Gill	-11.4932
▁1848	-11.4936
▁mock	-11.4936
▁Formula	-11.4936
▁intensify	-11.4943
▁Kar	-11.4943
▁Row	-11.4945
▁bars	-11.4947
▁secular	-11.4951
▁speaker	-11.4957
▁tasks	-11.4958
▁1874	-11.496
▁Global	-11.4961
▁align	-11.4961
▁bullet	-11.4966
▁Dun	-11.4967
▁metropolitan	-11.4968
▁decree	-11.4968
▁drown	-11.4969
▁Laura	-11.4971
▁Page	-11.4972
▁gland	-11.4973
rin	-11.4976
▁Pierce	-11.4977
▁examine	-11.4981
kov	-11.4981
▁finger	-11.4987
▁plastic	-11.499
▁unhapp	-11.4993
▁Case	-11.4993
▁Lou	-11.4996
ile	-11.4997
▁Others	-11.4998
lam	-11.4998
evolutionary	-11.4999
▁discussions	-11.5
▁colonel	-11.5001
▁Windsor	-11.5001
▁appreciat	-11.5002
Spot	-11.5003
▁Irving	-11.5003
▁reserved	-11.5008
▁tennis	-11.501
▁item	-11.5011
▁Holmes	-11.5013
▁lakes	-11.5014
▁concentrate	-11.5015
▁honorar	-11.5015
▁Randy	-11.5016
▁reservoir	-11.5018
▁Hopkins	-11.5018
▁brings	-11.5019
▁Martha	-11.5026
▁Chang	-11.5026
▁undergraduate	-11.5026
▁loading	-11.5031
▁Manor	-11.5036
ough	-11.504
▁Michelle	-11.5045
▁Plant	-11.5048
▁mono	-11.5049
▁210	-11.5052
borough	-11.506
rum	-11.5063
▁worried	-11.5066
▁cook	-11.5066
▁Break	-11.5067
▁Reform	-11.5067
▁SpongeBob	-11.5068
▁tongue	-11.5068
▁identification	-11.5068
▁frontier	-11.5071
▁hiding	-11.5074
▁Lindwall	-11.5076
▁diving	-11.5077
tor	-11.508
▁pose	-11.5081
▁detached	-11.5081
▁Partisan	-11.5085
▁circulat	-11.5085
▁disagreement	-11.5086
▁crowned	-11.5087
▁Harper	-11.5088
iya	-11.5088
▁barrier	-11.5091
▁compact	-11.5093
▁Argentine	-11.5102
▁oxide	-11.5105
▁silence	-11.5106
▁investor	-11.5108
▁Dodger	-11.5111
▁throat	-11.5112
▁Arabic	-11.5117
▁Kara	-11.5123
▁131	-11.5124
▁counsel	-11.5125
lu	-11.5126
▁103	-11.5127
▁Turnpike	-11.5127
▁uncover	-11.5127
▁teenage	-11.5133
▁Claire	-11.5133
▁counterattack	-11.5135
▁Snake	-11.5135
▁luck	-11.5136
▁contestant	-11.5137
▁Gerald	-11.5138
▁hire	-11.5139
▁landings	-11.514
av	-11.5141
▁Continu	-11.5143
▁Berkeley	-11.5144
▁plutoni	-11.5145
▁fusion	-11.5145
▁Stanford	-11.5145
▁geographical	-11.5145
▁Axi	-11.5149
▁Adventures	-11.515
▁NL	-11.515
▁garage	-11.5153
▁activat	-11.5154
▁Rhodesian	-11.5155
▁mud	-11.5157
og	-11.5158
▁Presley	-11.5161
▁Iceland	-11.5162
▁vi	-11.5167
▁feat	-11.5169
▁hectare	-11.5169
▁Superman	-11.5173
▁Dale	-11.5173
▁Stefani	-11.5174
▁internet	-11.5179
▁hatch	-11.5179
▁Observer	-11.5181
▁funnel	-11.5181
nes	-11.5182
▁el	-11.5183
▁patch	-11.5183
▁Willis	-11.5184
canal	-11.5186
▁conceal	-11.5186
▁Bulgaria	-11.5186
▁propose	-11.5187
▁Tor	-11.5187
▁Rhode	-11.5187
▁haul	-11.5187
eb	-11.5192
▁Gi	-11.5193
▁Glenn	-11.5195
▁electoral	-11.5196
▁seize	-11.5197
▁diagnosed	-11.52
▁Woods	-11.52
▁Guadal	-11.5203
▁Chan	-11.5205
▁Shu	-11.5208
low	-11.5209
▁Soundtrack	-11.5212
▁terror	-11.5214
▁bedroom	-11.522
▁jokes	-11.5221
▁naked	-11.5221
▁coloured	-11.5222
▁Booth	-11.5225
▁confrontation	-11.5226
▁pirate	-11.523
oni	-11.5232
ska	-11.5233
▁Advance	-11.5237
beit	-11.5237
▁comprehensive	-11.5238
▁lineup	-11.5238
▁resume	-11.5243
▁Leon	-11.5243
▁Jennings	-11.5246
▁lodge	-11.5246
▁Member	-11.5249
enberg	-11.5253
▁ages	-11.5253
nce	-11.5254
▁Nu	-11.5254
▁intersections	-11.5257
▁Hip	-11.5259
▁Beside	-11.5261
▁Mov	-11.5263
▁waterline	-11.5272
▁AL	-11.5276
▁Shore	-11.5277
▁centimetre	-11.528
▁Chapman	-11.5281
▁1851	-11.5282
▁Castro	-11.5284
▁Gone	-11.5289
▁Delhi	-11.5289
▁liver	-11.529
▁disk	-11.5291
bert	-11.5292
▁Basin	-11.5293
▁hyper	-11.5295
▁Lords	-11.5299
▁Broadcasting	-11.53
▁Walk	-11.5301
▁PS	-11.5306
▁Outside	-11.531
▁Face	-11.5312
▁Singer	-11.5312
▁Living	-11.5314
▁unofficial	-11.5315
▁Berry	-11.5316
▁Name	-11.5319
▁Min	-11.5319
▁genes	-11.532
▁triumph	-11.532
▁Meyer	-11.5321
▁Nichols	-11.5322
▁experts	-11.5322
osa	-11.5323
▁motivat	-11.5324
▁Zo	-11.5325
▁Concert	-11.5325
▁FM	-11.5325
▁shops	-11.5329
▁accent	-11.5332
▁Alternative	-11.5332
▁merit	-11.5333
lon	-11.5333
▁Nathan	-11.5334
▁darkness	-11.5335
▁280	-11.5335
▁Hayes	-11.5337
▁violat	-11.5338
▁Bueno	-11.5341
iest	-11.5342
▁Comic	-11.5343
▁EU	-11.5343
▁comet	-11.5348
▁Southampton	-11.5349
▁mathematical	-11.5349
▁solve	-11.535
▁Palm	-11.535
▁Baptist	-11.5352
née	-11.5352
like	-11.5352
▁145	-11.5353
▁André	-11.5354
▁Daniels	-11.5354
▁Borough	-11.5358
▁amazing	-11.536
▁des	-11.5361
ua	-11.5362
▁sacred	-11.5363
▁Spielberg	-11.5367
▁Jeffrey	-11.5367
▁compensation	-11.5367
▁Spy	-11.5368
▁Cong	-11.5371
▁Site	-11.5373
▁Sk	-11.5374
▁sp	-11.5374
▁Fletcher	-11.5375
▁Universe	-11.5379
▁revision	-11.5384
▁corpse	-11.5385
▁midnight	-11.5386
eh	-11.5387
▁Dominican	-11.5387
▁Annie	-11.539
▁Style	-11.539
▁marsh	-11.5391
▁Prussian	-11.5392
saw	-11.5392
▁Vince	-11.5395
▁Venus	-11.5396
▁tool	-11.5397
▁foul	-11.5398
▁Senators	-11.5398
val	-11.5401
▁Flag	-11.5401
down	-11.5403
▁Sex	-11.5404
▁Bolton	-11.5404
▁torture	-11.5409
▁Films	-11.541
▁Lightning	-11.541
▁Palmer	-11.5411
▁wagon	-11.5411
▁Porter	-11.5414
▁Kh	-11.5415
▁drainage	-11.5419
▁Rosa	-11.5423
▁Kenny	-11.5428
▁woods	-11.543
▁groove	-11.5433
▁Brandon	-11.5433
▁streams	-11.5434
let	-11.5435
▁Double	-11.5436
▁Rugby	-11.5437
▁priorit	-11.544
▁eleventh	-11.544
▁MS	-11.5442
▁freight	-11.5443
▁Patton	-11.5448
lla	-11.5449
▁Male	-11.5454
▁baron	-11.5455
aya	-11.5459
▁Er	-11.5461
▁mistaken	-11.5462
▁Artillery	-11.5462
▁Eisenhower	-11.5462
▁Ferrari	-11.5462
▁swamp	-11.5464
▁diary	-11.5465
▁mint	-11.5467
▁Truth	-11.5468
▁diseases	-11.5474
▁ma	-11.5475
▁expell	-11.5476
▁placement	-11.5476
▁nests	-11.5478
▁mosque	-11.548
▁metals	-11.5482
▁bassist	-11.5483
▁entertaining	-11.5484
▁Easter	-11.5485
▁choos	-11.5488
▁dorsal	-11.5489
▁crater	-11.5491
▁demon	-11.5491
▁evacuate	-11.5499
▁Malay	-11.5501
ort	-11.5501
▁Jesse	-11.5505
▁Mana	-11.5505
▁coaster	-11.5506
▁leather	-11.5506
▁NOK	-11.5506
▁contributor	-11.5506
▁backward	-11.5509
▁toxic	-11.5512
▁rotat	-11.5514
▁reprint	-11.5516
▁outline	-11.5519
▁affiliate	-11.5521
▁poster	-11.5522
ert	-11.5524
▁unpopular	-11.5524
▁para	-11.5524
ux	-11.5525
▁promising	-11.5528
▁Syrian	-11.5528
▁corn	-11.553
▁monks	-11.553
set	-11.5532
▁Sp	-11.5532
▁Hendrix	-11.5533
gh	-11.5535
▁predator	-11.5539
▁Pirates	-11.5539
▁Za	-11.5541
▁Sometime	-11.5541
▁maker	-11.5542
▁Lex	-11.5543
▁hanging	-11.5544
▁370	-11.5545
▁disturb	-11.5548
▁convincing	-11.555
▁shooter	-11.5552
▁painter	-11.5552
together	-11.5557
▁Distinguish	-11.5559
▁fever	-11.556
▁exciting	-11.5566
▁planes	-11.5566
▁Gal	-11.5567
▁Treasury	-11.5568
▁flashback	-11.5568
wive	-11.5575
▁Poll	-11.5575
▁twist	-11.5575
▁capabilit	-11.5576
▁accurac	-11.5577
▁vault	-11.5577
▁negotiate	-11.558
▁basement	-11.5583
▁trap	-11.5583
▁limestone	-11.5586
ible	-11.5587
▁reunit	-11.5588
▁gig	-11.5589
▁Mile	-11.559
▁contend	-11.5592
▁alarm	-11.5593
▁barrack	-11.5595
stown	-11.5597
▁Kor	-11.56
▁Lodge	-11.5601
▁Stop	-11.5601
▁stomach	-11.5603
▁AIDS	-11.5603
oi	-11.5607
tal	-11.5608
▁Warsaw	-11.5608
▁Doug	-11.5609
▁errors	-11.561
▁laying	-11.561
dal	-11.5612
▁Ferguson	-11.5613
▁Motor	-11.5619
▁pan	-11.5621
▁Hispanic	-11.5621
▁sanction	-11.5621
▁Bear	-11.5626
ü	-11.5631
▁intentional	-11.5632
▁refuge	-11.5633
▁ash	-11.5634
▁forgot	-11.5639
▁tribal	-11.5639
▁Taxonom	-11.564
▁negotiated	-11.564
▁Engineer	-11.5641
▁Variety	-11.5641
▁Intelligence	-11.5644
▁kn	-11.5647
▁Neptune	-11.5648
▁homage	-11.5648
▁Columbus	-11.5648
▁Linda	-11.5649
▁Rice	-11.565
ien	-11.5655
▁Sussex	-11.5657
▁Britney	-11.5657
▁Serbs	-11.5657
▁robot	-11.5657
▁Sha	-11.5659
▁bonds	-11.566
▁Lucy	-11.5662
▁Lock	-11.5662
▁socialist	-11.5664
▁Tai	-11.5664
▁relevant	-11.5666
▁goalkeeper	-11.5666
▁enforcement	-11.5666
▁amino	-11.5667
▁guitars	-11.5669
▁storey	-11.5671
din	-11.5676
▁Morton	-11.5678
ović	-11.5678
▁drain	-11.5678
▁posed	-11.5678
▁clergy	-11.568
▁suburban	-11.5686
▁manor	-11.5687
▁auto	-11.5689
▁Lamb	-11.5689
▁Reynolds	-11.5692
▁marble	-11.5692
▁administrator	-11.5692
extant	-11.5696
▁invention	-11.5703
▁mentor	-11.5704
▁tunnels	-11.5707
ily	-11.5708
▁mann	-11.571
▁consumed	-11.5711
▁blown	-11.5712
▁scope	-11.5713
▁ghost	-11.5718
▁260	-11.572
play	-11.572
▁Hy	-11.5724
▁maneuver	-11.5725
▁honours	-11.5725
▁overlap	-11.5726
▁farms	-11.5729
▁imprisonment	-11.5729
▁152	-11.5731
adi	-11.5733
pp	-11.5733
▁expir	-11.5737
▁seizure	-11.5737
▁hardware	-11.5738
not	-11.5738
▁nobility	-11.5738
▁Scotia	-11.574
▁Southeast	-11.5745
▁Economic	-11.5745
▁Philippine	-11.5746
▁Eugene	-11.5746
▁Beyond	-11.5746
▁Munich	-11.5746
▁Des	-11.5748
▁Cu	-11.5748
▁instruction	-11.5752
▁fa	-11.5754
▁innovative	-11.5755
▁Luis	-11.5755
▁Lithuania	-11.5755
▁miner	-11.5756
▁shipyard	-11.5757
▁beer	-11.576
brook	-11.5763
▁twelfth	-11.5764
▁Peru	-11.5765
▁Popular	-11.5765
▁seasonal	-11.5768
▁constituenc	-11.5773
▁suspicion	-11.5773
▁Eighth	-11.5775
and	-11.5775
▁commerce	-11.5782
▁incorrect	-11.5782
▁bin	-11.5783
▁Sur	-11.5785
▁affecting	-11.5787
▁receiver	-11.5788
▁chronicle	-11.5789
rick	-11.579
▁maneuvers	-11.5793
▁Pu	-11.5793
▁hostage	-11.5796
▁117	-11.5802
▁Author	-11.5809
▁referendum	-11.5809
▁maturity	-11.581
▁analog	-11.581
▁accord	-11.5813
▁besieg	-11.5814
▁Hebrew	-11.5818
▁shale	-11.5819
▁informal	-11.5821
▁Dart	-11.5828
▁Com	-11.5829
▁oral	-11.5831
▁Anton	-11.5832
▁bold	-11.5833
▁enclos	-11.5833
▁adaptations	-11.5834
▁prosper	-11.5836
▁Nebraska	-11.5837
▁Tel	-11.5837
▁fortifi	-11.5837
▁extraordinar	-11.5838
uma	-11.5838
▁Dawn	-11.5839
▁limitations	-11.5842
▁abolished	-11.5843
HL	-11.5846
▁Maple	-11.5847
▁Pal	-11.5848
▁senator	-11.5849
▁dis	-11.5854
▁Derek	-11.5855
▁1859	-11.5856
▁Kal	-11.5856
▁orbital	-11.5858
▁Attack	-11.5858
▁Hammond	-11.5864
▁municipality	-11.5865
▁chicken	-11.5866
▁illustrations	-11.5868
▁missiles	-11.587
▁Monte	-11.587
▁powder	-11.5872
▁communicate	-11.5873
▁Rhys	-11.5874
▁Apart	-11.5878
▁organs	-11.5878
▁Lois	-11.5878
▁underlying	-11.588
▁incorporat	-11.588
▁Chapter	-11.5882
heim	-11.5884
▁screens	-11.5887
▁Gr	-11.589
▁renown	-11.5891
▁Rather	-11.5894
▁Blaine	-11.5901
fe	-11.5901
▁democrac	-11.5903
▁controll	-11.5905
oon	-11.5905
▁conductor	-11.5909
▁Hamburg	-11.5913
ock	-11.5917
▁Rapid	-11.5917
▁Athenian	-11.5919
▁Sunderland	-11.5919
▁Adult	-11.5923
▁Form	-11.5927
▁decease	-11.5928
▁Volume	-11.5928
▁dominate	-11.5929
bra	-11.593
▁starter	-11.5931
▁isn	-11.5933
▁Salisbur	-11.5937
▁genius	-11.5937
▁Robertson	-11.594
▁Ren	-11.594
▁efficiency	-11.5941
▁li	-11.5943
▁Guards	-11.5947
dium	-11.5947
▁Joyce	-11.5947
▁Ros	-11.595
▁adoption	-11.5953
▁Canberra	-11.5955
▁rendition	-11.5955
▁virtue	-11.5955
▁cement	-11.5956
▁explod	-11.5961
▁mouse	-11.5964
▁Dor	-11.5965
ava	-11.5967
band	-11.5969
▁protective	-11.5969
▁Survey	-11.5972
▁subsidiary	-11.5974
▁Midland	-11.5975
▁welcom	-11.5976
▁Hugo	-11.5976
▁preservation	-11.5977
▁topics	-11.5977
▁findings	-11.5982
▁Holocaust	-11.5983
▁balloon	-11.5984
▁studios	-11.5985
▁Fraser	-11.5992
▁Palestinian	-11.6003
▁Ana	-11.6004
▁adviser	-11.6005
▁Joel	-11.6006
▁Para	-11.6008
▁Bomb	-11.6008
▁coffee	-11.601
▁deficit	-11.6011
▁Lesser	-11.6011
▁cats	-11.6012
▁Ste	-11.6014
nor	-11.6014
▁Willie	-11.6016
▁Quinn	-11.6016
▁procedures	-11.6018
▁triangle	-11.602
▁correspondence	-11.602
▁intercept	-11.6029
▁operas	-11.6029
▁societies	-11.6029
▁binding	-11.6034
▁Karen	-11.6034
▁pigeon	-11.6038
▁Winchester	-11.6038
▁acute	-11.6038
▁brass	-11.6039
▁Costa	-11.6039
▁modes	-11.6045
▁Pin	-11.6046
▁summary	-11.6048
▁Jenna	-11.6048
▁1845	-11.605
▁indication	-11.605
▁safely	-11.605
ene	-11.605
▁tyre	-11.6051
▁rays	-11.6051
▁enlarg	-11.6055
▁fraud	-11.6057
▁animator	-11.6061
▁114	-11.6063
▁Data	-11.6066
▁coupled	-11.6066
▁axis	-11.6067
cus	-11.6067
▁Alexandria	-11.6074
▁sprint	-11.6078
du	-11.6079
▁speakers	-11.6082
▁seventeen	-11.6084
▁Angela	-11.6085
▁Calvin	-11.6087
▁Has	-11.6089
▁neo	-11.6089
▁collaborator	-11.609
▁variet	-11.609
▁1200	-11.6091
▁contrary	-11.6094
▁Brighton	-11.6096
▁Krishna	-11.6099
▁Torres	-11.6102
▁Franz	-11.6103
oid	-11.6103
▁Assistant	-11.6103
▁Whitney	-11.6104
▁keyboard	-11.6104
▁breakdown	-11.6105
▁subtle	-11.6105
▁Ph	-11.6107
▁lion	-11.611
▁nominal	-11.6113
az	-11.6114
▁Raj	-11.6114
▁sexuality	-11.6116
eau	-11.612
▁Stalin	-11.6121
ip	-11.6122
▁HIV	-11.6122
war	-11.6122
ela	-11.6124
▁Wang	-11.6125
▁comfort	-11.6128
▁trunk	-11.6131
▁Timberlake	-11.6131
▁utilit	-11.6136
ris	-11.6139
▁Destin	-11.614
▁Stein	-11.6141
▁emphasize	-11.6141
▁Petersburg	-11.6143
▁inquiry	-11.6146
▁ESPN	-11.615
▁heaven	-11.615
▁interface	-11.615
▁Bailey	-11.6151
▁Norton	-11.6151
▁greet	-11.6152
▁pyramid	-11.6153
▁fears	-11.6157
▁bills	-11.6158
▁View	-11.6158
lar	-11.6158
▁terrestrial	-11.6159
▁Wolverine	-11.616
▁saint	-11.6163
▁availability	-11.6165
▁constitute	-11.6166
▁hymn	-11.6169
▁Portsmouth	-11.6169
▁Omaha	-11.6169
▁Places	-11.6171
▁define	-11.6171
hand	-11.6174
▁Racing	-11.6175
▁Direct	-11.6179
▁juvenile	-11.6181
book	-11.6182
▁Scouting	-11.6182
▁Have	-11.6182
▁atoms	-11.6185
▁Giant	-11.6187
▁Information	-11.6188
▁relieve	-11.6189
▁excited	-11.619
ati	-11.6193
▁tear	-11.6195
▁Given	-11.6196
tu	-11.6199
▁Toward	-11.62
▁Singh	-11.6204
▁Card	-11.6205
▁embass	-11.6206
▁Found	-11.6207
▁decommissioned	-11.6212
beat	-11.6212
mu	-11.6215
▁Productions	-11.6215
▁Jazz	-11.6216
▁Gamepla	-11.6217
▁generations	-11.6221
▁striker	-11.6221
▁floors	-11.6225
▁Forbes	-11.6226
▁Aircraft	-11.6229
▁Elliott	-11.6231
▁Rev	-11.6231
▁desir	-11.6233
▁keyboards	-11.6234
▁calendar	-11.6235
▁Durham	-11.6235
▁poisoning	-11.6235
▁lobby	-11.6241
▁edges	-11.6246
▁Ag	-11.6246
▁dose	-11.6251
▁tracking	-11.6253
▁maritime	-11.6254
▁Fiction	-11.6254
▁amend	-11.626
▁Rare	-11.6261
▁Inn	-11.6265
▁predecessors	-11.6266
▁Rat	-11.627
▁relegat	-11.6272
▁helicopters	-11.6272
▁puppet	-11.6272
▁Austen	-11.6273
▁citizenship	-11.6273
▁1820	-11.6275
▁oppose	-11.6276
nell	-11.6278
▁performer	-11.6279
▁chances	-11.628
▁Hawk	-11.6281
▁televis	-11.6281
▁primitive	-11.6282
▁Sicily	-11.6282
▁concluding	-11.6282
olo	-11.6282
▁veto	-11.6283
▁intercepted	-11.6289
▁bull	-11.629
▁Webber	-11.629
▁Holly	-11.6291
▁gospel	-11.6292
▁Gardens	-11.6298
▁Duchess	-11.6302
▁determination	-11.6302
▁generator	-11.6304
▁SMS	-11.6304
▁poly	-11.6307
▁draws	-11.6309
▁superstructure	-11.6311
▁hate	-11.6312
▁Chen	-11.6314
IAA	-11.6315
▁Sim	-11.6318
▁specifi	-11.6319
▁comedian	-11.632
lly	-11.6321
▁dump	-11.6321
▁endangered	-11.6323
▁subsid	-11.6323
▁profits	-11.6324
▁floods	-11.6325
▁tackle	-11.6326
▁165	-11.6327
▁plaque	-11.633
▁sympathetic	-11.633
end	-11.6341
▁coral	-11.6342
▁Associat	-11.6348
▁rolling	-11.6348
▁countryside	-11.6351
▁Crash	-11.6352
▁alteration	-11.6353
▁Rise	-11.6354
▁reservation	-11.6358
▁Mumbai	-11.6358
▁AP	-11.6362
pu	-11.6364
▁Tell	-11.6365
▁Vocal	-11.6367
▁dominan	-11.6367
▁fees	-11.6368
▁stuck	-11.6368
▁workshop	-11.6369
fin	-11.6369
▁brutal	-11.6371
DS	-11.6371
▁Mine	-11.6371
▁ceremonial	-11.6373
▁skiing	-11.6374
▁lemur	-11.6375
▁diagnosi	-11.6379
kh	-11.638
▁Cruz	-11.638
ement	-11.6381
bin	-11.6382
▁Rhine	-11.6384
▁customs	-11.6385
▁eject	-11.6386
▁Maj	-11.6386
▁McMahon	-11.6387
tt	-11.6389
▁Bahamas	-11.6391
lia	-11.6396
▁Joshua	-11.6397
▁northeastward	-11.6398
▁implementation	-11.64
▁merge	-11.6405
▁smart	-11.6407
▁....	-11.6408
▁announce	-11.6409
ue	-11.6409
▁Dana	-11.6412
▁satisfied	-11.6412
▁canon	-11.6412
▁mall	-11.6414
▁Gaza	-11.6416
hor	-11.6416
▁ancestors	-11.642
ites	-11.6421
▁watches	-11.6423
▁Browns	-11.6425
eng	-11.6425
▁Java	-11.6426
▁Tampa	-11.6426
▁IX	-11.6426
▁retir	-11.6427
▁1854	-11.6427
▁trilog	-11.6429
▁suite	-11.643
▁Guest	-11.643
avi	-11.6432
▁Bor	-11.6435
▁Commodore	-11.6435
▁submission	-11.6435
▁Monica	-11.6436
▁jewel	-11.6438
comfortable	-11.6438
▁Bur	-11.6443
▁consultant	-11.6445
▁Prussia	-11.6446
▁narrator	-11.6446
▁replica	-11.6448
▁Pearson	-11.6455
▁Tank	-11.6458
▁persisted	-11.646
▁opener	-11.6462
▁Distribution	-11.6464
onic	-11.6464
▁Savage	-11.6465
oma	-11.6466
▁ni	-11.6466
▁defect	-11.6468
▁Iraqi	-11.6472
▁lunch	-11.6474
▁NME	-11.6474
▁Newark	-11.6476
▁1857	-11.6476
▁frustrated	-11.6476
▁gifts	-11.6476
▁clever	-11.6483
▁contingent	-11.6483
▁prominence	-11.6483
▁motivation	-11.6485
▁torn	-11.6486
▁Recreation	-11.6489
▁businessman	-11.6489
ight	-11.6491
▁symbolic	-11.6493
▁distress	-11.6493
▁Private	-11.6493
▁NA	-11.6493
▁Train	-11.6495
▁Hank	-11.6495
▁Ant	-11.6498
▁Lopez	-11.6503
▁thermal	-11.6503
▁immigration	-11.6503
▁democratic	-11.6507
▁lung	-11.6508
▁Georgian	-11.6511
och	-11.6512
▁Dame	-11.6512
eri	-11.6519
▁Rey	-11.6519
▁pinn	-11.652
▁median	-11.6521
▁commemorat	-11.6523
▁Bass	-11.6523
▁ears	-11.6528
▁posts	-11.6529
▁Any	-11.6533
▁flu	-11.6544
▁shortened	-11.6544
▁Chad	-11.6545
▁Diana	-11.6545
▁coincid	-11.6546
▁imagination	-11.6552
▁liken	-11.6553
▁155	-11.6563
▁Elder	-11.6563
light	-11.6564
▁prediction	-11.6565
▁monsters	-11.6565
▁stopping	-11.6566
▁Cave	-11.6567
▁siblings	-11.657
▁Rovers	-11.6573
▁buses	-11.6573
▁Methodist	-11.6581
terim	-11.6582
▁Holden	-11.6582
▁Arms	-11.6587
▁presum	-11.6589
▁seas	-11.6589
ywhere	-11.6593
▁encompass	-11.6595
▁Mari	-11.6596
chen	-11.6596
▁Thi	-11.66
▁burden	-11.66
▁banner	-11.6603
▁farmland	-11.6604
▁morale	-11.6606
▁suburbs	-11.6606
▁Gwen	-11.6608
▁Sugar	-11.6612
▁gase	-11.6613
▁Environmental	-11.6613
ore	-11.6617
▁sink	-11.6618
▁displacement	-11.662
▁postpon	-11.6621
▁spy	-11.6622
▁worsen	-11.6623
▁Johann	-11.6625
▁telescope	-11.6626
▁Ivy	-11.6626
▁Retriev	-11.6626
▁larvae	-11.6627
▁121	-11.6627
▁Saw	-11.6628
▁Danube	-11.663
▁inspection	-11.6631
▁Engineers	-11.6635
bald	-11.6641
▁patroll	-11.6645
▁Kin	-11.6646
▁illustrate	-11.6649
31	-11.6649
ometric	-11.665
▁Compton	-11.665
▁systematic	-11.6651
▁restart	-11.6651
▁treasure	-11.6652
▁Rad	-11.6654
▁hub	-11.6658
▁graduation	-11.6662
▁propeller	-11.6664
held	-11.6665
▁governments	-11.6669
▁recreational	-11.6671
▁owl	-11.6673
uch	-11.6675
ritten	-11.6679
▁Patriot	-11.668
▁Fringe	-11.668
oo	-11.6686
▁Tra	-11.6689
▁overhaul	-11.6689
▁Sergeant	-11.6689
▁acids	-11.669
ila	-11.6692
▁Var	-11.6693
▁Hannah	-11.67
▁Persona	-11.6701
▁hell	-11.6702
▁delet	-11.6706
▁Pike	-11.6707
▁ideolog	-11.6708
▁Phantom	-11.6709
▁Gospel	-11.6709
▁landmark	-11.6709
▁Look	-11.6709
▁Allan	-11.6711
▁Cod	-11.6712
▁Bon	-11.6713
▁320	-11.6715
▁Eli	-11.6715
kan	-11.6715
▁Adriatic	-11.6719
▁isotopes	-11.6719
▁Avon	-11.6722
▁550	-11.6722
▁bias	-11.6724
▁enthusiasm	-11.6729
▁profession	-11.6733
▁utter	-11.6734
▁Immediate	-11.6738
▁Spitfire	-11.6739
▁Powers	-11.6739
▁imp	-11.6739
▁Reid	-11.674
▁Kingston	-11.6742
▁Ship	-11.6742
▁107	-11.6746
▁Eu	-11.6747
▁landslide	-11.6748
▁Amazon	-11.6748
▁cancellation	-11.6749
▁Ashley	-11.675
▁dull	-11.6751
▁transmitt	-11.6755
ky	-11.6757
▁breakthrough	-11.6758
▁unlock	-11.6759
▁registration	-11.6759
rah	-11.6759
▁Dover	-11.676
ima	-11.6761
▁stripe	-11.6762
▁flags	-11.6767
▁Fan	-11.6767
tar	-11.6767
▁Left	-11.6773
▁Knowles	-11.6774
rk	-11.6775
▁Claude	-11.6778
dor	-11.6782
▁ballet	-11.6783
▁Antarctic	-11.6786
▁Bir	-11.6786
▁ward	-11.6788
▁charm	-11.6788
▁dedication	-11.6788
▁Literar	-11.6788
iz	-11.6789
▁Julia	-11.6789
▁Sid	-11.679
▁Broad	-11.679
▁slopes	-11.6792
▁isolation	-11.6792
▁outlets	-11.6793
▁nicknam	-11.6794
lay	-11.6795
▁Haven	-11.6796
▁abrupt	-11.6798
▁nitrogen	-11.6798
▁1858	-11.68
▁Antille	-11.68
▁Individual	-11.6808
▁innocent	-11.6808
▁orientation	-11.6809
▁vow	-11.6809
▁rational	-11.6814
▁drag	-11.6816
▁overtime	-11.6818
▁spectrum	-11.6818
▁Nicola	-11.682
▁nationally	-11.6821
▁Bangladesh	-11.6821
▁Beast	-11.6825
▁unst	-11.6826
▁Interior	-11.6828
ress	-11.6831
ect	-11.6833
▁corrupt	-11.6835
▁Kiss	-11.6836
▁Soviets	-11.6836
▁Pit	-11.6837
▁WrestleMania	-11.6838
▁Liu	-11.6843
▁Wheeler	-11.6846
▁disco	-11.6847
▁Medicine	-11.6849
▁contemporari	-11.685
esque	-11.6856
▁quantity	-11.6858
▁continual	-11.6859
▁sandstone	-11.6859
af	-11.686
▁assert	-11.6861
▁Barber	-11.6862
aging	-11.6863
▁Event	-11.6866
▁plaza	-11.6868
▁sh	-11.6871
bird	-11.6873
▁1812	-11.6873
▁Drew	-11.6874
▁Raja	-11.6876
▁Betty	-11.6878
▁spiral	-11.6879
▁kidney	-11.6879
▁ministr	-11.6879
▁rubber	-11.688
▁bred	-11.6881
▁alloy	-11.6881
▁refusal	-11.6884
▁SAS	-11.6884
nan	-11.6884
hart	-11.6886
▁intimate	-11.6889
pan	-11.6891
▁explorer	-11.6892
▁kit	-11.6894
▁bio	-11.6896
▁Presidential	-11.69
eaten	-11.69
▁consolidat	-11.6902
▁Complete	-11.6902
▁persona	-11.6903
▁conn	-11.6904
▁projection	-11.6905
▁variants	-11.6905
▁entries	-11.6909
ij	-11.6911
▁Mas	-11.6913
▁Donna	-11.6914
▁Speaker	-11.6915
▁solutions	-11.6919
▁Rutherford	-11.6919
▁185	-11.6919
▁Underground	-11.6919
▁Agent	-11.692
▁doubled	-11.692
hr	-11.6921
▁Lenin	-11.6922
▁Level	-11.6925
▁arise	-11.6926
▁clerk	-11.6927
▁compartment	-11.6929
▁computers	-11.6935
▁boarding	-11.6937
▁118	-11.6938
▁technologies	-11.6939
▁Visual	-11.6939
▁climax	-11.6939
▁presid	-11.6939
▁XIII	-11.694
▁Hutton	-11.694
▁Jain	-11.6943
▁showcase	-11.6944
▁Limited	-11.6944
▁admission	-11.6945
▁mortar	-11.6945
▁sympath	-11.6947
▁mar	-11.6948
▁sovereignt	-11.6949
▁Horror	-11.6949
▁demolition	-11.6949
▁cage	-11.6951
▁cite	-11.6951
▁1849	-11.6951
▁Sharon	-11.6955
▁Br	-11.6956
▁Must	-11.6957
▁casemate	-11.6959
▁umpire	-11.696
▁Crazy	-11.696
▁grandmother	-11.696
▁plumage	-11.696
▁perimeter	-11.696
▁Sebastian	-11.6961
▁dri	-11.6961
▁Wat	-11.6961
▁Dynasty	-11.6961
▁enhance	-11.6962
▁viewer	-11.6963
▁Writers	-11.6964
▁Lions	-11.6964
▁Thailand	-11.697
▁330	-11.697
pur	-11.697
▁reasonable	-11.6971
▁Din	-11.6971
▁Bert	-11.6974
▁Rican	-11.6975
▁Away	-11.6976
▁offence	-11.6977
▁Yard	-11.6979
▁Halifax	-11.698
▁inferior	-11.698
▁jungle	-11.698
▁medley	-11.698
▁Leaf	-11.6982
▁sitcom	-11.6982
▁Parks	-11.6983
▁Wade	-11.6986
▁testifie	-11.6987
▁jacket	-11.6987
▁generic	-11.6989
▁pollution	-11.699
▁Primar	-11.6996
gon	-11.6999
▁Romans	-11.6999
▁inadequate	-11.7
▁philosophical	-11.7
▁Carte	-11.7002
▁Twin	-11.7007
▁Reviewer	-11.7007
▁Oil	-11.7008
▁depress	-11.7008
▁Nor	-11.7011
▁assign	-11.7012
▁tract	-11.7014
▁Erie	-11.7016
mat	-11.7017
▁Mick	-11.7018
▁hamper	-11.7021
▁Gould	-11.7021
▁timing	-11.7021
▁occurrence	-11.7021
▁freestyle	-11.7021
▁Metroid	-11.7022
▁nucleus	-11.7022
▁developments	-11.7023
tti	-11.7025
▁drawings	-11.7031
▁organisations	-11.7032
▁fertil	-11.7035
fi	-11.7037
ified	-11.704
▁submit	-11.704
▁welfar	-11.7041
▁trout	-11.7041
▁freed	-11.7042
▁Lea	-11.7045
▁Saudi	-11.7048
▁retrieve	-11.7049
▁Ur	-11.705
▁antibod	-11.705
▁Gore	-11.7051
▁sued	-11.7052
▁Idol	-11.7052
▁Freeway	-11.7053
▁criteria	-11.7053
▁dwelling	-11.7057
▁Afterwards	-11.7058
▁Net	-11.706
▁motive	-11.7062
▁revelation	-11.7062
▁discard	-11.7063
▁gale	-11.707
▁Discovery	-11.707
▁prolong	-11.7072
▁warehouse	-11.7073
▁Tina	-11.7077
▁controller	-11.708
▁Met	-11.7081
▁Trafford	-11.7082
▁Bradford	-11.7083
▁slope	-11.7087
▁siz	-11.7091
▁Speed	-11.7092
▁lab	-11.7098
▁fires	-11.7099
▁supervisor	-11.7102
▁Wake	-11.7102
▁ARIA	-11.7104
▁Ry	-11.7105
▁Volt	-11.7109
▁premise	-11.7113
▁Student	-11.7115
▁Travel	-11.7115
▁helmet	-11.7124
▁melt	-11.7126
▁Jamie	-11.7127
▁z	-11.7127
▁terrible	-11.7127
▁practic	-11.7129
▁Wong	-11.7129
▁Jose	-11.713
▁exceeding	-11.713
▁Clear	-11.7132
▁Ger	-11.7134
▁deer	-11.7141
▁choices	-11.7143
croft	-11.7144
▁Norwich	-11.7144
▁photos	-11.7144
▁fatalit	-11.7149
▁proven	-11.715
▁hometown	-11.715
▁reads	-11.7151
▁faithful	-11.7151
▁highlights	-11.7152
cal	-11.7153
▁clinical	-11.7153
▁discrimination	-11.7155
▁Brittan	-11.7155
oli	-11.7156
▁combin	-11.7158
▁gills	-11.7158
bank	-11.7161
▁Lafayette	-11.7165
▁Jessica	-11.7165
▁Archer	-11.717
▁Gang	-11.7171
17	-11.7173
▁rebuilding	-11.7175
▁Penguin	-11.7175
▁Giro	-11.7176
▁robber	-11.7178
▁Buck	-11.7178
▁Close	-11.7181
▁Ny	-11.7181
▁tired	-11.7185
▁Stewie	-11.7185
▁Ru	-11.7186
▁worthy	-11.7189
▁chant	-11.719
▁marker	-11.7192
▁slide	-11.7195
▁Mil	-11.7199
▁Inde	-11.7199
▁Less	-11.72
▁Barr	-11.7201
▁Cecil	-11.7201
ili	-11.7202
▁judg	-11.7203
tha	-11.7206
▁archaeologist	-11.7209
feld	-11.7211
▁hitter	-11.7213
▁clearing	-11.7213
▁sparse	-11.7214
47	-11.7218
▁Brother	-11.7218
▁em	-11.722
▁launching	-11.7222
▁Weber	-11.7226
▁Eagles	-11.7227
▁Rochester	-11.7227
▁blog	-11.7227
▁eager	-11.7227
▁Need	-11.7227
▁122	-11.7231
▁recipient	-11.7231
▁Siege	-11.7235
wan	-11.7236
▁Structure	-11.7238
▁650	-11.724
▁Emine	-11.7242
▁Prison	-11.7243
▁rode	-11.7245
▁denounc	-11.7246
▁cease	-11.7252
▁Wal	-11.7256
▁Happy	-11.7259
▁Middlese	-11.7259
▁iconic	-11.7261
▁Joker	-11.7262
▁Pilot	-11.7263
▁determin	-11.7264
del	-11.7265
▁Evening	-11.7267
▁cheer	-11.7267
▁automobile	-11.7269
▁encouraging	-11.727
▁Michaels	-11.727
▁fi	-11.727
▁Evan	-11.7277
▁plug	-11.7278
▁Gardner	-11.7279
▁chambers	-11.7279
gy	-11.7279
▁Match	-11.728
▁Greene	-11.7281
▁Mur	-11.7281
▁Kra	-11.7284
▁Sword	-11.7285
▁Height	-11.7287
▁augment	-11.7289
▁monsoon	-11.729
▁Gates	-11.7291
▁Boyd	-11.7293
▁rectang	-11.7299
▁Wyatt	-11.73
▁Block	-11.7301
▁Canadiens	-11.7302
inus	-11.7303
▁manuscripts	-11.7305
▁Shakir	-11.731
▁bath	-11.731
▁Anglican	-11.7311
▁Brunswick	-11.7311
▁Cohen	-11.7311
hara	-11.7312
1856	-11.7316
ification	-11.7317
▁ancestor	-11.7317
▁ACC	-11.7321
▁destin	-11.7321
▁Behind	-11.7321
▁Carpenter	-11.7321
▁purple	-11.7322
▁Preparation	-11.7322
▁Seas	-11.7322
nia	-11.7324
▁Fun	-11.7326
▁regret	-11.7326
▁lecture	-11.7327
▁brush	-11.733
▁Hokie	-11.7333
▁Cornell	-11.7333
▁mortality	-11.7334
▁CIA	-11.7337
▁Thorpe	-11.7343
ovny	-11.7343
ologist	-11.7346
▁tales	-11.7346
▁fence	-11.7347
▁dispers	-11.7349
▁physicist	-11.7349
▁Full	-11.735
▁annex	-11.7352
▁Harbour	-11.7353
▁Oppenheimer	-11.7353
▁Perfect	-11.7353
▁Verde	-11.7354
zer	-11.736
▁nerve	-11.736
▁Forever	-11.7363
▁nationwide	-11.7364
▁1852	-11.7366
▁heating	-11.7367
▁lament	-11.7367
▁Kemp	-11.7367
mb	-11.7367
▁Hindi	-11.7368
▁stereotype	-11.7368
ado	-11.7368
▁Louisville	-11.7369
▁cricketer	-11.7371
▁Heat	-11.7374
▁medication	-11.7375
▁deadline	-11.7378
▁Nolan	-11.7379
▁gesture	-11.7384
▁grants	-11.7384
▁Brett	-11.7384
▁devastat	-11.7385
▁Annual	-11.7385
▁indoor	-11.7385
▁badge	-11.7388
▁con	-11.7389
▁Clan	-11.739
▁colonist	-11.739
▁Birds	-11.7391
▁subordinate	-11.7393
▁Thursday	-11.7396
▁spontaneous	-11.7396
▁Recent	-11.7396
▁radioactive	-11.7396
▁mutation	-11.7396
▁capability	-11.7399
▁revert	-11.7402
▁lady	-11.7403
▁remnant	-11.7404
▁mob	-11.7405
▁facilitate	-11.7406
▁accomplishment	-11.7407
▁Lance	-11.7414
▁adventures	-11.7416
▁polish	-11.7417
▁Ce	-11.7418
Reilly	-11.7419
▁betray	-11.7425
▁Fine	-11.7426
▁plead	-11.7426
▁flie	-11.7427
▁hollow	-11.7427
▁foster	-11.7427
▁Better	-11.743
▁Fight	-11.743
▁Yankov	-11.7435
▁Volunteer	-11.7438
▁exhibits	-11.7439
▁1847	-11.7441
▁undertake	-11.7446
▁sophisticat	-11.7448
▁Cinema	-11.7448
▁Miguel	-11.7449
▁reproduction	-11.7449
▁pub	-11.7451
▁concurrenc	-11.7453
▁calci	-11.7453
box	-11.7454
▁lord	-11.7456
ides	-11.7457
▁116	-11.7458
ichi	-11.7459
▁sovereign	-11.7459
▁Technical	-11.746
▁goaltender	-11.7461
▁colleges	-11.7463
▁Bow	-11.7465
▁cu	-11.7465
▁gravel	-11.7466
sham	-11.7466
mel	-11.7466
▁drunk	-11.7468
▁Kiel	-11.7468
▁Fernand	-11.7469
bach	-11.7471
▁Milton	-11.7471
▁Lebanon	-11.7471
▁1855	-11.7473
▁j	-11.7474
▁tap	-11.7475
▁broadside	-11.7476
▁Pont	-11.7476
▁excavat	-11.7479
▁Neo	-11.748
▁barge	-11.748
▁Jets	-11.7481
▁Cover	-11.7482
▁orbits	-11.7484
▁Moor	-11.749
▁Alien	-11.7491
▁Nord	-11.7494
▁Grande	-11.7496
▁crowds	-11.7497
▁Toy	-11.75
▁disput	-11.75
▁complexity	-11.7503
cle	-11.7503
▁Table	-11.7503
▁und	-11.7509
▁Negro	-11.7512
▁202	-11.7513
▁Lexington	-11.7513
▁particle	-11.7514
▁pac	-11.7514
▁AU	-11.7515
▁Saints	-11.7517
▁imply	-11.7519
▁insect	-11.7519
▁announc	-11.7519
85	-11.7522
▁labell	-11.7524
▁Jet	-11.7526
▁Hey	-11.7527
▁Socialist	-11.7531
▁Strike	-11.7531
▁Denis	-11.7533
▁reply	-11.7534
▁stump	-11.7534
▁Cedar	-11.7535
nen	-11.7536
▁Darre	-11.7539
▁jam	-11.7542
▁humour	-11.7545
▁cure	-11.7546
▁cottage	-11.7546
▁1846	-11.7547
▁abundance	-11.7548
▁analyst	-11.755
▁dreams	-11.755
▁Corner	-11.7552
▁drops	-11.7552
▁helium	-11.7552
▁luxur	-11.7556
▁Rupert	-11.7556
▁amid	-11.7565
▁murders	-11.7565
▁Julie	-11.7566
▁Damascus	-11.7567
▁Hundred	-11.7567
▁coronation	-11.7567
▁leap	-11.7567
▁Hastings	-11.7567
▁Speak	-11.7571
▁Ted	-11.7571
▁swift	-11.7577
▁unconscious	-11.7577
▁resemblance	-11.7579
▁viral	-11.7581
▁beds	-11.7581
▁nesting	-11.7586
eanwhile	-11.7586
▁Humphrey	-11.7588
▁Hampton	-11.7589
▁offspring	-11.7589
▁harder	-11.7589
▁centres	-11.7591
▁Conan	-11.7593
▁instructor	-11.7594
▁Viking	-11.7594
▁diesel	-11.7595
▁trails	-11.7596
▁guerrilla	-11.7599
▁victorious	-11.7599
▁charting	-11.7601
▁141	-11.7602
▁hung	-11.7604
▁Gear	-11.7605
▁miniature	-11.761
▁dioxide	-11.761
▁assured	-11.7611
▁1832	-11.7613
▁conceded	-11.7614
▁Alons	-11.7615
ova	-11.7618
15	-11.762
▁polls	-11.7625
▁Sanskrit	-11.7632
▁Stockholm	-11.7632
▁chains	-11.764
▁contractor	-11.7641
14	-11.7642
▁definitive	-11.7643
▁ingredient	-11.7643
▁dismissal	-11.7643
▁Give	-11.7651
▁ankle	-11.7652
▁hiatus	-11.7653
▁FC	-11.7659
▁Cut	-11.7661
▁dragon	-11.7663
▁reddish	-11.7664
▁Chetnik	-11.7664
cht	-11.767
▁enforce	-11.7672
▁Academic	-11.7675
▁Halloween	-11.7675
▁pagan	-11.7676
▁bread	-11.7676
▁elimination	-11.7679
pen	-11.7684
▁intensive	-11.7685
▁Raider	-11.7685
▁cooler	-11.7685
▁Thirty	-11.7686
▁persistent	-11.7686
▁collid	-11.7691
▁devised	-11.7693
oh	-11.7693
▁imagin	-11.7694
▁Language	-11.7697
▁Lanka	-11.77
▁fragment	-11.7703
▁Safety	-11.7708
▁oath	-11.7709
▁Aside	-11.7709
▁Specie	-11.7711
▁Lauren	-11.7711
▁bicycle	-11.7714
▁Albanian	-11.7716
▁doubles	-11.7716
▁courage	-11.7718
26	-11.7718
▁feedback	-11.7719
▁livestock	-11.772
▁lend	-11.7721
▁crossover	-11.7721
▁characteris	-11.7723
sel	-11.7723
mus	-11.7724
▁accusations	-11.7724
▁mat	-11.7727
▁Cre	-11.7728
▁chick	-11.7728
▁fl	-11.7728
▁Brisbane	-11.773
▁Adolf	-11.773
▁Mansfield	-11.7731
▁frontal	-11.7731
▁Dogget	-11.7732
▁Approximate	-11.7741
▁Minneapolis	-11.7741
▁Shackleton	-11.7741
▁humorous	-11.7743
▁Being	-11.7743
crosse	-11.7745
▁reflection	-11.7745
RA	-11.7747
uff	-11.7751
▁Charter	-11.7759
aku	-11.7761
▁phases	-11.7763
▁Meredith	-11.7763
▁Sharp	-11.7766
▁rope	-11.7767
▁periodical	-11.7767
▁shower	-11.7767
sium	-11.7772
self	-11.7774
▁abbey	-11.7774
▁empower	-11.7774
▁backdrop	-11.7775
▁dramatical	-11.7776
▁caps	-11.7778
▁namely	-11.7778
ground	-11.7785
▁Worcester	-11.7785
▁Scientific	-11.7785
▁Animal	-11.7785
▁remaster	-11.7787
▁omitt	-11.7789
▁Bergen	-11.7791
▁pipe	-11.7791
▁fus	-11.7793
▁Zeld	-11.7796
una	-11.7796
ique	-11.7798
▁138	-11.78
▁peers	-11.7801
▁posthumously	-11.7801
▁enforc	-11.7803
fo	-11.7803
▁Cardinal	-11.7806
▁flourish	-11.7806
bal	-11.7807
▁Coalition	-11.7807
▁pride	-11.7807
▁EMI	-11.7808
▁fare	-11.7809
▁Animation	-11.7809
▁camouflage	-11.7809
erman	-11.7811
▁install	-11.7811
▁eighteenth	-11.7811
▁Winston	-11.7811
▁skilled	-11.7818
▁leas	-11.782
▁1853	-11.782
▁presumabl	-11.7821
▁curricul	-11.7821
▁shade	-11.7822
▁intervene	-11.7824
▁restrict	-11.7824
▁surf	-11.7826
▁mating	-11.7828
▁boxes	-11.7829
▁profound	-11.7829
▁Ré	-11.7833
ring	-11.7834
▁metaphor	-11.7837
▁Guam	-11.784
▁dolphin	-11.784
▁Wildlife	-11.784
▁Chu	-11.7843
ew	-11.7843
▁Warwick	-11.7846
ín	-11.7848
▁Von	-11.7854
▁replay	-11.7854
▁ve	-11.7858
▁Baja	-11.786
aker	-11.7861
▁comparisons	-11.7863
ban	-11.7865
▁melodic	-11.7866
▁compose	-11.7872
▁Mos	-11.7872
▁Use	-11.7873
▁Armour	-11.7874
▁Tara	-11.7874
▁Beatty	-11.7875
▁Shane	-11.7875
▁calculation	-11.7876
▁Transit	-11.7876
▁Numero	-11.7877
▁heroine	-11.7881
▁Ab	-11.7883
▁pistol	-11.7885
▁operators	-11.7887
▁clone	-11.7887
▁Yale	-11.7888
▁Ci	-11.789
▁Ride	-11.7895
▁froze	-11.7896
▁Smart	-11.7897
▁AM	-11.79
▁Remix	-11.7901
view	-11.7902
▁Cubs	-11.7903
▁Lie	-11.7906
▁Leopold	-11.7907
▁recipe	-11.7907
▁AI	-11.7907
▁fungi	-11.7908
▁Cherry	-11.7909
pology	-11.7909
▁counterpart	-11.7909
ema	-11.791
▁visuals	-11.7911
▁acknowledge	-11.7913
lic	-11.7914
86	-11.7915
▁surgeon	-11.7915
▁statistical	-11.7916
room	-11.7916
▁grenade	-11.7918
▁thread	-11.7918
▁elevator	-11.7919
▁Colbert	-11.7919
▁constitut	-11.792
▁Sr	-11.7921
▁descriptions	-11.7921
▁Supporting	-11.7921
▁pot	-11.7923
▁penalt	-11.7924
▁oz	-11.7924
ER	-11.7928
▁Orlando	-11.7929
▁jealous	-11.7929
wine	-11.7931
tter	-11.7935
▁punch	-11.7935
▁sacked	-11.7936
▁makeup	-11.7939
▁observing	-11.7941
▁unrest	-11.7941
▁ch	-11.7942
▁ty	-11.7943
▁Sad	-11.7944
▁barn	-11.7945
▁limbs	-11.7945
▁MI	-11.7946
▁fantastic	-11.7946
▁justifi	-11.7947
▁lineage	-11.7947
▁Paper	-11.7948
▁Solo	-11.7949
▁Sandy	-11.796
▁cooking	-11.796
▁cow	-11.796
▁curse	-11.7962
▁cultivat	-11.7963
▁Clement	-11.7963
▁preview	-11.7967
▁periodic	-11.797
▁fins	-11.7971
▁Seymour	-11.7974
▁abortion	-11.7975
▁119	-11.7977
▁Hoffman	-11.7977
mere	-11.7981
▁Mul	-11.7984
nar	-11.7985
▁Kapoor	-11.7986
▁wildlife	-11.7986
▁shirts	-11.7988
▁resid	-11.7988
▁complaint	-11.799
woman	-11.7993
▁Stoke	-11.7996
▁unprecedented	-11.7997
▁Dexter	-11.7997
▁adverse	-11.7997
ali	-11.8
▁Tur	-11.8
mura	-11.8002
▁frames	-11.8002
▁drives	-11.8005
▁Erin	-11.8006
▁Angels	-11.8007
▁advertise	-11.801
▁Manila	-11.801
▁Lynn	-11.8011
ante	-11.8011
far	-11.8012
▁Crisi	-11.8012
▁Poly	-11.8014
▁Mag	-11.8016
▁Kay	-11.8016
▁affirm	-11.8018
▁zinc	-11.8019
▁1841	-11.8024
▁insight	-11.8024
▁digit	-11.8025
▁Foot	-11.8028
▁module	-11.803
▁comparative	-11.8031
▁Knox	-11.8031
▁Working	-11.8032
▁Warriors	-11.8033
▁thank	-11.8037
▁dragg	-11.804
▁republic	-11.804
▁Previous	-11.8042
▁Carroll	-11.8042
▁Campus	-11.8043
▁framework	-11.8043
▁catche	-11.8043
▁Dixon	-11.8043
▁Oakland	-11.8044
▁comeback	-11.8044
▁Dom	-11.8047
▁novelist	-11.8049
▁132	-11.805
▁bark	-11.805
▁Harding	-11.805
▁Dee	-11.8053
aire	-11.8055
king	-11.8055
izing	-11.8059
▁Casting	-11.806
top	-11.806
▁Sinatra	-11.8065
▁Mori	-11.8065
▁everyday	-11.8066
▁roofs	-11.8072
pot	-11.8073
▁Jackie	-11.8075
gal	-11.8076
▁reclaim	-11.8076
▁strikeout	-11.8077
aba	-11.8078
inae	-11.8082
▁horns	-11.8083
11	-11.8085
▁Screen	-11.8086
▁Raven	-11.8086
entity	-11.8086
▁scales	-11.8087
▁ancestry	-11.8087
▁certificate	-11.8087
▁Albion	-11.8087
▁courtyard	-11.8088
▁Magnus	-11.8089
▁institute	-11.8093
ase	-11.8093
▁prose	-11.8096
▁Belgrade	-11.8099
▁cinematic	-11.8099
▁Cage	-11.8102
▁Fey	-11.8103
▁Believe	-11.8103
mani	-11.8103
▁Welles	-11.8104
▁gambl	-11.8105
▁Pra	-11.8106
▁128	-11.8106
▁aunt	-11.811
▁Hemingway	-11.811
▁accounting	-11.8111
▁clusters	-11.8111
▁Tam	-11.8111
▁keeper	-11.8114
▁Victory	-11.8115
▁Andrea	-11.8116
continental	-11.8122
▁1844	-11.8124
▁Hyde	-11.8125
▁Fo	-11.8127
▁optical	-11.8128
grad	-11.8128
▁Troy	-11.8132
▁synonym	-11.8132
▁smell	-11.8133
▁dug	-11.8135
▁Nan	-11.8135
▁poetic	-11.8137
▁overnight	-11.8137
▁altar	-11.8138
form	-11.8139
▁debat	-11.8139
▁beta	-11.814
▁Haiti	-11.8142
▁befriend	-11.8144
▁frustration	-11.8144
▁satire	-11.8144
▁urging	-11.8144
▁integration	-11.8146
▁Pole	-11.8151
▁soccer	-11.8156
▁conscious	-11.8156
▁Ferry	-11.8157
▁patronage	-11.8157
▁hind	-11.8159
▁swim	-11.8163
▁pianist	-11.8167
▁Estate	-11.8169
▁Barton	-11.8173
▁integral	-11.8173
▁Valentine	-11.8174
▁Eyes	-11.8174
28	-11.8176
tur	-11.8177
▁supernatural	-11.8179
▁JMA	-11.8186
▁weird	-11.8187
▁chao	-11.8188
▁probe	-11.8189
▁Dawson	-11.819
▁fond	-11.8191
enburg	-11.8191
▁maiden	-11.8192
▁composing	-11.8193
▁riot	-11.8195
▁Disc	-11.8197
33	-11.8198
▁analyz	-11.82
▁Guerrero	-11.8202
▁sided	-11.8202
50	-11.8203
▁MGM	-11.8203
▁gallon	-11.8203
▁Kannada	-11.8213
▁Survivor	-11.8214
▁dressing	-11.8214
▁cheat	-11.8216
▁maybe	-11.8216
▁listeners	-11.8218
▁Mis	-11.8219
▁refin	-11.822
▁Challenge	-11.8221
▁hinder	-11.8222
▁defining	-11.8224
▁Eleanor	-11.8225
▁Pradesh	-11.8225
▁overturn	-11.8225
▁Fur	-11.8225
▁onset	-11.8227
aka	-11.8229
▁Joy	-11.8231
▁Vick	-11.8232
ami	-11.8233
vel	-11.8234
▁1790	-11.8238
▁overthrow	-11.8238
▁Fen	-11.8239
▁Dis	-11.824
▁Fl	-11.8242
▁overwhelm	-11.8244
▁Dre	-11.8244
▁maternal	-11.8248
▁Bronze	-11.8248
▁1776	-11.8249
▁Getty	-11.825
atus	-11.8252
▁reliabl	-11.8254
▁realism	-11.8258
sey	-11.8258
▁archbishop	-11.8259
ecology	-11.8261
▁supervision	-11.8261
▁Maggi	-11.8261
▁Shark	-11.8261
▁crazy	-11.8271
▁turnpike	-11.8271
▁Cliff	-11.8274
▁facial	-11.8275
eg	-11.8277
▁Swan	-11.8278
cent	-11.828
▁slipp	-11.828
FR	-11.8282
▁Abdul	-11.8282
▁Wednesday	-11.8282
▁gasoline	-11.8282
▁Wisden	-11.8282
▁congressional	-11.8282
▁Very	-11.8283
▁client	-11.8285
dar	-11.8285
▁ka	-11.8285
▁Gor	-11.8288
▁tears	-11.829
▁biology	-11.829
▁Present	-11.8293
▁McLaren	-11.8295
▁pad	-11.8296
uit	-11.8296
▁afraid	-11.8298
▁Seth	-11.8298
▁obscure	-11.8299
▁pretend	-11.8299
▁knife	-11.8301
▁SA	-11.8302
pol	-11.8305
▁till	-11.8305
▁chronic	-11.8305
▁receptor	-11.8306
▁Nas	-11.8311
▁menu	-11.8313
zz	-11.8319
▁1837	-11.832
▁Webb	-11.8322
the	-11.8322
▁tidal	-11.8325
▁Made	-11.8326
▁Henri	-11.8327
▁rises	-11.8327
horn	-11.8327
▁summoned	-11.8328
▁persecution	-11.8329
▁filling	-11.8332
▁ditch	-11.8332
▁investigator	-11.8332
▁architects	-11.8334
▁Tsar	-11.8334
▁tent	-11.8338
ibility	-11.834
▁asteroid	-11.8341
▁ladder	-11.8341
▁Eva	-11.8341
▁Mack	-11.8343
ello	-11.8346
0	-11.8347
mark	-11.8347
▁Support	-11.8347
▁melodi	-11.8347
▁Arabia	-11.8348
▁Sales	-11.8352
▁Amazing	-11.8352
▁Telugu	-11.8352
▁retrospective	-11.8352
▁drought	-11.8352
▁pillar	-11.8353
▁sculptor	-11.8354
iki	-11.8354
▁Guatemala	-11.8355
▁Blackburn	-11.8355
▁Juda	-11.8357
▁Faith	-11.8363
▁undermine	-11.8367
▁Brewer	-11.8368
▁grace	-11.8374
▁fad	-11.8375
▁fog	-11.8375
cker	-11.8376
▁Federer	-11.8377
▁neutron	-11.838
▁continuation	-11.838
▁Broadcast	-11.8386
▁Traditional	-11.8387
▁awkward	-11.8387
▁Webster	-11.8388
▁correspondent	-11.8388
▁Congo	-11.839
▁Marco	-11.8393
▁prosecutor	-11.8395
▁sulfur	-11.8399
▁cheek	-11.8399
▁shutout	-11.84
▁Sheriff	-11.84
▁tables	-11.84
master	-11.8402
ico	-11.8403
▁prone	-11.8403
▁heroic	-11.8403
▁deity	-11.841
▁Mc	-11.8411
▁vacant	-11.8411
▁flock	-11.8411
maker	-11.8413
▁Nar	-11.8414
ele	-11.8418
▁Finals	-11.842
▁Mes	-11.8422
▁Wimbledon	-11.8423
▁Zagreb	-11.8423
▁hangar	-11.8424
ire	-11.8425
▁tablet	-11.8425
▁uncertaint	-11.8426
aceae	-11.8429
▁keeps	-11.843
▁Lambert	-11.843
▁Trent	-11.8432
▁masterpiece	-11.8435
▁reunion	-11.8436
▁handful	-11.8437
▁ATP	-11.844
▁wit	-11.8441
▁cord	-11.8442
▁flavor	-11.8446
▁affiliat	-11.8448
▁portraits	-11.845
▁translate	-11.8452
rated	-11.8453
bit	-11.8458
heroes	-11.8458
▁surfaces	-11.8458
▁textile	-11.8459
▁Conrad	-11.8459
▁gravitational	-11.8461
▁inspect	-11.8467
▁mound	-11.847
▁passages	-11.847
▁Rus	-11.8473
▁Legal	-11.8473
▁troubled	-11.8474
▁Biography	-11.8474
▁affection	-11.8474
▁Hep	-11.8475
pon	-11.8475
▁Representative	-11.8477
▁recreation	-11.848
gg	-11.8481
▁Gazette	-11.8482
▁prestigious	-11.8482
▁beache	-11.8482
27	-11.8487
orum	-11.8492
▁Did	-11.8493
▁verdict	-11.8493
▁Matilda	-11.8493
▁Leg	-11.8495
▁Ak	-11.8497
▁trenche	-11.8497
▁Students	-11.8503
▁discourage	-11.8505
▁envision	-11.8505
▁Communications	-11.8505
▁clade	-11.8506
▁realise	-11.8515
▁Cle	-11.8515
▁incumbent	-11.8517
▁slip	-11.8518
▁snake	-11.8519
▁137	-11.852
▁Ji	-11.8522
▁lectures	-11.8522
▁Yang	-11.8528
▁immense	-11.8529
▁Orkney	-11.8529
▁energetic	-11.8529
▁vigorous	-11.8529
▁IUC	-11.853
▁detection	-11.8531
▁starboard	-11.8543
cat	-11.8544
care	-11.8547
▁embrace	-11.8547
cu	-11.8548
▁Syracus	-11.8553
▁Tolkien	-11.8553
▁nutrient	-11.8553
▁endemic	-11.8553
▁ineffective	-11.8553
▁molar	-11.8553
ties	-11.8553
▁breathing	-11.8554
▁Flash	-11.8554
▁steamer	-11.8555
stra	-11.8557
▁bunker	-11.8558
▁Ser	-11.8558
▁Vision	-11.8559
▁scarce	-11.856
▁Shawn	-11.856
▁Kai	-11.856
▁dialect	-11.8562
▁Roth	-11.8564
▁Ace	-11.8565
▁Heinrich	-11.8565
▁Legislative	-11.8565
▁spectacular	-11.8565
▁hypha	-11.8565
▁remixes	-11.8566
▁Expressway	-11.8566
met	-11.8566
▁muscles	-11.8572
▁Warrior	-11.8574
▁ecological	-11.8577
lie	-11.8578
▁1839	-11.8579
▁Plain	-11.8579
▁embrac	-11.8582
▁happening	-11.8583
ple	-11.8584
▁revolve	-11.8584
▁Brock	-11.8585
anu	-11.8585
▁Ri	-11.8587
▁Bern	-11.8588
▁technological	-11.8589
▁Dorothy	-11.8589
▁Crosby	-11.8589
▁Borg	-11.8589
▁mantle	-11.859
1836	-11.8592
ain	-11.8593
▁Ski	-11.8593
▁195	-11.8593
hl	-11.8597
▁vector	-11.8599
▁fuselage	-11.8601
▁tragedy	-11.8601
▁reproductive	-11.8601
▁vampire	-11.8602
▁Voyager	-11.8602
▁MC	-11.8603
▁Bf	-11.8604
▁breath	-11.8605
▁123	-11.8607
▁Classical	-11.8608
▁rib	-11.8611
▁swallow	-11.8611
▁heated	-11.8612
▁460	-11.8612
▁Architecture	-11.8613
▁papal	-11.8614
▁bankruptc	-11.8615
nie	-11.8619
▁reporters	-11.8622
▁Sinclair	-11.8625
▁Felix	-11.8625
▁riots	-11.8625
▁lunar	-11.8625
▁vacation	-11.8625
▁Diane	-11.8625
▁RBI	-11.8626
▁Sesam	-11.8627
▁Flow	-11.8627
▁Bede	-11.8628
▁sketche	-11.8631
▁counterparts	-11.8635
▁imagine	-11.8636
▁Gaelic	-11.8637
▁Hutchinson	-11.8637
▁rendering	-11.8638
▁Airways	-11.8638
AR	-11.8639
▁Stern	-11.8644
ée	-11.8644
▁devastating	-11.8647
▁Khrushchev	-11.8649
▁icon	-11.8649
▁evaluation	-11.8649
▁Slayer	-11.865
▁barr	-11.8651
▁curtain	-11.8661
▁pipeline	-11.8661
▁boil	-11.8661
▁nobles	-11.8666
▁Chin	-11.8668
▁Joey	-11.8668
ft	-11.8668
▁Kids	-11.867
▁joy	-11.8676
▁Bio	-11.8679
▁abstract	-11.8684
▁iPhone	-11.8685
▁motorcycle	-11.8685
▁Complex	-11.8685
▁stack	-11.8685
▁Auburn	-11.8685
▁terminated	-11.8685
▁faint	-11.8687
▁Note	-11.8688
▁Hammer	-11.8689
▁valve	-11.8697
▁viruses	-11.87
▁synth	-11.87
▁consume	-11.8706
▁Planning	-11.8709
▁integr	-11.8709
▁pedestrian	-11.8709
▁Krusty	-11.8709
▁Midway	-11.871
▁unnecessary	-11.8714
▁gains	-11.8718
▁quantum	-11.8721
▁vinyl	-11.8721
▁merchandise	-11.8722
▁Whit	-11.8722
▁Vernon	-11.8722
▁notorious	-11.8722
▁rebound	-11.8722
▁precursor	-11.8723
▁cantata	-11.8723
▁denomination	-11.8724
star	-11.8724
▁dissent	-11.8725
▁superhero	-11.8726
▁conception	-11.8733
▁u	-11.8734
▁Wait	-11.8735
born	-11.8739
ath	-11.8741
▁Squad	-11.8745
▁Vishnu	-11.8745
▁tobacco	-11.8745
▁thirteenth	-11.8745
▁Bil	-11.8746
▁Sleep	-11.8747
▁trench	-11.8754
▁seating	-11.8757
▁recognise	-11.8757
ility	-11.8757
▁Herzegovina	-11.8757
▁Wembley	-11.8757
▁Gran	-11.876
▁Len	-11.8761
▁amphibious	-11.8762
▁happens	-11.8766
bri	-11.8768
▁Dot	-11.8769
▁Chesapeak	-11.877
▁Avenger	-11.877
▁pardon	-11.877
▁stealing	-11.877
▁alumni	-11.8771
▁laser	-11.8774
bell	-11.8777
▁Fighting	-11.878
▁congress	-11.8782
▁uncommon	-11.8782
▁mourn	-11.8782
▁catalogue	-11.8782
▁Southwest	-11.8785
nick	-11.8786
▁pier	-11.8787
▁124	-11.879
▁nav	-11.8793
▁Wyoming	-11.8794
▁Ter	-11.8794
▁Wanderers	-11.8795
ridge	-11.8798
pt	-11.8801
▁subplot	-11.8806
▁repeal	-11.8806
▁Croat	-11.8806
▁airplane	-11.8807
▁Nazis	-11.8808
▁1835	-11.8808
▁urge	-11.881
▁Gustav	-11.8811
▁Sixth	-11.8812
▁mills	-11.8817
▁Leipzig	-11.8818
are	-11.8818
▁detain	-11.8819
bourne	-11.8821
▁compelling	-11.8825
▁Era	-11.8826
▁Hol	-11.8827
▁equit	-11.883
▁disappointing	-11.883
▁prostitute	-11.8831
▁Warning	-11.8834
▁Booker	-11.8837
▁Christina	-11.8841
▁invade	-11.8841
▁intern	-11.8842
▁militant	-11.8843
▁Shannon	-11.8843
▁forever	-11.8848
▁wheels	-11.8849
▁Gas	-11.885
▁144	-11.8854
▁Dur	-11.8855
▁Agreement	-11.8855
▁Undertaker	-11.8855
▁treason	-11.8855
atsu	-11.8856
▁binary	-11.8857
▁1799	-11.8857
▁mon	-11.8858
▁autonom	-11.886
▁Monk	-11.8863
▁intensification	-11.8867
▁Shanghai	-11.8867
▁prevail	-11.8868
▁cheese	-11.8868
▁Sul	-11.887
▁wears	-11.8871
▁unifi	-11.8874
bor	-11.8876
▁metallic	-11.8878
▁NWA	-11.8879
▁Randolph	-11.888
▁Declaration	-11.888
▁Journey	-11.888
▁Scene	-11.8881
▁Persians	-11.8882
▁oblig	-11.8883
▁Pier	-11.8885
▁wolf	-11.8885
▁interfere	-11.8886
▁cavit	-11.8889
▁pi	-11.8889
uc	-11.8891
▁Smash	-11.8892
▁NC	-11.8893
▁Tasmania	-11.8895
▁resource	-11.8897
▁Mortal	-11.8899
▁Dome	-11.8899
▁posting	-11.89
▁mess	-11.8904
▁relegation	-11.8906
▁Sto	-11.8906
▁Spike	-11.8906
▁Cobb	-11.8907
yama	-11.8908
▁Barrow	-11.8908
▁behave	-11.8913
▁rejection	-11.8913
▁Fuller	-11.8915
nu	-11.8915
▁305	-11.8916
▁Aberdeen	-11.8917
▁Galveston	-11.8917
▁Offensive	-11.8917
▁Arrow	-11.8917
▁rematch	-11.8917
yard	-11.8921
▁plasma	-11.8929
▁aquatic	-11.8929
▁Chemical	-11.8929
par	-11.893
PA	-11.893
▁carriage	-11.893
▁rebuild	-11.893
▁1838	-11.8931
sley	-11.8933
▁Kr	-11.8935
▁Plains	-11.8938
56	-11.894
▁propulsi	-11.894
▁Achievement	-11.8941
▁trunkline	-11.8942
▁Effects	-11.8942
powder	-11.8943
▁Goodman	-11.8944
▁slate	-11.8945
▁Clarkson	-11.8947
▁tournaments	-11.8948
▁Wil	-11.8948
▁Bates	-11.8949
▁sweep	-11.8951
▁Jun	-11.8953
▁bike	-11.8954
▁Twilight	-11.8954
▁pamphlet	-11.8954
▁repetitive	-11.8954
▁tremendous	-11.8954
▁Vladimir	-11.8954
▁uniforms	-11.8955
das	-11.8958
▁Juliet	-11.8959
wrapped	-11.8959
litz	-11.896
ose	-11.896
▁Hat	-11.896
▁Ett	-11.8964
▁Providence	-11.8966
rich	-11.8968
▁mobilit	-11.8968
▁Arc	-11.8971
▁utilize	-11.8974
▁shake	-11.8975
▁unwilling	-11.8976
▁Clare	-11.8976
▁Phase	-11.8977
▁panic	-11.8978
▁furniture	-11.8979
▁Yoshi	-11.898
▁Crusader	-11.8981
▁Sc	-11.8982
▁Moreno	-11.8982
▁Chess	-11.8984
▁Silent	-11.8991
▁Hipper	-11.8991
▁Letter	-11.8992
▁Lim	-11.8994
▁unbeaten	-11.8996
▁Watts	-11.8997
▁Bahrain	-11.8998
▁Fly	-11.9
▁statues	-11.9001
▁Ambassador	-11.9004
▁LGBT	-11.9004
▁Slant	-11.9004
▁Exeter	-11.9004
▁precedent	-11.9005
▁regulat	-11.9005
▁sounding	-11.9005
▁1829	-11.9006
▁speaks	-11.9008
▁visibility	-11.901
▁analyse	-11.9011
▁globe	-11.9016
▁corners	-11.9016
▁angles	-11.9018
▁Bayern	-11.902
▁saga	-11.902
▁insult	-11.902
▁cliff	-11.9023
▁duel	-11.9026
▁Fast	-11.9028
▁Exchange	-11.9028
▁Pitchfork	-11.9028
▁Shepherd	-11.9028
▁litter	-11.9029
▁bust	-11.903
▁royalt	-11.9034
TV	-11.9035
▁poets	-11.9038
▁MCC	-11.9039
▁catalog	-11.9039
▁solitar	-11.9041
▁stint	-11.9041
▁supernova	-11.9041
▁surname	-11.9042
▁melting	-11.9042
gue	-11.9044
▁Parish	-11.9046
▁odds	-11.9047
▁Basil	-11.905
▁confiscat	-11.9052
▁formats	-11.9053
▁scroll	-11.9054
▁Trevor	-11.9054
▁fiscal	-11.9054
▁Emergenc	-11.9055
▁Sei	-11.9056
▁Institution	-11.9059
▁Carson	-11.906
▁Davidson	-11.9061
▁Qui	-11.9064
▁isotope	-11.9066
▁Julius	-11.9066
▁Geography	-11.9066
▁XII	-11.9067
▁Germanic	-11.9068
▁outflow	-11.9068
▁divorc	-11.9068
▁shout	-11.9069
▁sculptures	-11.9069
29	-11.9072
▁Styles	-11.9073
▁Touch	-11.9076
▁Boone	-11.9077
▁claw	-11.9078
▁Testament	-11.9079
▁Something	-11.908
jima	-11.908
▁likewise	-11.9084
▁Said	-11.9086
▁cod	-11.9088
wi	-11.909
▁olive	-11.9091
▁sparrow	-11.9091
▁strick	-11.9091
▁vowel	-11.9092
▁Ng	-11.9098
▁1842	-11.91
achi	-11.9103
▁Self	-11.9103
▁Cannon	-11.9104
▁forget	-11.9104
▁bend	-11.9104
▁inflation	-11.9104
▁relic	-11.9104
▁Source	-11.9105
shot	-11.9112
▁weighing	-11.9115
▁Wollstonecraft	-11.9116
▁cockpit	-11.9116
▁Glory	-11.9117
▁unchang	-11.9117
36	-11.912
▁Looking	-11.9121
zu	-11.9122
▁Brooke	-11.9125
▁pray	-11.9126
▁Rating	-11.9126
▁Detective	-11.9129
▁fountain	-11.9129
▁pension	-11.9129
▁410	-11.9131
▁originate	-11.9132
▁Vale	-11.9135
qu	-11.9135
▁moistur	-11.9138
nis	-11.9138
▁Diet	-11.9139
▁liberty	-11.9142
▁exotic	-11.9142
▁Ukraine	-11.9142
▁verbal	-11.9142
▁Salford	-11.9143
▁disposal	-11.9143
▁graph	-11.9144
▁wise	-11.9146
▁480	-11.9152
▁Artists	-11.9152
ean	-11.9152
awa	-11.9153
▁restor	-11.9154
▁disastrous	-11.9154
▁Jesuit	-11.9154
▁throws	-11.9155
▁Wave	-11.9155
day	-11.9156
▁Smok	-11.9158
▁economical	-11.9165
▁bo	-11.9166
▁alike	-11.9167
▁Religion	-11.9167
▁eponymous	-11.9167
▁Empress	-11.9167
pro	-11.9168
▁balanced	-11.9169
▁potas	-11.917
▁admiral	-11.9174
▁Covenant	-11.9177
▁Nicole	-11.9177
▁Battery	-11.918
▁amidship	-11.918
▁Mode	-11.9182
▁martin	-11.9182
▁den	-11.9183
▁Bend	-11.9188
ob	-11.9189
▁artifacts	-11.9191
▁ODI	-11.9192
▁Nigel	-11.9193
ovich	-11.9193
▁legendar	-11.9194
▁Killer	-11.9194
▁constellation	-11.9195
▁Ladies	-11.9196
lot	-11.9198
▁elongat	-11.9204
▁pavilion	-11.9205
▁Bombay	-11.9205
▁dig	-11.9205
▁compensate	-11.9206
▁146	-11.9211
▁separat	-11.9211
▁anarchist	-11.9211
▁bubble	-11.9218
▁sheriff	-11.922
▁129	-11.9228
NG	-11.9229
▁Copenhagen	-11.923
▁Glacier	-11.923
▁Northumberland	-11.923
▁Regular	-11.923
mercury	-11.9231
▁naturalist	-11.9231
▁Echo	-11.9231
▁static	-11.9232
▁granite	-11.9232
▁126	-11.9234
▁alpha	-11.9234
▁Locke	-11.9234
▁attest	-11.9234
▁terrace	-11.9235
ash	-11.924
▁renumbering	-11.9241
▁robust	-11.9243
▁Presbyterian	-11.9243
▁destructive	-11.9244
▁pp	-11.9246
▁Noble	-11.9247
phy	-11.9251
▁pe	-11.9251
▁AIF	-11.9252
16	-11.9254
▁1801	-11.9255
▁academy	-11.9256
▁agenda	-11.9256
▁boast	-11.9256
▁Yucat	-11.9256
▁appreciation	-11.9257
▁Bloom	-11.9258
▁kid	-11.9262
▁Municipal	-11.9264
▁inscribed	-11.9265
br	-11.9265
▁Beta	-11.9267
▁Comb	-11.9271
▁1843	-11.9271
rim	-11.9272
▁Wilm	-11.9273
▁Lind	-11.9277
▁outward	-11.928
▁Cretaceous	-11.9281
▁convex	-11.9282
▁lightning	-11.9283
mas	-11.9288
▁zoo	-11.9289
▁Jill	-11.929
▁Deb	-11.9291
▁unrelat	-11.9294
▁database	-11.9295
▁Metallica	-11.9295
▁Honey	-11.9296
▁USAF	-11.9304
▁Idaho	-11.9307
▁Characters	-11.9308
▁Elvis	-11.9308
▁reprise	-11.9309
▁1815	-11.9311
▁Kot	-11.9311
employment	-11.9311
list	-11.9315
▁Europa	-11.9316
erson	-11.9317
wald	-11.9317
▁township	-11.9317
▁Bono	-11.9319
▁procession	-11.932
▁Advisor	-11.932
▁Eleven	-11.932
▁Winnipeg	-11.932
▁antenna	-11.932
▁flatten	-11.9322
▁palm	-11.9323
▁min	-11.9325
mal	-11.9327
▁Kumar	-11.9333
▁rerout	-11.9333
▁substrate	-11.9333
▁gram	-11.9333
▁otter	-11.9333
▁stellar	-11.9334
▁Cairo	-11.9335
▁coinage	-11.9337
▁Noel	-11.9337
▁index	-11.9338
▁Armor	-11.9343
ological	-11.9344
▁hostilities	-11.9346
▁Taft	-11.9346
▁protesters	-11.9346
▁Beauty	-11.9346
▁penn	-11.9347
▁Rough	-11.9347
▁Bosnian	-11.9348
lf	-11.9348
▁Ode	-11.9349
▁tides	-11.9349
37	-11.935
▁Middleton	-11.9354
mun	-11.9356
▁Trinidad	-11.9358
▁tutor	-11.9358
▁Galaxy	-11.9359
▁Rao	-11.9359
▁Converse	-11.9359
▁companions	-11.9359
▁arches	-11.9361
▁Nam	-11.9365
▁improvis	-11.9366
▁prints	-11.9366
▁Lam	-11.9366
▁NES	-11.9368
▁Appeals	-11.9373
▁Animals	-11.9374
▁Vita	-11.9375
stage	-11.9375
ray	-11.9375
30	-11.9378
ith	-11.9383
▁accession	-11.9383
▁Economy	-11.9385
▁airplay	-11.9388
▁lighthouse	-11.9392
▁casual	-11.9392
uxiliary	-11.9394
▁Malaysian	-11.9394
▁Neu	-11.9396
▁shin	-11.9396
▁Progress	-11.9397
▁shoes	-11.9397
▁collar	-11.9397
▁cuisine	-11.9397
▁imminent	-11.9397
▁inherent	-11.9397
▁Policy	-11.9398
▁Physical	-11.9398
▁nude	-11.9398
▁Isabella	-11.9399
▁Aire	-11.9399
nal	-11.94
▁swor	-11.9402
▁Walsh	-11.9406
sday	-11.9407
24	-11.9409
ré	-11.941
▁columnist	-11.9415
▁Sud	-11.9416
▁Clyde	-11.9423
▁Observatory	-11.9423
▁vein	-11.9425
▁missionaries	-11.9427
▁Factor	-11.9427
▁fix	-11.9429
▁Breed	-11.943
▁interven	-11.9431
▁footballer	-11.9431
ware	-11.9433
▁Memphi	-11.9436
▁supreme	-11.9436
▁Casino	-11.9437
▁microphone	-11.9437
▁Weston	-11.9439
ocene	-11.944
stock	-11.944
▁Lt	-11.944
▁Ibn	-11.9441
▁choreography	-11.9441
▁patche	-11.9442
cia	-11.9445
▁Ze	-11.9446
▁Massa	-11.9446
▁cruis	-11.9446
▁Color	-11.9447
▁142	-11.9448
▁Experience	-11.9449
▁mascot	-11.9449
▁outskirt	-11.9449
▁contaminat	-11.945
▁furious	-11.945
▁stronghold	-11.945
▁Meg	-11.9451
▁wetland	-11.9451
ail	-11.9453
▁holy	-11.9455
gau	-11.9455
▁Cool	-11.9455
wide	-11.9456
bre	-11.9456
▁McG	-11.9457
▁marching	-11.9461
▁nave	-11.9463
▁authoris	-11.9464
▁canyon	-11.9464
▁oval	-11.9466
▁indie	-11.9467
▁Neville	-11.9469
▁850	-11.9473
▁ignore	-11.9475
▁Tuesday	-11.9476
▁Stra	-11.9476
CA	-11.9477
▁hotels	-11.9477
▁Iranian	-11.9478
▁Course	-11.948
▁consoles	-11.948
▁Landing	-11.948
▁Relations	-11.9484
▁repuls	-11.9488
▁allegiance	-11.9489
▁ROK	-11.9489
▁passionate	-11.9489
▁1794	-11.949
▁1809	-11.9491
agh	-11.9491
▁Bru	-11.9491
▁outage	-11.9491
oz	-11.9493
▁baptism	-11.9494
▁enjoyable	-11.9495
▁Shankar	-11.9496
▁eruptions	-11.9498
▁propell	-11.9499
▁revive	-11.95
▁Einstein	-11.9502
▁Commerce	-11.9502
▁Randall	-11.9502
▁Platinum	-11.9502
▁235	-11.9503
▁1798	-11.9503
▁Stanton	-11.9505
▁commissioner	-11.9506
▁mandate	-11.951
▁Seventh	-11.9511
▁dislike	-11.9512
llen	-11.9513
▁mounting	-11.9514
▁Influence	-11.9515
▁Venetian	-11.9515
▁practitioner	-11.9515
▁infinite	-11.9515
▁Smyth	-11.9515
▁interception	-11.9516
▁penetrate	-11.9516
▁parachute	-11.952
▁diocese	-11.9522
▁reissue	-11.9523
▁Levine	-11.9524
▁facts	-11.9526
hPa	-11.9527
▁Revival	-11.9528
▁Financial	-11.9528
▁Madras	-11.9528
▁Tudor	-11.9528
▁Mariah	-11.9529
▁Promotion	-11.9529
▁probable	-11.9531
▁Extra	-11.9531
▁Rotten	-11.9532
▁defendant	-11.9532
▁teen	-11.9534
▁Mitch	-11.9534
▁infra	-11.9535
▁Combined	-11.9535
▁Heroes	-11.9537
ating	-11.954
▁SK	-11.9542
▁sophomore	-11.9542
13	-11.9544
▁pig	-11.9547
▁Gaming	-11.9548
▁Acros	-11.9552
▁guess	-11.9554
▁primate	-11.9555
▁upstream	-11.9556
▁Frost	-11.9556
▁Pay	-11.9559
▁Nero	-11.956
▁downward	-11.9562
▁Bud	-11.9562
illo	-11.9563
▁fiber	-11.9568
▁temperate	-11.9568
log	-11.9569
▁Alexandra	-11.9571
▁kidnapp	-11.9571
▁380	-11.9572
▁Dayton	-11.9573
▁Kon	-11.9574
▁coincide	-11.9574
▁Whig	-11.9575
▁Factory	-11.9578
▁Tha	-11.9578
▁Agriculture	-11.9581
▁Illustrated	-11.9581
▁magistrate	-11.9581
▁problematic	-11.9581
▁Mickey	-11.9581
▁Hits	-11.9582
▁aims	-11.9583
kill	-11.9584
▁Tal	-11.9585
▁stemm	-11.9585
▁bare	-11.9587
▁Godwin	-11.9594
▁Bismarck	-11.9594
▁pseudonym	-11.9594
▁dissolution	-11.9594
▁Habsburg	-11.9594
▁cylindrical	-11.9594
▁Restoration	-11.9594
▁boycott	-11.9594
▁Vermont	-11.9594
some	-11.9595
▁Earp	-11.9595
▁Broken	-11.9597
▁scripts	-11.9599
win	-11.96
▁Farmer	-11.9604
▁Fer	-11.9604
▁Moffat	-11.9607
▁slender	-11.9607
▁coffin	-11.9607
▁barrage	-11.9608
▁Barack	-11.9608
▁bind	-11.961
▁Ashe	-11.9615
▁Marion	-11.9615
▁lyric	-11.9618
ping	-11.962
▁prolific	-11.962
▁prevalent	-11.9621
len	-11.9621
nthology	-11.9622
▁geological	-11.9622
▁stallion	-11.9622
matic	-11.9623
▁Rivera	-11.9626
wards	-11.9627
▁dish	-11.9628
▁Dal	-11.963
▁astronaut	-11.9634
▁Sarawak	-11.9634
▁boring	-11.9634
▁postseason	-11.9634
owski	-11.9637
▁monk	-11.9638
▁Erle	-11.9639
hin	-11.9639
▁acquir	-11.964
etti	-11.9641
▁cry	-11.9642
▁Producer	-11.9642
▁Doom	-11.9643
▁Greenland	-11.9643
▁necessitat	-11.9645
▁Alec	-11.9646
▁slogan	-11.9647
▁grammar	-11.9647
▁painful	-11.9648
▁classroom	-11.9649
▁Rand	-11.965
▁monopol	-11.9652
amo	-11.9653
▁Hasset	-11.9654
oka	-11.9656
▁beak	-11.9658
▁Kre	-11.9659
▁incarnation	-11.966
▁Holiday	-11.966
▁plateau	-11.9665
▁Lana	-11.9668
▁Chambers	-11.9668
▁chronicler	-11.9673
▁psychedelic	-11.9674
▁Tho	-11.9674
▁Harald	-11.9674
▁Wilde	-11.9675
▁Pakistani	-11.9678
pha	-11.968
▁fringe	-11.9681
▁devotion	-11.9683
▁Workers	-11.9684
▁Batista	-11.9687
▁forbidden	-11.9687
▁emergence	-11.9689
▁Locat	-11.969
▁entertain	-11.9691
▁Lyrical	-11.9693
▁Barker	-11.9693
▁associations	-11.9694
▁Fre	-11.9694
▁Tea	-11.9695
▁Clarence	-11.97
▁Sta	-11.9708
▁Luther	-11.9712
▁archipelago	-11.9713
cio	-11.9714
▁clue	-11.9715
▁Gale	-11.9718
▁Gibbs	-11.9718
▁Albania	-11.9719
▁1819	-11.9719
▁Sci	-11.9724
▁Walton	-11.9724
▁beneficial	-11.9727
▁Rainbow	-11.9727
▁Highland	-11.9728
▁Describ	-11.9728
▁outpost	-11.9729
45	-11.9731
▁Im	-11.9732
▁critique	-11.9736
▁Slam	-11.9736
▁lo	-11.9737
▁marginal	-11.9738
▁spear	-11.974
▁oxidation	-11.974
▁unfinished	-11.974
▁cartridge	-11.974
▁Vin	-11.9743
ein	-11.9743
▁prescrib	-11.9744
▁1814	-11.9745
▁gentle	-11.9745
▁manifest	-11.9746
▁bug	-11.9749
▁repris	-11.9749
▁outnumber	-11.9754
▁Vulcan	-11.9754
▁Facebook	-11.9754
▁ecclesiastical	-11.9755
shima	-11.9755
▁disappearance	-11.9756
aga	-11.9761
▁terminate	-11.9762
▁Devils	-11.9763
▁loans	-11.9766
▁survives	-11.9767
▁obsolete	-11.9767
▁205	-11.9767
▁clearance	-11.9769
▁Rita	-11.9769
tail	-11.9775
▁Lakers	-11.9779
▁Cunningham	-11.9781
▁vitamin	-11.9781
▁civic	-11.9781
iva	-11.9781
▁Jenny	-11.9781
▁spokesman	-11.9781
▁HV	-11.9782
81	-11.9783
smith	-11.9785
▁Oldham	-11.9787
▁Ming	-11.9787
▁pope	-11.9788
▁tragic	-11.9794
▁wheat	-11.9794
▁crude	-11.9799
▁fairy	-11.9805
▁Amsterdam	-11.9808
▁Ronnie	-11.9808
▁Period	-11.9809
▁basal	-11.981
▁customer	-11.981
▁justify	-11.9811
▁migrat	-11.9813
▁staging	-11.9815
▁Sparta	-11.9821
▁Bryant	-11.9822
dia	-11.9822
▁Lester	-11.9824
▁Pond	-11.9825
▁portal	-11.9826
chy	-11.9827
▁Au	-11.9829
▁Tide	-11.983
▁Goldman	-11.9831
▁Bou	-11.9832
▁BL	-11.9834
▁sixteenth	-11.9834
▁heel	-11.9834
▁favourabl	-11.9835
ED	-11.9835
hen	-11.9835
▁screenwriter	-11.9837
▁1793	-11.9838
ST	-11.9839
▁NHC	-11.984
▁underway	-11.9844
esh	-11.9845
▁iPad	-11.9848
▁drastic	-11.9848
▁Rebellion	-11.9848
▁fumble	-11.9848
▁barbette	-11.9848
▁conven	-11.9849
▁princess	-11.985
▁complications	-11.9851
▁Wo	-11.9854
▁retailer	-11.9854
oa	-11.9856
▁builder	-11.9859
ction	-11.9861
▁hazard	-11.9861
▁225	-11.9861
▁Shirley	-11.9862
▁Thomson	-11.9862
▁Taunton	-11.9863
▁Audio	-11.9866
stad	-11.9866
▁Lab	-11.9869
▁norm	-11.9872
▁puts	-11.9873
▁Erik	-11.9873
▁Everglade	-11.9875
▁Rebecca	-11.9875
▁AS	-11.9877
▁Hole	-11.9877
▁trustees	-11.9877
▁Geneva	-11.988
▁swimmer	-11.9884
▁Rodgers	-11.9885
▁Bee	-11.9887
court	-11.9887
▁aggression	-11.9889
▁screw	-11.9889
▁Congressional	-11.9889
▁Cartman	-11.989
▁Title	-11.9891
▁VHS	-11.9892
▁173	-11.9892
▁1810	-11.9894
▁overlapp	-11.9897
▁violin	-11.9899
▁taxi	-11.9901
▁App	-11.9902
old	-11.9903
▁identifie	-11.9903
▁MW	-11.9906
▁files	-11.9906
▁broadcaster	-11.9907
▁flexibl	-11.9908
wing	-11.9909
world	-11.9911
▁wool	-11.9913
reafter	-11.9914
▁tiger	-11.9915
▁Leafs	-11.9916
▁Salvador	-11.9916
▁illusion	-11.9916
ras	-11.9917
▁canvas	-11.9917
▁elementar	-11.9918
▁anticipation	-11.9919
▁pile	-11.9921
lle	-11.9923
▁Peggy	-11.9924
▁witch	-11.9924
▁Def	-11.9925
▁crab	-11.9926
▁bail	-11.9928
▁Dominion	-11.993
▁Trouble	-11.993
▁Reporter	-11.9931
▁cope	-11.9935
▁Path	-11.9935
▁Crow	-11.9938
▁inhibit	-11.9938
front	-11.9939
▁Bruno	-11.9942
▁Olivier	-11.9944
▁Resolution	-11.9944
▁Colony	-11.9944
▁Dorset	-11.9947
▁cater	-11.9948
▁amass	-11.995
▁bite	-11.9951
▁lots	-11.9952
▁Queens	-11.9956
▁Andre	-11.9956
yu	-11.9957
▁Flotilla	-11.9957
▁conscience	-11.9957
▁Dickinson	-11.9957
▁redevelopment	-11.9958
▁axe	-11.9959
▁1775	-11.9959
chester	-11.9962
▁Rockets	-11.9962
▁digitally	-11.9962
▁Gillian	-11.9962
▁Ebert	-11.9963
aro	-11.9965
▁Image	-11.9965
▁Concern	-11.9966
▁fabric	-11.9968
▁disguise	-11.9969
▁euro	-11.997
▁contender	-11.997
▁fixture	-11.997
▁bulb	-11.9971
▁Fitzgerald	-11.9971
▁feast	-11.9971
▁Borneo	-11.9971
▁Nuclear	-11.9971
▁Bre	-11.9973
▁downgrad	-11.9975
▁linguistic	-11.9979
▁execute	-11.9979
▁midfielder	-11.998
▁Romeo	-11.998
▁await	-11.9982
bon	-11.9983
▁Vic	-11.9984
▁Lindsay	-11.9985
▁Murder	-11.9985
▁endorsement	-11.9985
▁Ernst	-11.9986
▁lateral	-11.9986
▁traffick	-11.9989
▁Bla	-11.999
mul	-11.9992
▁fisher	-11.9994
▁Ono	-11.9996
▁Sophia	-11.9996
▁Mini	-11.9997
▁Himmler	-11.9998
▁Literature	-11.9998
▁Naples	-11.9998
▁Operational	-11.9999
▁Everett	-12
▁necessit	-12
uf	-12.0002
▁Rep	-12.0002
▁Cell	-12.0009
ug	-12.001
▁referenc	-12.001
▁Comet	-12.0011
rought	-12.0011
▁Relief	-12.0012
▁adjoin	-12.0012
▁Climate	-12.0012
▁Census	-12.0012
▁addiction	-12.0013
▁rallie	-12.0015
▁dishe	-12.0016
▁Dirt	-12.0018
sworth	-12.0019
▁Brest	-12.0021
fu	-12.0023
▁Veteran	-12.0026
▁Medieval	-12.0026
▁fauna	-12.0026
▁keel	-12.0028
▁Payne	-12.0028
▁numerical	-12.0033
▁graves	-12.0034
▁confession	-12.0036
▁IOC	-12.0036
▁Sign	-12.0037
rn	-12.0038
▁Pioneer	-12.004
▁Marlborough	-12.004
itz	-12.004
▁Fortress	-12.0041
▁constraints	-12.0042
▁Satan	-12.0043
▁bodi	-12.0044
written	-12.0049
▁Taking	-12.0053
▁staircase	-12.0054
lsewhere	-12.0054
▁passive	-12.0054
▁Picard	-12.0055
▁Wilkinson	-12.0055
▁counts	-12.0057
▁offend	-12.0057
▁truce	-12.0058
▁distribute	-12.0058
▁cooperative	-12.0059
▁Hornet	-12.006
▁clips	-12.0061
▁Systems	-12.0065
▁refrain	-12.0068
▁Timoth	-12.007
▁Aston	-12.007
▁deepen	-12.0071
▁Notre	-12.0071
▁facto	-12.0072
▁dismantl	-12.0074
▁Deal	-12.0074
▁Teen	-12.0079
▁eccentric	-12.0079
▁clinic	-12.008
▁Freeman	-12.0081
▁disadvantage	-12.0081
▁Canning	-12.0082
▁McCoy	-12.0085
▁1500	-12.0086
lt	-12.0088
▁Stark	-12.0091
▁verb	-12.0095
point	-12.0095
▁repertoire	-12.0095
▁Clifton	-12.0095
▁Milwaukee	-12.0095
▁implied	-12.0095
vik	-12.0098
▁Theme	-12.01
force	-12.0102
▁Aid	-12.0102
▁chloride	-12.0106
▁Santiag	-12.0107
▁progresses	-12.0108
▁Driver	-12.0109
▁pivot	-12.0109
▁licence	-12.0109
▁Certain	-12.0109
▁Creation	-12.0111
▁1792	-12.0112
▁disruption	-12.0112
▁Tru	-12.0113
▁Kaz	-12.0116
.1	-12.0118
fold	-12.012
▁midst	-12.012
Cube	-12.0121
▁continuity	-12.0121
▁Tracks	-12.0121
▁Brussels	-12.0123
▁McClellan	-12.0123
▁vaccine	-12.0123
▁casino	-12.0123
▁sermon	-12.0123
▁comedic	-12.0123
▁guideline	-12.0125
▁Sons	-12.0125
▁shy	-12.0126
▁Ned	-12.0126
▁Ari	-12.0128
▁nights	-12.0128
▁Wide	-12.0128
▁redesignat	-12.0129
▁railways	-12.0129
▁Compar	-12.013
▁Royalist	-12.0132
▁Moses	-12.0133
▁asserts	-12.0133
chan	-12.0134
▁Cumberland	-12.0137
▁Legislature	-12.0137
▁PopMatters	-12.0137
▁iOS	-12.0137
▁Ah	-12.0145
▁ego	-12.0146
▁clients	-12.0149
▁Moe	-12.015
▁envoy	-12.0151
▁sighting	-12.0154
▁halls	-12.0155
▁earl	-12.0158
▁Tro	-12.0159
▁Yes	-12.0161
▁ITV	-12.0165
▁piercing	-12.0165
alagasy	-12.0166
▁seventeenth	-12.0166
▁approve	-12.0166
▁parasites	-12.0167
▁Outer	-12.0168
▁mortal	-12.0169
▁catcher	-12.0169
▁gal	-12.017
▁Priv	-12.0172
uda	-12.0172
tsu	-12.0173
▁warship	-12.0175
▁markings	-12.0176
▁embedded	-12.0179
▁epidemic	-12.0179
▁Okinawa	-12.0179
▁Avatar	-12.0179
▁Beaver	-12.0179
▁Chaplin	-12.0179
▁firearm	-12.018
▁Alt	-12.018
▁frog	-12.0185
▁Poor	-12.0185
▁133	-12.0187
▁Pol	-12.0188
▁Till	-12.019
▁hierarch	-12.0192
▁lip	-12.0192
▁synagogue	-12.0193
▁scuttl	-12.0193
▁sneak	-12.0193
▁spill	-12.0193
▁asylum	-12.0193
▁Yoko	-12.0194
▁Fowler	-12.0194
▁Wenger	-12.0195
▁poles	-12.0195
ES	-12.0198
▁explode	-12.0198
Software	-12.0199
▁Braves	-12.02
▁Analysi	-12.02
▁Marty	-12.0202
▁renovat	-12.0204
▁Lev	-12.0205
▁advent	-12.0207
▁Chance	-12.0208
▁Word	-12.0209
▁bush	-12.021
▁Dai	-12.021
▁reel	-12.0211
▁nineteen	-12.0211
▁Pluto	-12.0212
▁bra	-12.0216
▁attacker	-12.0216
▁governmental	-12.0217
▁Bench	-12.022
▁Cromwell	-12.0221
▁fraction	-12.0222
▁deserve	-12.0222
▁Cro	-12.0225
▁Biden	-12.0225
▁dirt	-12.0226
lat	-12.0227
▁Nat	-12.0227
▁lent	-12.0227
▁slaughter	-12.0228
pper	-12.0229
▁Strange	-12.0232
▁epithet	-12.0235
▁vague	-12.0235
▁appealing	-12.0236
▁paths	-12.0237
▁inheritance	-12.0237
berry	-12.0238
▁Pound	-12.0238
kel	-12.0239
▁inhibitor	-12.024
▁storyboard	-12.024
▁Cambodia	-12.024
▁Honours	-12.0241
39	-12.0244
game	-12.0244
▁ceramic	-12.0249
▁psychology	-12.0249
▁breakaway	-12.025
▁touching	-12.0251
▁demise	-12.0251
▁skier	-12.0251
▁1789	-12.0252
berht	-12.0253
▁Writer	-12.0258
▁168	-12.0259
▁selective	-12.026
▁composite	-12.026
▁stylistic	-12.0263
▁Chopra	-12.0264
▁Minaj	-12.0264
▁Clayton	-12.0265
▁exceptions	-12.0266
▁equation	-12.0272
▁ram	-12.0273
▁1804	-12.0273
▁136	-12.0275
▁stationary	-12.0276
▁Keys	-12.0278
▁prestig	-12.0278
▁sperm	-12.0278
▁Search	-12.0278
▁Nasser	-12.0278
▁feather	-12.0279
▁devil	-12.0279
▁confirmation	-12.028
series	-12.0282
▁Dreams	-12.0282
▁atom	-12.0287
▁pigment	-12.0291
▁monetar	-12.0292
▁blew	-12.0292
▁Advanc	-12.0292
▁1824	-12.0295
▁petrol	-12.0298
lit	-12.0299
jan	-12.0302
▁pressing	-12.0306
▁emblem	-12.0306
▁Majesty	-12.0306
▁suspicious	-12.0306
▁Paradis	-12.0306
vic	-12.0307
▁interfer	-12.0308
▁1825	-12.0309
ević	-12.0311
▁rigid	-12.0311
▁mates	-12.0316
dez	-12.0319
57	-12.032
▁Davenport	-12.032
▁Prague	-12.032
▁rehabilitation	-12.032
▁Lionel	-12.0321
hole	-12.0321
▁1795	-12.0323
▁Kat	-12.0324
▁Charleston	-12.0327
▁Benson	-12.0328
▁Cow	-12.0329
▁fox	-12.0329
active	-12.0333
▁Corn	-12.0333
▁harass	-12.0334
▁Saffir	-12.0335
dra	-12.0336
▁Savoy	-12.0337
▁Kam	-12.0339
▁discusse	-12.0347
▁Irene	-12.0349
▁Terra	-12.035
tia	-12.035
▁mason	-12.0351
▁outlin	-12.0353
▁Klein	-12.0353
▁Bacon	-12.0353
▁Ain	-12.0355
▁Crew	-12.0356
▁managers	-12.0356
▁healing	-12.0358
▁Tate	-12.0359
▁Antoine	-12.0363
▁Example	-12.0363
▁detention	-12.0363
▁Talbot	-12.0363
▁burrow	-12.0363
▁probabilit	-12.0363
▁Gra	-12.0364
▁Vickers	-12.0365
▁Brain	-12.0368
▁Ye	-12.0376
▁clinch	-12.0377
▁matrix	-12.0378
▁Zack	-12.0379
▁mural	-12.038
▁Eurasian	-12.038
nmi	-12.0384
▁exchang	-12.0387
ret	-12.0388
eta	-12.0388
▁smash	-12.039
▁Ker	-12.0391
▁tenor	-12.0392
▁surveillance	-12.0392
▁Reverend	-12.0392
▁spectral	-12.0392
▁excavations	-12.0392
▁dictator	-12.0394
▁Rising	-12.0394
phi	-12.0394
▁initiate	-12.0395
▁outlaw	-12.0398
▁phenomena	-12.0399
▁Komba	-12.0399
int	-12.0399
▁Colombia	-12.04
▁AR	-12.0402
die	-12.0403
zy	-12.0404
▁exaggerated	-12.0405
▁defendants	-12.0406
▁shifting	-12.0406
▁Material	-12.0407
▁Monkey	-12.0407
▁Totten	-12.0407
▁Lakes	-12.0409
▁1797	-12.0409
▁1821	-12.0409
▁assassin	-12.0411
▁Quick	-12.0411
▁cartoons	-12.0411
▁daylight	-12.0412
▁Mets	-12.0414
▁Kind	-12.0416
▁expose	-12.0417
▁depos	-12.042
▁MacDonald	-12.042
▁resonance	-12.042
▁tumor	-12.042
▁Ac	-12.042
▁astronomers	-12.0421
▁1805	-12.0423
▁prohibition	-12.0423
icus	-12.0424
▁setback	-12.0428
25	-12.0429
▁pits	-12.0431
CLC	-12.0432
▁Zimbabwe	-12.0433
▁headquarter	-12.0433
▁leisure	-12.0435
▁Kanye	-12.0435
▁Groves	-12.0435
▁Hamlet	-12.0435
▁ordering	-12.0439
▁satisfying	-12.0439
▁Saga	-12.044
▁Casey	-12.0441
▁butterfly	-12.0441
▁Helena	-12.0444
zhou	-12.0446
▁Scouts	-12.0448
▁Enter	-12.0448
▁Cop	-12.0448
▁niche	-12.0449
▁recycl	-12.0449
▁starv	-12.0449
▁Colonial	-12.0449
▁1780	-12.045
▁folklore	-12.0451
▁mandator	-12.0454
ute	-12.0454
▁Mona	-12.0454
▁Buffy	-12.0455
SU	-12.0455
▁Wheel	-12.0456
▁Lars	-12.0456
60	-12.046
▁provok	-12.046
▁teachings	-12.046
▁turtle	-12.0463
▁215	-12.0463
▁ambulance	-12.0463
▁Nadu	-12.0464
▁plague	-12.0465
▁Maha	-12.0466
▁Boom	-12.0467
▁Highlands	-12.047
▁evolve	-12.0472
▁340	-12.0473
teau	-12.0475
▁pronunciation	-12.0478
▁noir	-12.0478
▁spelling	-12.0479
UP	-12.0482
▁Belt	-12.0483
▁Cartoon	-12.0489
▁Pratt	-12.0489
▁Witch	-12.0489
▁Kenya	-12.0491
▁tips	-12.0492
▁flotilla	-12.0492
▁Townsend	-12.0492
▁boards	-12.0493
▁kickoff	-12.0493
▁provisional	-12.0496
▁Males	-12.0502
▁Paralympics	-12.0504
▁logic	-12.0505
▁racis	-12.0505
▁Groening	-12.0507
▁Titanic	-12.0511
▁Luz	-12.0511
nne	-12.0512
▁Bonnie	-12.0513
bro	-12.0514
▁134	-12.0515
▁truncat	-12.052
▁Griffith	-12.0521
▁Malvern	-12.0521
▁ridiculous	-12.0521
SA	-12.0522
▁simulation	-12.0522
mic	-12.0522
▁worm	-12.0523
▁Romantic	-12.0525
▁uncomfortable	-12.0526
▁Direction	-12.0528
▁productive	-12.0531
IC	-12.0531
▁Matthews	-12.0531
cap	-12.0534
▁Coming	-12.0534
▁Criminal	-12.0536
▁transaction	-12.0536
▁generals	-12.0537
▁Investigation	-12.0537
▁Hogan	-12.0537
▁Mao	-12.0538
▁memorials	-12.0539
▁fingers	-12.0543
▁milestone	-12.0543
▁Dub	-12.0543
▁Vaugh	-12.0544
▁Few	-12.0546
▁soprano	-12.055
▁Rookie	-12.0552
▁Fellow	-12.0552
▁Silva	-12.0552
▁anxiety	-12.0554
▁accordan	-12.0556
▁hack	-12.0556
▁Zu	-12.0557
▁Save	-12.0558
▁rats	-12.0561
ood	-12.0563
▁Suffolk	-12.0565
▁Jarrett	-12.0565
▁151	-12.0566
▁Commando	-12.0571
▁Mae	-12.0571
▁Dodd	-12.0578
▁astronomical	-12.0579
▁financing	-12.0579
▁nightclub	-12.058
▁congestion	-12.058
▁Antioch	-12.058
▁Paralympic	-12.0583
▁148	-12.0583
▁Matsu	-12.0584
▁HBO	-12.0585
▁Multiple	-12.0585
bus	-12.0587
▁malaria	-12.0587
▁please	-12.059
▁spar	-12.0591
▁Sanders	-12.0591
▁Nico	-12.0591
▁glaciers	-12.0593
▁indefinite	-12.0594
▁Mauritius	-12.0594
▁loving	-12.0594
▁Luc	-12.0595
cast	-12.0596
life	-12.0597
▁Exit	-12.0597
▁raven	-12.0599
▁crust	-12.0601
▁Finance	-12.0601
▁reunite	-12.0604
▁Sally	-12.0606
▁Change	-12.0608
▁parrot	-12.0609
▁Sakura	-12.0609
card	-12.061
▁questioning	-12.0611
▁theft	-12.0612
▁Hon	-12.0613
▁Pick	-12.0614
▁ascent	-12.062
▁Plans	-12.062
▁editors	-12.0622
▁Manitoba	-12.0623
▁accolade	-12.0623
▁applaud	-12.0623
▁Patterson	-12.0623
▁Mara	-12.0624
▁raider	-12.0625
unt	-12.0626
▁sighted	-12.0626
OR	-12.0627
▁sleeve	-12.0627
▁Chlo	-12.0629
▁147	-12.063
▁tram	-12.0635
▁shapes	-12.0636
▁logical	-12.0637
▁commuter	-12.0637
▁Crime	-12.0637
▁Glastonbury	-12.0638
▁bachelor	-12.0638
▁Jaguar	-12.0638
▁Coal	-12.0638
▁viewership	-12.0639
church	-12.0639
▁Stevenson	-12.0639
▁Rowland	-12.0639
▁Wan	-12.0641
▁Pix	-12.0641
org	-12.0645
▁vertebrae	-12.0645
MA	-12.0648
▁undefeated	-12.0653
▁Nassau	-12.0653
▁angular	-12.0653
▁Kylie	-12.0653
▁reproduce	-12.0653
▁Hour	-12.0655
▁rid	-12.0661
▁Mormon	-12.0661
▁Keep	-12.0663
wear	-12.0663
▁Role	-12.0665
▁plat	-12.0667
▁enclosure	-12.0668
▁degenerat	-12.0668
▁Rumble	-12.0668
▁evaluat	-12.0669
tum	-12.0671
▁Moss	-12.0673
▁Por	-12.0675
▁Sava	-12.0676
▁trauma	-12.0682
▁alternating	-12.0682
▁decreasing	-12.0682
▁mistress	-12.0682
▁sponsorship	-12.0683
▁Sabre	-12.0684
▁Milo	-12.0686
dell	-12.0691
▁Casa	-12.0691
▁Inner	-12.0694
65	-12.0694
▁apprentice	-12.0696
▁Honduras	-12.0697
▁Barn	-12.0698
▁3000	-12.0699
▁advise	-12.07
▁overhead	-12.0703
▁discharg	-12.0706
▁Lyon	-12.0707
▁Potomac	-12.0712
▁parameter	-12.0712
▁Rodriguez	-12.0712
▁Lowe	-12.0713
▁skat	-12.0716
▁Brady	-12.0717
1806	-12.0718
44	-12.0718
▁derivative	-12.0719
▁spine	-12.072
▁ta	-12.0722
▁Cope	-12.0723
▁anyway	-12.0723
▁warming	-12.0724
▁geographic	-12.0724
▁610	-12.0724
▁Niagara	-12.0726
▁Bollywood	-12.0726
gle	-12.0733
▁Georg	-12.0734
gonna	-12.0735
▁Shell	-12.0736
▁illustration	-12.0737
sdale	-12.074
▁Scream	-12.0741
▁gradient	-12.0741
▁sporadic	-12.0741
▁Garrett	-12.0742
▁freighter	-12.0744
▁traders	-12.0744
▁Rex	-12.0748
rak	-12.0749
▁Pepper	-12.0749
etic	-12.0753
▁Katherine	-12.0756
▁Summit	-12.0756
▁Fritz	-12.0756
selves	-12.0756
▁chords	-12.0762
796	-12.0769
▁tolerance	-12.0771
▁Uncle	-12.0772
▁decorative	-12.0772
▁Eliot	-12.0772
▁Holt	-12.0774
▁Scheer	-12.0777
▁outright	-12.0779
ice	-12.0781
▁capp	-12.0782
▁lowland	-12.0784
▁essence	-12.0786
▁salmon	-12.0786
▁Epstein	-12.0786
bb	-12.0787
▁cultivation	-12.0787
▁Letters	-12.0789
▁Ranger	-12.0792
▁Alamos	-12.0792
▁Fil	-12.0797
▁plent	-12.0798
▁Dry	-12.08
▁Hemisphere	-12.0801
▁Perhap	-12.0801
▁Interactive	-12.0801
▁diversion	-12.0801
▁telegraph	-12.0803
▁ethanol	-12.0804
▁consum	-12.081
union	-12.081
▁290	-12.0811
tta	-12.0813
▁Version	-12.0816
▁excitement	-12.0816
▁Loop	-12.0819
▁Goes	-12.0819
▁Wigan	-12.082
▁Herman	-12.082
▁Higgins	-12.0822
▁Vette	-12.0823
▁Que	-12.0824
▁expresse	-12.0824
▁Berger	-12.0826
▁inject	-12.083
▁Wessex	-12.083
▁Oswald	-12.0831
▁Reaction	-12.0831
▁Kawa	-12.0831
▁satirical	-12.0832
▁Byrne	-12.0833
▁149	-12.0836
▁Orion	-12.0837
▁139	-12.0839
hal	-12.084
▁Loch	-12.084
▁assumption	-12.0841
▁syndicate	-12.0845
▁Phelps	-12.0845
▁generous	-12.0846
aria	-12.0846
▁Blind	-12.0846
pending	-12.0846
▁275	-12.0846
▁retract	-12.085
▁planetar	-12.0855
▁pa	-12.0856
etta	-12.0857
▁Doll	-12.0858
▁Kha	-12.086
▁yourself	-12.0861
▁Lat	-12.0862
▁deplet	-12.0862
▁fracture	-12.0863
▁Wei	-12.0867
▁Byron	-12.0867
zh	-12.0868
cor	-12.087
thi	-12.0871
▁Nina	-12.0873
▁Bomber	-12.0875
▁Twelve	-12.0875
▁inconsistent	-12.0875
▁voltage	-12.0876
▁Calais	-12.0876
▁Above	-12.0876
▁Themes	-12.0879
▁brave	-12.088
▁Ir	-12.0881
▁1834	-12.0883
▁Micro	-12.0886
▁activate	-12.0886
▁premature	-12.089
▁impedance	-12.0891
▁Neal	-12.0892
▁manoeuvre	-12.0894
▁regulate	-12.0894
pre	-12.0895
▁Cur	-12.0896
▁app	-12.0898
▁fade	-12.0899
▁Timor	-12.09
oro	-12.0901
selling	-12.0901
Tomatoes	-12.0901
▁Miz	-12.0902
▁Gamer	-12.0902
▁Cruise	-12.0903
▁volunteered	-12.0903
lor	-12.0905
▁Ambrose	-12.0906
▁Remember	-12.0906
gel	-12.0906
▁commemorative	-12.0906
▁Bedford	-12.0906
▁sur	-12.0911
▁Lil	-12.0913
▁smuggl	-12.0917
▁demons	-12.0918
ía	-12.0918
▁prejudice	-12.0921
▁disarm	-12.0921
▁Gandhi	-12.0921
▁Internal	-12.0921
▁Crowley	-12.0921
▁Reformation	-12.0923
▁nuclei	-12.0924
▁Sing	-12.0926
▁traverse	-12.0929
▁Fry	-12.093
▁debates	-12.0932
▁stamp	-12.0933
▁Appeal	-12.0934
▁Vampire	-12.0936
▁Circus	-12.0936
▁Garcia	-12.0936
▁letting	-12.0937
▁freshwater	-12.0937
▁theology	-12.0938
away	-12.0939
▁Belfa	-12.0939
▁Carlis	-12.094
▁Amin	-12.0946
▁Phillip	-12.0948
▁bolster	-12.0951
▁compatible	-12.0951
▁excavation	-12.0951
▁loris	-12.0951
▁preseason	-12.0951
▁hammer	-12.0952
▁hiring	-12.0953
▁republican	-12.0954
▁cake	-12.0954
▁committees	-12.0957
▁Ely	-12.0958
▁draught	-12.0959
▁Spartan	-12.0961
[...]
