<unk>	0
<s>	0
</s>	0
▁the	-3.0614
▁,	-3.18523
s	-3.49682
▁.	-3.50007
▁of	-3.78067
▁and	-3.87289
ed	-3.96909
▁to	-4.09771
▁in	-4.12869
▁a	-4.19716
▁=	-4.40578
▁"	-4.49782
▁was	-4.71226
@	-4.74212
▁@	-4.75715
▁'	-4.84069
▁	-4.86841
-	-4.89466
ing	-4.89621
▁The	-4.93238
▁on	-5.15032
▁for	-5.16433
▁that	-5.17483
ly	-5.20634
▁with	-5.24386
▁as	-5.26023
▁by	-5.29694
▁)	-5.32655
▁(	-5.32715
▁is	-5.45257
y	-5.59439
.	-5.6005
▁his	-5.61669
▁from	-5.62819
▁at	-5.66364
d	-5.80962
▁were	-5.82252
▁it	-5.87703
▁he	-5.9156
▁an	-5.95
▁In	-5.98806
▁had	-6.01566
▁which	-6.07731
e	-6.11981
▁be	-6.17827
▁not	-6.37325
▁but	-6.37863
▁are	-6.38108
▁;	-6.44368
▁first	-6.44915
▁their	-6.46923
▁–	-6.47308
▁:	-6.49779
▁also	-6.50475
▁her	-6.50507
▁A	-6.51734
▁or	-6.56162
▁who	-6.56865
▁one	-6.58705
▁its	-6.5922
t	-6.59287
▁have	-6.59558
er	-6.63183
▁two	-6.64043
▁He	-6.64955
▁been	-6.67198
▁has	-6.67231
▁I	-6.6871
▁@,@	-6.69128
▁this	-6.7151
▁after	-6.81958
▁time	-6.82951
▁1	-6.83527
th	-6.83683
▁would	-6.84881
n	-6.86648
▁It	-6.8697
▁into	-6.88085
▁other	-6.90019
a	-6.91725
▁they	-6.95511
▁over	-6.98192
▁more	-6.99284
es	-7.02329
▁2	-7.04055
▁when	-7.06233
▁she	-7.06337
▁all	-7.07263
▁him	-7.09262
▁up	-7.10559
▁during	-7.12797
▁out	-7.13117
▁most	-7.14838
▁3	-7.1646
▁game	-7.16582
▁On	-7.17364
▁film	-7.18385
▁than	-7.19425
▁about	-7.19447
▁only	-7.19737
▁between	-7.21599
o	-7.21959
▁later	-7.22458
▁three	-7.22736
▁new	-7.23356
▁while	-7.27039
▁5	-7.30597
▁made	-7.33945
▁season	-7.35158
▁where	-7.35392
▁New	-7.35988
▁4	-7.36579
▁000	-7.36794
▁some	-7.36873
▁such	-7.37728
▁year	-7.38049
▁before	-7.39093
▁second	-7.42687
▁This	-7.42987
▁/	-7.43062
▁years	-7.45362
▁used	-7.45857
▁under	-7.47631
▁part	-7.47974
▁them	-7.48275
▁being	-7.48719
▁number	-7.48784
▁through	-7.49608
▁against	-7.50253
▁album	-7.50372
▁song	-7.50819
▁became	-7.54051
▁can	-7.54057
▁including	-7.55288
▁—	-7.55342
▁no	-7.55793
▁United	-7.56446
▁well	-7.56697
▁both	-7.57138
▁After	-7.57432
▁there	-7.57722
▁then	-7.57808
▁series	-7.58256
▁6	-7.59666
▁team	-7.60486
i	-7.61118
m	-7.61924
▁10	-7.6263
▁so	-7.62814
▁B	-7.62979
▁episode	-7.63099
▁four	-7.63316
▁American	-7.65552
▁like	-7.65941
▁D	-7.66716
▁said	-7.6681
▁work	-7.67367
▁many	-7.67404
though	-7.68343
▁several	-7.68532
▁found	-7.69017
r	-7.69605
▁known	-7.70501
▁could	-7.7074
al	-7.71121
▁did	-7.7138
▁7	-7.72321
▁return	-7.73109
on	-7.7325
▁began	-7.73299
▁As	-7.73665
▁near	-7.74198
ies	-7.74223
▁place	-7.75876
▁8	-7.76147
▁day	-7.76661
▁early	-7.76694
▁until	-7.7781
▁released	-7.77916
▁She	-7.77919
▁called	-7.78349
▁end	-7.78589
▁use	-7.78592
▁U	-7.80076
▁million	-7.80807
▁remain	-7.80943
st	-7.81157
▁At	-7.81439
▁show	-7.81721
▁along	-7.82353
▁9	-7.82818
▁British	-7.83065
us	-7.84282
▁long	-7.84981
$	-7.85207
▁C	-7.85423
▁people	-7.86746
▁original	-7.868
▁receiv	-7.87214
▁these	-7.87388
▁back	-7.87771
▁15	-7.87811
▁War	-7.8817
▁September	-7.88195
▁12	-7.88525
able	-7.8915
▁0	-7.89227
▁large	-7.89433
▁same	-7.89577
▁World	-7.89827
▁August	-7.89918
▁final	-7.89958
▁music	-7.89966
▁20	-7.90104
▁because	-7.90479
▁States	-7.90571
▁M	-7.91344
▁May	-7.91904
▁around	-7.92343
▁km	-7.92723
▁al	-7.9273
▁may	-7.92747
▁took	-7.93588
▁state	-7.94013
▁m	-7.94075
▁Al	-7.94494
▁John	-7.94614
▁S	-7.95447
▁following	-7.95467
▁off	-7.9561
▁However	-7.95756
S	-7.95841
est	-7.95991
▁October	-7.97227
▁area	-7.9805
▁any	-7.98325
▁each	-7.9949
en	-7.99783
▁life	-7.9982
▁five	-7.99833
▁main	-8.00098
▁century	-8.00428
▁lead	-8.00627
man	-8.00976
▁high	-8.01537
▁]	-8.01887
▁single	-8.02064
[	-8.02094
▁16	-8.02167
▁small	-8.0222
▁war	-8.02246
▁June	-8.0244
▁city	-8.02571
▁US	-8.03112
▁down	-8.04284
▁July	-8.04543
▁%	-8.04682
▁11	-8.04847
▁November	-8.05212
▁R	-8.05783
▁since	-8.06371
▁March	-8.06926
▁order	-8.07093
▁York	-8.07167
▁April	-8.07199
▁set	-8.0801
▁E	-8.08059
▁will	-8.08111
▁T	-8.08741
▁They	-8.09291
▁group	-8.09474
▁de	-8.09655
▁great	-8.10009
▁attack	-8.10151
▁consider	-8.10207
▁allow	-8.10525
▁what	-8.10669
▁line	-8.10766
▁left	-8.11692
▁government	-8.1221
▁During	-8.12226
▁character	-8.12364
an	-8.12557
▁last	-8.12814
▁reach	-8.1292
▁name	-8.12926
▁system	-8.12928
▁North	-8.13011
▁December	-8.13132
▁due	-8.13288
▁third	-8.13315
▁13	-8.14227
▁much	-8.14264
▁home	-8.14507
▁January	-8.14605
▁if	-8.14622
▁included	-8.14956
▁O	-8.14968
▁another	-8.14982
▁...	-8.1545
▁own	-8.15561
▁based	-8.15648
▁played	-8.15816
▁band	-8.16325
▁wrote	-8.16502
▁When	-8.16586
▁force	-8.16791
▁change	-8.16923
▁South	-8.17008
▁old	-8.17039
▁30	-8.17494
▁death	-8.17798
▁won	-8.17932
▁14	-8.18222
ers	-8.18263
▁start	-8.18524
in	-8.18563
▁un	-8.19119
▁18	-8.19252
▁six	-8.19653
▁record	-8.20381
▁short	-8.2067
▁previous	-8.21009
▁described	-8.21078
2	-8.21409
▁family	-8.21446
▁support	-8.21486
▁led	-8.21626
l	-8.21668
▁just	-8.21792
▁play	-8.21956
um	-8.22164
▁include	-8.22472
▁named	-8.22636
▁ship	-8.22894
▁17	-8.22942
ity	-8.2305
▁make	-8.23094
▁north	-8.23561
▁world	-8.23742
▁By	-8.24044
▁now	-8.24072
le	-8.24107
▁F	-8.24361
▁very	-8.26297
those	-8.2653
▁late	-8.26553
▁German	-8.26589
▁February	-8.27078
▁still	-8.27221
▁No	-8.2729
▁do	-8.27488
▁next	-8.2763
▁form	-8.27776
▁species	-8.27872
▁perform	-8.27898
▁best	-8.28054
▁men	-8.28178
▁P	-8.28211
▁release	-8.28221
▁result	-8.28261
▁video	-8.2878
▁match	-8.28856
▁St	-8.29021
ic	-8.29173
▁take	-8.29425
▁power	-8.2955
▁major	-8.29597
▁re	-8.29695
▁National	-8.29949
▁His	-8.3029
▁role	-8.30731
▁French	-8.30789
▁built	-8.30793
▁held	-8.30935
▁100	-8.3102
▁within	-8.31044
▁2010	-8.31361
ion	-8.31611
▁former	-8.31687
▁way	-8.32968
▁again	-8.3305
▁side	-8.33577
▁local	-8.33669
▁public	-8.33831
▁south	-8.33997
re	-8.34357
▁games	-8.3466
▁There	-8.35229
▁title	-8.35242
▁19	-8.35534
▁G	-8.35659
▁school	-8.36085
▁however	-8.36209
k	-8.36227
▁water	-8.36647
▁period	-8.36654
▁2008	-8.36723
▁help	-8.36853
▁even	-8.36987
▁top	-8.36993
▁2009	-8.37326
▁you	-8.37782
▁continued	-8.38684
▁2011	-8.38929
▁For	-8.38955
▁often	-8.39173
▁book	-8.39262
▁career	-8.39301
▁among	-8.39318
▁25	-8.39386
▁similar	-8.39467
▁follow	-8.39517
▁came	-8.39912
▁days	-8.40128
▁air	-8.40135
▁storm	-8.40136
▁members	-8.40257
▁production	-8.40762
▁All	-8.4083
▁England	-8.40925
&	-8.41007
▁further	-8.4137
▁West	-8.41484
▁point	-8.41616
▁One	-8.42377
▁half	-8.42599
▁K	-8.42963
▁2007	-8.4311
having	-8.43688
▁position	-8.43704
▁story	-8.43838
▁player	-8.44003
▁become	-8.44027
g	-8.44086
▁version	-8.44348
▁L	-8.44412
▁City	-8.44507
▁different	-8.44583
▁we	-8.44687
▁turn	-8.44767
▁English	-8.45312
▁few	-8.45349
▁per	-8.46327
▁without	-8.46401
▁join	-8.46423
▁total	-8.46677
▁2012	-8.4676
▁history	-8.4706
▁II	-8.47074
▁River	-8.47715
▁London	-8.48083
▁King	-8.48478
h	-8.49299
▁H	-8.49509
▁land	-8.49653
▁To	-8.4977
▁written	-8.49797
▁full	-8.50385
u	-8.51216
▁close	-8.51605
ce	-8.51841
▁track	-8.5228
▁given	-8.52401
▁though	-8.52458
▁man	-8.52582
▁University	-8.52822
▁gave	-8.52909
▁21	-8.53221
▁east	-8.53562
c	-8.53656
▁While	-8.53768
▁act	-8.53836
▁control	-8.54008
▁service	-8.54575
▁caus	-8.55107
▁company	-8.55159
▁went	-8.55294
▁initial	-8.5559
▁week	-8.55675
▁town	-8.55775
▁published	-8.55963
▁W	-8.56115
▁24	-8.56172
▁building	-8.56334
▁2006	-8.56742
▁lost	-8.56867
▁west	-8.5695
▁reported	-8.57493
▁performance	-8.5751
▁particular	-8.57626
▁stated	-8.57628
▁According	-8.58356
▁h	-8.58467
▁common	-8.58565
▁list	-8.58681
▁An	-8.58695
▁State	-8.58936
▁head	-8.591
▁never	-8.59258
▁General	-8.59614
▁country	-8.59768
▁pass	-8.60033
▁move	-8.6006
▁using	-8.60455
▁low	-8.60527
▁suggest	-8.60738
▁fire	-8.608
▁strong	-8.60967
▁father	-8.61146
▁making	-8.61301
▁right	-8.6149
ation	-8.61505
▁run	-8.61547
▁club	-8.61607
▁aircraft	-8.61701
▁Australia	-8.61771
▁These	-8.61789
▁recorded	-8.61818
▁military	-8.61836
▁himself	-8.61931
▁N	-8.61961
▁2013	-8.62023
▁produc	-8.62574
▁real	-8.62659
ton	-8.63268
▁development	-8.63289
▁claim	-8.63667
▁forces	-8.6369
se	-8.63751
▁featur	-8.64041
▁William	-8.64114
▁toward	-8.64117
▁ships	-8.64161
▁50	-8.64267
▁James	-8.64654
ism	-8.64828
▁cover	-8.65236
▁Australian	-8.65607
▁direct	-8.65655
▁22	-8.66041
▁ft	-8.6605
▁how	-8.6629
▁Army	-8.66632
▁design	-8.66637
▁Division	-8.66679
▁sign	-8.66701
▁less	-8.6704
▁good	-8.67061
▁America	-8.67352
▁house	-8.6744
▁V	-8.67592
▁class	-8.67813
▁died	-8.68017
▁League	-8.68039
▁political	-8.682
▁George	-8.68274
▁win	-8.68421
ia	-8.68468
▁present	-8.68774
▁developed	-8.68845
▁children	-8.69119
▁months	-8.69499
▁range	-8.69707
▁across	-8.6989
▁Street	-8.70175
▁official	-8.7037
▁Park	-8.70545
▁away	-8.70836
z	-8.70836
▁style	-8.70922
▁felt	-8.71275
b	-8.71878
▁characters	-8.72319
▁sent	-8.72364
▁announced	-8.72389
ness	-8.72422
▁television	-8.72622
▁J	-8.72723
▁Japanese	-8.72752
▁County	-8.72855
▁songs	-8.72921
▁age	-8.72944
▁seven	-8.73045
▁23	-8.73117
▁son	-8.73353
▁level	-8.73551
▁should	-8.73667
or	-8.73694
▁2005	-8.73695
▁get	-8.73748
▁successful	-8.73957
▁With	-8.74068
▁route	-8.74169
▁Road	-8.74212
▁eight	-8.7442
▁eventual	-8.74462
▁station	-8.74609
▁various	-8.74705
▁’	-8.74825
▁seen	-8.75011
▁success	-8.75242
▁battle	-8.75904
▁ten	-8.75951
▁race	-8.75962
▁command	-8.76027
▁2014	-8.76111
▁thought	-8.76142
▁need	-8.76307
▁ask	-8.76588
▁mi	-8.76618
▁contain	-8.76729
▁campaign	-8.76952
▁national	-8.77163
is	-8.77203
▁road	-8.77281
▁general	-8.7731
▁writing	-8.77597
▁tour	-8.77663
by	-8.77936
▁40	-8.78011
ally	-8.78023
▁28	-8.7804
▁addition	-8.78099
▁killed	-8.78299
▁tropical	-8.7832
▁white	-8.7838
▁throughout	-8.78662
▁fight	-8.78795
▁Air	-8.78796
▁night	-8.78927
▁award	-8.78992
▁member	-8.79017
▁debut	-8.79207
▁little	-8.79473
▁Man	-8.79719
▁areas	-8.79724
▁stage	-8.79814
▁complete	-8.7982
▁look	-8.79831
▁black	-8.79834
▁creat	-8.80009
▁peak	-8.80165
▁serv	-8.8027
▁players	-8.80352
▁able	-8.80876
▁mm	-8.81022
▁entire	-8.8115
▁involv	-8.81231
▁We	-8.81324
▁!	-8.81328
▁does	-8.81345
▁established	-8.81488
▁post	-8.81698
▁27	-8.81795
▁light	-8.82021
▁miles	-8.82174
3	-8.82343
▁appeared	-8.82507
▁women	-8.82708
▁too	-8.83024
▁decided	-8.83145
▁East	-8.83342
▁body	-8.83764
▁House	-8.83778
ist	-8.84262
▁26	-8.8452
▁Royal	-8.84743
▁times	-8.84775
▁live	-8.84889
ar	-8.84894
▁action	-8.84916
▁sold	-8.84954
▁feet	-8.85033
▁David	-8.85143
▁features	-8.85265
▁together	-8.85449
▁France	-8.855
▁located	-8.85628
moved	-8.85796
p	-8.86024
▁average	-8.86052
▁added	-8.86059
▁population	-8.86174
▁non	-8.86193
▁law	-8.86211
▁damage	-8.8625
▁go	-8.86292
▁points	-8.86293
▁once	-8.86471
▁Michael	-8.86764
▁ground	-8.86924
▁instead	-8.86937
▁important	-8.8725
▁front	-8.87325
▁site	-8.87391
▁San	-8.87708
▁popular	-8.8779
ry	-8.88112
▁29	-8.88284
▁completed	-8.88531
▁open	-8.88597
▁field	-8.8873
▁every	-8.88737
▁put	-8.88775
▁formed	-8.89013
▁2004	-8.8905
▁saw	-8.8908
taken	-8.89138
▁project	-8.89257
rather	-8.89432
▁scene	-8.89577
▁playing	-8.89956
▁behind	-8.90042
▁see	-8.90187
▁co	-8.90333
▁me	-8.90573
▁La	-8.90767
▁replac	-8.90795
▁my	-8.90863
▁event	-8.91022
▁rest	-8.9107
▁construction	-8.91101
x	-8.91274
▁believ	-8.91289
▁2015	-8.91332
▁case	-8.91639
▁free	-8.91801
▁Some	-8.92015
▁opened	-8.92041
▁You	-8.92202
▁School	-8.92274
▁subsequent	-8.92473
A	-8.9263
▁heavy	-8.92884
land	-8.92912
▁rock	-8.9315
▁guns	-8.93363
▁party	-8.93417
C	-8.94027
▁noted	-8.94099
▁upon	-8.94132
▁Henry	-8.94169
▁lack	-8.94199
▁almost	-8.94202
▁Robert	-8.94213
▁Battle	-8.94496
▁born	-8.94591
nd	-8.94938
▁2000	-8.94978
ian	-8.95082
▁Best	-8.95128
▁region	-8.95227
▁fourth	-8.95288
▁scored	-8.95292
▁office	-8.95335
▁current	-8.95519
▁hit	-8.95544
▁view	-8.9555
▁young	-8.95613
▁far	-8.95664
▁X	-8.95668
▁mid	-8.95707
▁200	-8.95792
▁modern	-8.95828
▁example	-8.95829
▁Music	-8.95932
▁Other	-8.95982
▁provided	-8.96053
▁rank	-8.96069
men	-8.96123
less	-8.96228
▁brought	-8.96301
▁continue	-8.96396
▁individual	-8.96696
D	-8.96792
▁extend	-8.9685
▁least	-8.96905
▁mother	-8.97001
el	-8.97024
▁special	-8.97064
▁visit	-8.97354
ta	-8.97595
▁ever	-8.97643
▁chart	-8.9769
▁Washington	-8.97748
▁weeks	-8.97851
▁working	-8.97862
▁review	-8.97932
▁either	-8.98513
▁worked	-8.98604
▁500	-8.98641
▁De	-8.98718
▁wanted	-8.98896
▁month	-8.99002
▁troops	-8.99009
espite	-8.99043
▁European	-8.99278
▁wife	-8.99362
▁critics	-8.99503
▁Europe	-8.99567
▁experience	-8.99782
▁army	-8.99943
▁crew	-8.99952
▁quick	-9.00153
▁2003	-9.00203
▁Star	-9.00309
▁Follow	-9.00314
▁novel	-9.00594
▁wide	-9.00798
▁island	-9.01104
▁Black	-9.01157
▁Her	-9.01225
▁prais	-9.01257
▁President	-9.01583
▁generally	-9.01591
▁fail	-9.0195
▁works	-9.02057
▁cause	-9.02218
▁hurricane	-9.02225
▁Cup	-9.02288
▁First	-9.02419
▁discover	-9.02489
▁sound	-9.02695
▁Japan	-9.02702
▁love	-9.02703
▁car	-9.02883
▁opening	-9.02933
▁gun	-9.0309
ve	-9.03135
▁Great	-9.03144
▁mph	-9.0329
▁runs	-9.03337
▁victory	-9.03409
▁Two	-9.03717
▁soon	-9.04032
▁highway	-9.04091
▁process	-9.04134
▁Route	-9.04765
▁accept	-9.04875
▁met	-9.05345
▁shot	-9.05354
▁events	-9.05407
▁face	-9.05425
▁director	-9.05446
▁appear	-9.05542
▁goal	-9.05573
▁Me	-9.05584
▁hand	-9.05752
▁saying	-9.05811
▁finished	-9.05892
▁usual	-9.05897
ie	-9.05992
▁hours	-9.06131
▁designed	-9.06202
▁sea	-9.06214
▁term	-9.0631
▁room	-9.06737
na	-9.06761
▁length	-9.06799
son	-9.06843
▁court	-9.07009
▁studio	-9.0709
▁largest	-9.07188
▁southern	-9.07216
▁Paul	-9.07224
▁possible	-9.07259
ary	-9.07324
▁31	-9.07356
▁human	-9.07477
ne	-9.0756
▁arriv	-9.07684
▁business	-9.07691
▁From	-9.07904
▁White	-9.07925
▁earlier	-9.07969
▁highest	-9.07984
▁International	-9.08006
▁2001	-9.08026
▁available	-9.08189
▁significant	-9.0823
▁Charles	-9.08286
▁training	-9.08684
▁cast	-9.08733
▁Navy	-9.08971
ous	-9.09119
▁Thomas	-9.09169
▁Kingdom	-9.09268
▁issue	-9.09275
▁base	-9.09382
▁°	-9.09523
▁gain	-9.09541
▁minutes	-9.09575
▁appearance	-9.09596
▁decision	-9.09612
▁Hall	-9.09965
▁lower	-9.10587
▁create	-9.10607
▁maintain	-9.10639
▁contract	-9.10853
1	-9.10871
▁northern	-9.11229
▁relationship	-9.11359
▁Indian	-9.11582
▁increased	-9.11644
ley	-9.11678
▁attempt	-9.11717
▁2002	-9.11719
▁league	-9.11967
side	-9.122
▁Canada	-9.12348
▁difficult	-9.12371
▁focus	-9.12387
▁central	-9.1261
▁round	-9.12764
▁nine	-9.12831
▁break	-9.13057
▁must	-9.13106
▁star	-9.13302
▁find	-9.1343
▁taking	-9.13509
▁introduc	-9.13663
▁California	-9.13743
▁immediate	-9.13924
te	-9.1398
▁regard	-9.14206
▁Court	-9.14522
▁Red	-9.14572
▁Award	-9.14579
▁interest	-9.14588
▁come	-9.1469
▁Union	-9.14765
▁social	-9.14798
▁clear	-9.14846
▁units	-9.14876
▁voice	-9.14882
▁art	-9.15121
▁influence	-9.15165
▁better	-9.15171
▁defeat	-9.15286
▁positive	-9.15386
▁others	-9.15457
▁size	-9.15581
f	-9.15629
B	-9.15836
▁Peter	-9.16025
ive	-9.1621
▁Island	-9.16225
▁church	-9.16244
▁enough	-9.16323
▁commercial	-9.16378
ment	-9.16687
▁according	-9.168
▁above	-9.16869
▁Act	-9.16952
▁recording	-9.17043
▁India	-9.17106
▁outside	-9.17146
▁score	-9.17208
▁winds	-9.17274
▁ended	-9.17306
▁Smith	-9.17359
▁beginning	-9.1738
▁spen	-9.17563
▁Game	-9.17621
▁relative	-9.17652
▁pre	-9.17686
▁told	-9.17693
▁going	-9.17701
▁additional	-9.17813
▁1990	-9.17967
▁Company	-9.18157
▁Richard	-9.1825
▁anti	-9.18355
▁surface	-9.18514
▁section	-9.18586
▁Sea	-9.18597
▁response	-9.18982
▁required	-9.19023
▁give	-9.19547
▁space	-9.19569
ch	-9.196
▁College	-9.19617
▁interview	-9.19658
▁pressure	-9.19785
▁Germany	-9.1981
▁itself	-9.19846
▁coast	-9.19876
▁evidence	-9.19969
▁sometime	-9.20051
▁elements	-9.20097
▁person	-9.20098
ma	-9.20366
▁despite	-9.20374
▁brother	-9.20394
▁High	-9.20558
▁Force	-9.20618
▁60	-9.20741
▁village	-9.20801
▁keep	-9.20825
▁prevent	-9.20992
▁cost	-9.21015
£	-9.21041
▁?	-9.21049
▁develop	-9.21104
rd	-9.21145
il	-9.21148
ty	-9.21155
▁idea	-9.21387
et	-9.21389
co	-9.21568
▁musical	-9.21685
▁Hill	-9.21802
▁NY	-9.21912
▁consist	-9.21961
▁t	-9.22116
▁international	-9.22137
▁speed	-9.22142
▁poor	-9.2215
▁approach	-9.22171
▁UK	-9.22177
▁Western	-9.22611
▁election	-9.2264
▁future	-9.22763
▁recent	-9.23036
▁plan	-9.23071
▁appoint	-9.23261
▁Times	-9.23282
▁enter	-9.23283
▁center	-9.2331
▁Church	-9.23334
▁reviews	-9.23481
▁host	-9.23553
▁increase	-9.23608
▁cross	-9.23728
▁rule	-9.23735
▁program	-9.23976
▁football	-9.24007
ter	-9.24071
la	-9.24086
▁cut	-9.24105
▁serve	-9.24144
▁whom	-9.24236
▁police	-9.24251
▁female	-9.24317
▁Los	-9.24336
▁suffer	-9.24522
▁That	-9.24553
▁king	-9.24598
▁red	-9.24608
▁magazine	-9.24637
4	-9.24654
▁Championship	-9.24779
▁material	-9.24946
▁already	-9.24994
▁Bay	-9.24995
▁loss	-9.25341
▁attend	-9.25547
▁Most	-9.25666
▁bridge	-9.25682
▁1970	-9.257
▁structure	-9.25873
▁travel	-9.25919
▁My	-9.25972
▁produce	-9.26061
▁report	-9.26124
▁western	-9.26211
▁1980	-9.26222
▁meeting	-9.26254
▁Britain	-9.26263
▁carri	-9.26334
▁protect	-9.26424
▁media	-9.26467
ine	-9.26472
▁study	-9.26839
▁park	-9.26894
▁president	-9.271
ra	-9.27138
▁money	-9.27185
▁especial	-9.27546
▁Awards	-9.27569
▁fleet	-9.27594
▁Christian	-9.27617
▁summer	-9.27706
▁past	-9.27761
▁Later	-9.27802
▁river	-9.28257
▁Virginia	-9.28289
▁want	-9.28428
▁feature	-9.28581
▁might	-9.28583
▁community	-9.2864
▁food	-9.28676
▁estimated	-9.28682
▁select	-9.28905
▁eastern	-9.2903
▁radio	-9.29042
▁audience	-9.29079
▁1999	-9.29164
▁Early	-9.29591
▁actual	-9.29677
▁conduct	-9.29737
▁larger	-9.29914
▁propos	-9.29924
▁becoming	-9.2994
▁unit	-9.30104
▁Lake	-9.30107
▁date	-9.30143
▁Final	-9.30149
▁type	-9.30295
▁research	-9.30299
▁provide	-9.30331
▁market	-9.30365
▁Up	-9.30403
▁percent	-9.30558
▁35	-9.30645
▁specific	-9.308
▁latter	-9.3082
▁personal	-9.30966
▁Re	-9.3103
▁defeated	-9.31173
▁earn	-9.31177
▁Z	-9.31186
▁groups	-9.31189
▁Brown	-9.31198
▁writer	-9.31224
▁Jackson	-9.31388
▁fact	-9.31436
▁winning	-9.31453
▁division	-9.31548
ge	-9.31613
▁If	-9.31771
▁Roman	-9.3188
▁Le	-9.3188
▁c	-9.31898
▁practice	-9.31987
▁Grand	-9.31991
▁Soviet	-9.32041
▁elect	-9.32052
▁sell	-9.32072
▁referr	-9.32214
▁lines	-9.32264
▁Dr	-9.32364
▁staff	-9.32579
▁tri	-9.3261
▁entered	-9.3273
▁Edward	-9.32761
▁states	-9.32782
▁amount	-9.32783
▁God	-9.32837
▁daughter	-9.32994
▁brief	-9.33008
▁stay	-9.33111
▁leaving	-9.3312
▁Spanish	-9.3313
▁Club	-9.33317
▁Rock	-9.33319
▁students	-9.33387
▁seem	-9.33626
▁movement	-9.3366
▁limited	-9.33712
▁destroyed	-9.339
é	-9.34102
▁Association	-9.3427
▁El	-9.34382
▁Love	-9.34431
▁question	-9.34595
▁overall	-9.34607
▁1960	-9.34803
▁Party	-9.34886
▁effects	-9.34982
▁course	-9.35039
▁private	-9.3509
▁our	-9.35121
▁Second	-9.35161
N	-9.35249
▁fall	-9.35279
▁Queen	-9.35394
▁Day	-9.35537
▁regular	-9.3558
▁certain	-9.356
▁language	-9.35617
▁running	-9.35756
▁professional	-9.35777
to	-9.35797
▁broadcast	-9.35851
▁intended	-9.35864
am	-9.35991
▁Chicago	-9.36004
ish	-9.36343
▁Chinese	-9.36352
▁natural	-9.36383
▁effect	-9.36667
▁1998	-9.36771
▁married	-9.36864
▁Many	-9.3698
▁Council	-9.37028
▁self	-9.37139
▁So	-9.37189
▁tell	-9.37199
▁producer	-9.37378
▁80	-9.37485
▁Russian	-9.37493
▁forward	-9.37499
▁know	-9.37525
▁scenes	-9.3773
da	-9.37797
▁traditional	-9.3783
▁parts	-9.38122
▁Mary	-9.38301
ur	-9.3831
▁bring	-9.38329
ling	-9.38341
ro	-9.38409
▁critical	-9.38457
▁trial	-9.3846
▁vote	-9.38486
V	-9.3869
ance	-9.38818
▁planned	-9.38848
▁increasing	-9.38994
ville	-9.3904
▁active	-9.39138
▁longer	-9.39173
▁Pacific	-9.39185
▁captured	-9.39319
▁higher	-9.39387
▁compared	-9.39402
ka	-9.39493
▁Johnson	-9.39535
▁living	-9.39561
▁approximately	-9.39569
▁friend	-9.39701
▁child	-9.39745
▁fifth	-9.3984
▁History	-9.39913
▁themselves	-9.39915
▁done	-9.3996
▁singer	-9.3997
▁leader	-9.40093
▁related	-9.40142
▁operat	-9.40184
▁pair	-9.4035
▁rights	-9.40405
▁leave	-9.40406
age	-9.40465
▁Billboard	-9.40585
greed	-9.40604
▁gold	-9.40682
▁prior	-9.40819
▁fans	-9.409
▁thus	-9.40925
▁coach	-9.40978
▁Canadian	-9.41018
▁woman	-9.41169
▁pay	-9.41245
▁offer	-9.41311
▁manager	-9.41341
▁probabl	-9.41673
▁whether	-9.41769
▁300	-9.41853
▁believe	-9.41939
▁Squadron	-9.41943
com	-9.42048
▁think	-9.42075
▁test	-9.42127
▁45	-9.42191
▁supported	-9.42222
it	-9.4225
▁soldiers	-9.42253
▁deal	-9.42286
▁films	-9.42346
▁Since	-9.42368
▁b	-9.42391
▁Lord	-9.42494
▁copies	-9.42538
▁shows	-9.42595
▁1997	-9.42634
▁location	-9.42714
▁typical	-9.42747
▁Atlantic	-9.42804
▁subject	-9.42842
ant	-9.42963
▁rate	-9.42976
▁lyrics	-9.42989
▁separate	-9.43122
▁operations	-9.43151
▁share	-9.43214
▁deep	-9.43239
▁Both	-9.43301
▁countries	-9.43374
▁model	-9.43588
▁via	-9.43596
▁Florida	-9.43674
▁cm	-9.43782
▁Highway	-9.43921
▁trade	-9.43933
▁Don	-9.44026
▁request	-9.44072
▁pilot	-9.44299
▁fell	-9.44354
w	-9.44652
▁advance	-9.44699
nother	-9.44775
▁Italian	-9.44813
▁China	-9.4486
▁minute	-9.44876
▁stop	-9.44997
▁mixed	-9.45001
ham	-9.45103
▁reduc	-9.45129
▁expand	-9.45245
▁Texas	-9.45276
▁70	-9.45282
▁portion	-9.45321
▁Go	-9.45353
▁removed	-9.45379
▁stars	-9.45402
▁Mark	-9.45411
ey	-9.45478
▁historian	-9.45498
ll	-9.45541
▁health	-9.45564
▁hard	-9.45572
▁always	-9.45714
▁status	-9.45744
▁Center	-9.45792
ri	-9.45804
ent	-9.45866
▁But	-9.45978
j	-9.45991
▁network	-9.45998
▁commission	-9.46198
▁flight	-9.46226
▁wind	-9.46269
▁ran	-9.46453
▁Jack	-9.46808
▁got	-9.46901
▁Green	-9.47053
▁press	-9.47057
▁something	-9.47137
▁Africa	-9.47175
▁officers	-9.47212
▁script	-9.47271
▁plot	-9.47516
▁avoid	-9.47606
▁Martin	-9.47635
▁tracks	-9.47635
▁majority	-9.47649
▁pop	-9.47705
5	-9.47758
▁exist	-9.47765
▁tons	-9.47838
▁refus	-9.4817
▁Year	-9.48239
▁centre	-9.48279
▁problems	-9.48342
▁hour	-9.48386
▁key	-9.48415
▁offered	-9.48475
▁teams	-9.48689
▁damaged	-9.48823
▁Sir	-9.48976
▁Earth	-9.48985
▁access	-9.49017
▁composed	-9.49153
▁nature	-9.49207
▁port	-9.49255
▁Empire	-9.49471
▁potential	-9.49604
▁plans	-9.49623
▁Central	-9.49857
▁buildings	-9.49999
▁culture	-9.50047
▁respectively	-9.50121
▁episodes	-9.5033
▁numerous	-9.50345
▁1995	-9.50348
▁revealed	-9.5041
▁impact	-9.50423
▁Angeles	-9.50578
▁III	-9.50581
▁grant	-9.50782
▁Tour	-9.50788
▁associat	-9.50797
▁board	-9.50858
▁yet	-9.50952
▁inspired	-9.50975
▁drive	-9.51059
▁Sun	-9.51094
▁p	-9.51175
▁ball	-9.51284
▁Be	-9.51312
▁guitar	-9.51352
▁minor	-9.51367
▁upper	-9.51424
▁lived	-9.51439
os	-9.51468
▁terms	-9.51468
▁Test	-9.51509
▁word	-9.5151
▁moving	-9.51563
▁occurred	-9.51575
▁whole	-9.51623
me	-9.51714
▁launched	-9.51895
E	-9.51946
▁Group	-9.5197
▁shown	-9.52024
▁transport	-9.52042
▁TV	-9.52153
▁depression	-9.5221
▁occur	-9.52332
ir	-9.52412
▁treat	-9.52454
▁goals	-9.52457
ches	-9.52487
▁information	-9.52524
▁2016	-9.52532
▁90	-9.52573
▁1996	-9.52631
▁complex	-9.52633
▁1950	-9.52666
▁slow	-9.52894
▁00	-9.52946
▁defend	-9.53074
▁Greek	-9.53129
▁legal	-9.53213
▁Big	-9.53218
▁operation	-9.53265
▁appears	-9.53393
ten	-9.53432
▁conditions	-9.53604
▁services	-9.53807
▁sister	-9.53856
▁castle	-9.53858
▁direction	-9.53861
▁male	-9.53865
▁Minister	-9.53873
▁Tom	-9.53903
▁dark	-9.53928
▁border	-9.54034
▁Co	-9.54043
▁officer	-9.54098
▁attempted	-9.542
ner	-9.54216
▁letter	-9.54237
▁issu	-9.54392
▁1994	-9.54418
▁industry	-9.54519
▁artist	-9.54552
▁Corps	-9.54557
▁session	-9.54704
▁commander	-9.5475
▁double	-9.54753
▁heavi	-9.54847
▁Team	-9.54911
▁assigned	-9.54932
▁feel	-9.54957
▁Old	-9.54995
field	-9.55073
▁display	-9.55095
▁yards	-9.55135
▁conflict	-9.55146
▁attention	-9.55158
▁economic	-9.55228
▁standard	-9.55475
▁DVD	-9.55498
▁commented	-9.55555
▁plant	-9.5557
▁75	-9.55614
▁severe	-9.55649
ha	-9.55763
▁expected	-9.55838
▁moment	-9.55921
▁Stone	-9.56038
▁Michigan	-9.5606
▁mass	-9.56195
▁education	-9.56221
▁fish	-9.56409
▁primary	-9.56627
▁sales	-9.568
▁competition	-9.56913
▁below	-9.56992
▁hop	-9.57014
▁Wales	-9.57174
▁retain	-9.57174
▁mention	-9.5735
▁closed	-9.57402
▁Over	-9.57425
▁issues	-9.57461
▁1940	-9.57485
▁demand	-9.57498
▁dead	-9.57663
▁capital	-9.57694
▁dance	-9.57762
▁resident	-9.57983
▁Hot	-9.57991
▁distance	-9.58156
▁Time	-9.5816
▁giving	-9.58236
▁ability	-9.58251
▁declared	-9.58265
▁African	-9.58283
▁concept	-9.58283
▁middle	-9.58406
▁religious	-9.58452
▁Congress	-9.58636
▁Major	-9.58687
▁marriage	-9.58718
▁rapid	-9.58998
▁Scott	-9.59199
▁normal	-9.59202
▁draft	-9.59256
▁matches	-9.59334
▁ultimate	-9.59336
▁science	-9.59376
F	-9.5946
▁Bridge	-9.59546
▁nation	-9.59812
▁decade	-9.59861
▁Film	-9.59871
▁captain	-9.5989
▁serious	-9.59933
▁kind	-9.60052
▁describe	-9.60112
▁friends	-9.60125
H	-9.60186
▁32	-9.60321
▁Several	-9.60462
▁metal	-9.60507
▁1992	-9.60526
▁financial	-9.60657
▁author	-9.60705
ol	-9.60938
▁energy	-9.61064
▁adopt	-9.61152
▁account	-9.61158
▁edition	-9.6116
▁stone	-9.6116
▁Fort	-9.61174
▁takes	-9.61243
▁movie	-9.61384
▁heart	-9.61663
ler	-9.61697
▁contact	-9.61734
▁screen	-9.61763
▁foot	-9.61978
▁attacks	-9.61995
▁horse	-9.61996
▁constructed	-9.6211
▁Fox	-9.62128
▁annual	-9.62135
ities	-9.62306
▁vocals	-9.62401
ford	-9.6258
▁Mexico	-9.62597
▁temperature	-9.6271
time	-9.62817
▁effort	-9.62972
▁chief	-9.62974
▁Frank	-9.63064
▁Like	-9.63085
▁call	-9.63236
▁defense	-9.63265
▁Super	-9.63376
▁college	-9.63422
▁source	-9.63497
▁1930	-9.63511
no	-9.63683
ko	-9.63703
▁transferr	-9.63715
▁receive	-9.63862
▁Chris	-9.63919
▁combat	-9.63924
ti	-9.6408
▁Madonna	-9.64128
▁physical	-9.64232
▁Line	-9.64251
▁cyclone	-9.64378
▁twenty	-9.64473
at	-9.64515
▁oil	-9.64521
▁1993	-9.64579
▁1991	-9.64618
▁stating	-9.64622
▁escape	-9.64671
▁Service	-9.64813
▁fund	-9.64925
▁directly	-9.64949
▁charge	-9.64958
▁Jones	-9.65114
▁concert	-9.65143
▁Bill	-9.65167
ya	-9.6522
▁highly	-9.65225
▁argu	-9.65286
O	-9.65338
▁theme	-9.65403
▁engine	-9.65418
▁Department	-9.65424
▁Scotland	-9.65451
▁Zealand	-9.65526
▁wall	-9.65547
▁hold	-9.6563
▁means	-9.65654
wood	-9.65772
ki	-9.65815
▁makes	-9.65844
▁morning	-9.65852
▁Infantry	-9.65969
▁ending	-9.66035
▁Hurricane	-9.66242
▁Three	-9.66307
▁dropp	-9.66345
▁performances	-9.66396
▁executive	-9.66399
ium	-9.66412
▁build	-9.66469
▁yard	-9.66486
▁Creek	-9.6653
▁represent	-9.66599
ul	-9.66654
▁Their	-9.66671
▁inside	-9.66679
▁mission	-9.66779
▁responsible	-9.66895
▁400	-9.67015
▁managed	-9.67082
▁figure	-9.6717
▁Prince	-9.67205
▁era	-9.67499
den	-9.67502
▁kept	-9.67592
▁fast	-9.67657
▁Catholic	-9.67737
▁color	-9.67869
▁variety	-9.6803
▁meant	-9.68041
▁notes	-9.68061
▁depict	-9.68071
quality	-9.68147
▁presented	-9.68186
id	-9.68333
▁arrest	-9.68387
▁Battalion	-9.6852
▁scale	-9.68616
▁And	-9.68712
▁square	-9.6876
▁bad	-9.68812
▁Committee	-9.68827
▁search	-9.68879
▁v	-9.6893
▁Cross	-9.69071
I	-9.69129
▁Lee	-9.6916
P	-9.69407
M	-9.69507
▁Records	-9.69526
▁marked	-9.69657
▁efforts	-9.69673
▁divid	-9.69685
▁Latin	-9.69722
▁resulting	-9.69728
▁oppos	-9.69893
▁wing	-9.69901
▁formation	-9.69962
▁box	-9.6998
▁hundred	-9.70119
▁sex	-9.70249
▁Live	-9.70266
▁1942	-9.70326
▁Art	-9.70446
▁portray	-9.70455
▁camp	-9.70466
ate	-9.70473
▁presence	-9.70512
▁begins	-9.70559
▁Post	-9.70606
▁multiple	-9.7061
▁forest	-9.70634
▁federal	-9.70648
▁metres	-9.70668
▁33	-9.70699
▁train	-9.70701
▁piece	-9.70719
▁books	-9.70727
▁engage	-9.7076
▁Society	-9.70961
ier	-9.71246
▁Southern	-9.71263
▁content	-9.71319
▁situation	-9.71374
▁concern	-9.71392
▁collection	-9.71404
▁levels	-9.71506
▁add	-9.71524
▁speech	-9.71605
▁viewers	-9.71834
▁Life	-9.71835
▁write	-9.71862
▁blood	-9.71863
▁Stephen	-9.71868
▁Saint	-9.71896
▁enjoy	-9.71902
▁Sam	-9.72005
▁records	-9.72071
▁traffic	-9.72136
▁enemy	-9.7217
▁words	-9.72183
▁Oxford	-9.72185
▁Mr	-9.72208
▁extreme	-9.72239
▁winter	-9.7226
▁Captain	-9.72309
▁royal	-9.72451
▁Louis	-9.72465
▁read	-9.72525
▁n	-9.72685
▁value	-9.72715
▁inch	-9.72782
▁Republican	-9.72811
▁Chief	-9.73007
▁actor	-9.73024
▁e	-9.73032
▁Boston	-9.73063
▁positions	-9.73082
tic	-9.73152
▁link	-9.7325
▁target	-9.7329
▁concluded	-9.73317
▁Manchester	-9.73423
K	-9.73486
▁Harrison	-9.73518
▁prominent	-9.7352
▁quarter	-9.73528
▁meaning	-9.73545
ke	-9.73571
▁weaken	-9.73571
▁setting	-9.73581
▁property	-9.73621
▁scoring	-9.73632
G	-9.73637
▁primarily	-9.73654
▁Brigade	-9.7366
▁independent	-9.73672
▁stories	-9.73682
▁risk	-9.73759
ecause	-9.73876
▁starting	-9.73878
▁extensive	-9.73927
▁Regiment	-9.74053
▁Before	-9.74067
▁job	-9.74076
▁cases	-9.74251
▁hospital	-9.74268
▁rating	-9.74286
ina	-9.74295
▁More	-9.74333
▁Vietnam	-9.7442
▁Port	-9.74502
▁couple	-9.74505
▁Little	-9.74534
▁observed	-9.74544
▁strength	-9.74684
▁1944	-9.74752
▁rough	-9.74867
▁37	-9.7495
▁invasion	-9.74987
▁us	-9.75062
be	-9.75067
▁things	-9.75115
ah	-9.75116
▁reception	-9.75202
ial	-9.75205
io	-9.75223
▁paid	-9.75302
ba	-9.75465
▁companies	-9.75529
ek	-9.75577
▁sense	-9.75603
▁Under	-9.75799
go	-9.75844
▁convert	-9.75916
▁onto	-9.7594
▁fill	-9.75942
▁Con	-9.75944
T	-9.76007
▁pick	-9.76072
line	-9.7609
▁slightly	-9.76119
▁meet	-9.76239
▁historical	-9.76276
▁bill	-9.76329
▁say	-9.76384
▁Series	-9.76425
▁animals	-9.76486
▁powerful	-9.76527
▁parents	-9.76638
▁houses	-9.76643
▁broke	-9.76649
▁reflect	-9.76731
ci	-9.76732
▁36	-9.76781
v	-9.76833
▁BBC	-9.76874
▁la	-9.76946
▁identifi	-9.76959
▁block	-9.7706
▁Sa	-9.77062
▁reject	-9.77133
▁Mar	-9.77246
▁today	-9.77248
▁maximum	-9.77289
▁innings	-9.77323
▁schools	-9.77434
▁Long	-9.77622
▁Academy	-9.77842
▁Joseph	-9.77852
▁criticiz	-9.77873
▁1920	-9.77908
▁policy	-9.77957
▁Museum	-9.78034
▁Paris	-9.78057
▁1945	-9.78082
▁participat	-9.78113
▁1941	-9.78214
▁designated	-9.78249
▁establish	-9.7826
ak	-9.78307
▁society	-9.78311
▁ice	-9.78323
▁struck	-9.78326
▁lot	-9.7835
▁Entertainment	-9.78414
▁Home	-9.78415
▁blue	-9.78719
▁activity	-9.78843
▁aid	-9.78892
▁combined	-9.789
▁discuss	-9.78925
▁Jim	-9.78975
▁attempts	-9.79147
▁battleship	-9.79209
▁Italy	-9.79211
▁capture	-9.79248
▁thousand	-9.79315
▁opportunit	-9.79376
▁label	-9.79425
▁naval	-9.79426
▁reference	-9.79583
▁Avenue	-9.79657
▁writers	-9.79659
▁Van	-9.79763
▁background	-9.79903
▁contrast	-9.79911
▁calling	-9.80048
▁names	-9.80069
▁foreign	-9.80149
▁sub	-9.80176
▁governor	-9.8019
▁numbers	-9.80194
▁your	-9.80222
R	-9.80281
kin	-9.80407
▁weather	-9.80531
▁nominated	-9.8054
▁Williams	-9.80644
▁Games	-9.8065
▁talk	-9.80753
▁succeed	-9.80765
6	-9.80784
▁Ireland	-9.80811
raised	-9.80877
▁incident	-9.80914
▁treatment	-9.8099
▁49	-9.81101
▁Or	-9.81183
▁Show	-9.81186
▁push	-9.81189
▁husband	-9.81218
▁proved	-9.81291
▁raid	-9.81392
▁confirmed	-9.81394
▁promoted	-9.81394
▁38	-9.81395
▁forms	-9.81457
▁raise	-9.81508
▁150	-9.81523
▁image	-9.81548
▁Victoria	-9.81641
▁don	-9.81837
ni	-9.81882
▁floor	-9.81942
▁surrounding	-9.81955
▁Republic	-9.81989
▁1989	-9.81999
▁widely	-9.82008
▁native	-9.82026
▁coming	-9.82119
li	-9.82159
▁Parliament	-9.82169
▁1943	-9.82318
▁explained	-9.82335
▁owned	-9.82415
▁weight	-9.82451
▁county	-9.82518
▁sixth	-9.82539
▁begin	-9.82647
▁ring	-9.82681
▁effective	-9.82748
▁sides	-9.82786
▁sough	-9.82821
▁Tropical	-9.82867
▁reason	-9.8291
▁Ko	-9.82946
▁student	-9.82997
▁Men	-9.83023
▁sexual	-9.83081
▁Ben	-9.83101
▁document	-9.83235
▁district	-9.83237
▁sources	-9.83263
ell	-9.83383
▁seek	-9.83403
▁secret	-9.83407
▁passing	-9.83512
▁website	-9.83544
▁cities	-9.83587
▁34	-9.83589
▁Do	-9.83607
▁theory	-9.83665
▁soundtrack	-9.8373
▁organization	-9.83747
▁attract	-9.83773
▁Valley	-9.83788
▁armor	-9.83888
▁save	-9.83901
▁expressed	-9.83939
▁true	-9.8402
▁advanc	-9.84177
va	-9.84201
▁artillery	-9.84243
▁becomes	-9.84259
ov	-9.84277
▁seat	-9.84333
▁matter	-9.84377
▁thick	-9.84401
▁agreement	-9.84439
▁Dutch	-9.84542
▁reign	-9.84565
▁artists	-9.84612
▁Korean	-9.8482
▁kg	-9.84934
▁care	-9.85009
▁actions	-9.85076
ized	-9.85189
▁formal	-9.85246
lin	-9.85281
▁big	-9.85335
▁Football	-9.85357
▁Carolina	-9.85658
▁Top	-9.8566
▁says	-9.85889
▁alone	-9.85991
▁failure	-9.86013
▁senior	-9.86085
▁apparent	-9.86132
▁appeal	-9.86163
▁Governor	-9.86165
▁negative	-9.8618
ot	-9.86182
▁What	-9.86245
▁coin	-9.86294
▁studies	-9.86359
▁ahead	-9.86401
▁detail	-9.86411
▁kilometre	-9.86435
▁g	-9.86483
▁Fleet	-9.86494
▁weapons	-9.86691
▁spread	-9.86751
▁green	-9.8691
▁injury	-9.86979
▁contribut	-9.86983
▁equipment	-9.86994
▁tournament	-9.87035
ese	-9.87044
▁Bond	-9.87186
▁birth	-9.87193
way	-9.8724
▁Young	-9.87285
▁represented	-9.87342
ut	-9.87395
▁improv	-9.87399
▁machine	-9.8745
▁challenge	-9.87501
▁assist	-9.87536
▁lane	-9.87662
▁mind	-9.87714
▁Though	-9.87823
▁contemporary	-9.87832
▁officials	-9.87922
▁stand	-9.87927
▁growth	-9.87958
▁guest	-9.87996
▁medical	-9.88046
▁composition	-9.88057
▁except	-9.88228
▁fired	-9.88236
▁fuel	-9.88246
▁Duke	-9.88264
▁Homer	-9.88266
▁Northern	-9.88302
▁laid	-9.88346
▁achiev	-9.88466
▁Bo	-9.88499
▁Castle	-9.8857
▁championship	-9.88602
▁spring	-9.88617
▁destroy	-9.88678
▁District	-9.88707
▁Government	-9.88724
▁Storm	-9.88778
▁Prime	-9.88784
berg	-9.89048
▁Operation	-9.89258
▁offensive	-9.89263
▁activities	-9.89602
▁problem	-9.89625
▁affected	-9.89759
▁Y	-9.89792
▁honor	-9.89826
▁favor	-9.89897
▁gas	-9.89933
▁killing	-9.90039
▁suit	-9.90056
▁drama	-9.90202
ca	-9.90322
▁Admiral	-9.90374
▁prisoner	-9.90394
▁Short	-9.90419
▁sequence	-9.90445
▁1987	-9.90606
▁Di	-9.9062
ful	-9.90627
▁interchange	-9.90647
▁degree	-9.90668
▁appearances	-9.90671
▁condition	-9.90673
▁Scottish	-9.90679
▁worldwide	-9.90703
▁count	-9.90709
▁boat	-9.90721
▁aspect	-9.90755
▁sail	-9.90822
▁1988	-9.90822
▁territory	-9.90966
▁eye	-9.91009
▁Tech	-9.91016
▁55	-9.91024
▁figures	-9.91184
▁connect	-9.91215
▁doing	-9.91267
▁Background	-9.91268
▁600	-9.91284
▁rainfall	-9.91285
bo	-9.91365
sen	-9.91404
▁trying	-9.91437
▁Blue	-9.91439
▁Fantasy	-9.91519
▁proposal	-9.91534
▁famous	-9.91652
▁railway	-9.91658
▁48	-9.91777
▁flag	-9.91838
▁tail	-9.91842
▁organiz	-9.91883
▁universit	-9.91996
▁walk	-9.9202
▁Senate	-9.92043
▁Car	-9.92045
▁supply	-9.92124
▁chosen	-9.92124
▁beat	-9.92308
▁twice	-9.92309
▁pieces	-9.92351
▁Middle	-9.92495
▁pro	-9.92517
▁plays	-9.92524
▁Polish	-9.92531
▁Chart	-9.92577
▁acre	-9.92584
▁frequently	-9.92673
▁newspaper	-9.92799
▁Christmas	-9.92819
▁consecutive	-9.92852
do	-9.92856
▁Eastern	-9.92958
▁billion	-9.92964
▁therefore	-9.93084
ard	-9.93109
▁Ka	-9.93134
▁expedition	-9.93193
▁Festival	-9.93209
▁opinion	-9.93234
▁grew	-9.93281
▁Light	-9.93347
▁trees	-9.9337
▁estate	-9.9345
▁Mike	-9.93455
▁Joe	-9.93485
▁squadron	-9.93523
▁Studios	-9.93616
▁birds	-9.93617
▁Wilson	-9.93708
▁Allied	-9.9378
▁herself	-9.9387
▁Pennsylvania	-9.93877
▁Taylor	-9.93911
losing	-9.9393
▁wounded	-9.93933
▁leaders	-9.94039
▁expansion	-9.94083
▁assault	-9.94123
town	-9.94288
▁Ne	-9.94337
▁hair	-9.94337
▁simply	-9.94376
▁Mount	-9.94411
▁leg	-9.94686
▁storyline	-9.94752
▁1986	-9.94781
ana	-9.94785
▁chose	-9.94898
▁Of	-9.94921
▁Song	-9.94925
der	-9.94927
▁deck	-9.94961
▁Alexander	-9.95034
ja	-9.95064
▁nothing	-9.95065
▁camera	-9.9511
▁authority	-9.95158
▁passe	-9.95194
▁progress	-9.952
▁firm	-9.95201
▁Each	-9.95207
▁unknown	-9.95242
▁tower	-9.95246
▁northeast	-9.95247
▁encounter	-9.95301
▁65	-9.9534
▁silver	-9.95434
▁Am	-9.95517
▁versions	-9.95562
▁Law	-9.95636
▁simple	-9.95683
▁Civil	-9.95688
▁64	-9.95695
ang	-9.95839
▁standing	-9.95941
▁comes	-9.95961
ong	-9.95993
▁opposition	-9.96012
▁environment	-9.96095
▁Night	-9.96105
▁Due	-9.96113
▁extra	-9.9612
▁workers	-9.96268
L	-9.96293
▁growing	-9.96321
▁results	-9.96365
▁council	-9.96414
▁fiction	-9.96432
▁civil	-9.96457
▁here	-9.96489
▁disease	-9.96494
▁tax	-9.96567
ga	-9.96568
▁fellow	-9.96647
▁Ten	-9.96684
▁paper	-9.96763
▁Doctor	-9.96787
▁heard	-9.96812
▁threat	-9.9684
▁tree	-9.96842
▁basis	-9.96878
▁capacity	-9.96928
▁walls	-9.96951
▁murder	-9.96957
▁crossing	-9.9696
im	-9.96977
▁arms	-9.9699
▁occupie	-9.97009
▁serving	-9.97049
▁starr	-9.9705
▁advantage	-9.97158
▁bar	-9.97216
up	-9.97238
▁Reception	-9.97247
▁vocal	-9.97284
▁text	-9.97299
▁Further	-9.97318
▁Production	-9.97373
▁budget	-9.97442
▁47	-9.97475
▁Irish	-9.97498
▁Li	-9.97502
▁42	-9.97554
▁purpose	-9.97639
▁Ocean	-9.97724
▁leaves	-9.97776
▁Institute	-9.97822
▁Harry	-9.97846
▁fear	-9.97851
▁pull	-9.97873
▁abandoned	-9.97918
▁task	-9.98033
▁Spain	-9.98073
▁protest	-9.98125
▁broad	-9.98145
▁message	-9.98337
▁trip	-9.98372
▁reports	-9.98406
▁miss	-9.98451
▁administration	-9.98479
▁flying	-9.98496
▁northwest	-9.98513
▁Mo	-9.98515
▁Jersey	-9.98533
▁Bob	-9.98587
tz	-9.9859
▁systems	-9.9869
▁Four	-9.98697
possibly	-9.98731
▁respect	-9.98752
▁Mac	-9.98755
▁Wood	-9.98844
▁Q	-9.98913
▁beyond	-9.98948
▁Coast	-9.98953
▁criticism	-9.98958
ship	-9.98982
▁i	-9.99127
▁convince	-9.99129
mi	-9.9926
house	-9.99299
▁girl	-9.99368
▁visual	-9.99403
▁unique	-9.99427
▁Commission	-9.99458
▁purchas	-9.99488
▁crash	-9.99518
▁hands	-9.99601
▁kill	-9.99669
▁narrow	-9.99674
▁1939	-9.99718
▁split	-9.99739
▁choice	-9.99861
▁bodies	-9.99867
▁contained	-9.99899
▁creation	-9.99901
▁retreat	-10
▁39	-10.0002
ck	-10.0021
▁fan	-10.0021
▁Will	-10.0023
▁learn	-10.0035
ea	-10.005
▁Elizabeth	-10.005
▁Arthur	-10.0055
▁Su	-10.0066
▁animal	-10.0067
▁actors	-10.0071
▁torpedo	-10.0071
▁BC	-10.0074
▁creating	-10.0076
▁grow	-10.0079
▁committee	-10.0084
▁Earl	-10.0085
▁data	-10.0097
▁41	-10.0098
▁retired	-10.0103
▁personnel	-10.0105
▁rise	-10.0105
▁recogniz	-10.0106
▁function	-10.0109
▁warning	-10.011
▁cultural	-10.011
▁bit	-10.0113
▁article	-10.0114
▁inform	-10.0116
▁1985	-10.0128
one	-10.0132
ab	-10.0135
▁stations	-10.0137
▁Its	-10.014
▁draw	-10.0141
▁Du	-10.0145
▁selection	-10.0148
▁1968	-10.015
▁finish	-10.0157
▁Board	-10.0157
▁arrange	-10.0157
mer	-10.0158
ite	-10.0159
▁necessary	-10.0164
▁Meanwhile	-10.017
▁horses	-10.018
▁wave	-10.0181
▁Pro	-10.0182
▁producers	-10.0182
▁infantry	-10.0183
▁rain	-10.0191
ization	-10.0193
▁address	-10.0202
▁52	-10.0203
▁reduce	-10.0203
▁twelve	-10.0207
▁gross	-10.0216
▁Also	-10.0223
▁counter	-10.0238
▁surrender	-10.0238
▁46	-10.0241
▁leadership	-10.0245
▁Point	-10.025
▁Bar	-10.025
▁accompani	-10.0252
▁Ohio	-10.0254
▁repeated	-10.0256
▁rear	-10.0262
ac	-10.0262
▁management	-10.0267
▁parallel	-10.027
▁Walter	-10.0272
▁armed	-10.0275
▁conference	-10.0283
sh	-10.0285
▁claims	-10.0286
▁threaten	-10.0289
▁wait	-10.0295
▁landing	-10.0296
▁agree	-10.0298
▁Order	-10.0312
▁System	-10.0313
▁edge	-10.0313
▁ancient	-10.0315
▁broken	-10.0318
▁height	-10.0321
▁Town	-10.0327
▁peace	-10.033
▁battalion	-10.0338
well	-10.0339
▁Secretary	-10.0342
▁fought	-10.0344
▁44	-10.0349
▁Se	-10.0353
▁Islands	-10.0355
▁composer	-10.0359
▁1984	-10.0365
ger	-10.0375
▁Pre	-10.0378
▁caught	-10.038
▁permanent	-10.0389
▁master	-10.0391
▁newly	-10.0394
▁Georgia	-10.0399
▁planet	-10.0405
▁defence	-10.0406
▁holding	-10.0406
▁CD	-10.0406
▁mile	-10.0407
▁critic	-10.0412
▁brown	-10.0414
▁motion	-10.0419
▁semi	-10.042
▁lives	-10.0421
▁perfect	-10.0423
▁Philadelphia	-10.0423
▁arrival	-10.0428
W	-10.0432
▁improve	-10.0438
▁alternative	-10.044
▁contest	-10.0442
▁43	-10.0445
▁franchise	-10.045
▁sports	-10.0456
▁Never	-10.0458
more	-10.0458
theles	-10.0463
▁influenc	-10.0464
lo	-10.0466
▁reveal	-10.0467
▁Cambridge	-10.0469
ius	-10.0473
▁acquired	-10.0476
▁Can	-10.0477
▁didn	-10.0481
▁comedy	-10.0483
▁Andrew	-10.0488
stead	-10.0489
▁zone	-10.0491
▁investigation	-10.0493
▁replace	-10.0496
▁Player	-10.0497
▁aim	-10.0502
▁tradition	-10.0503
▁driver	-10.051
ised	-10.0515
mo	-10.0515
▁exchange	-10.0528
▁occasional	-10.0534
▁nuclear	-10.0535
▁Ho	-10.0536
▁seventh	-10.0536
▁Grant	-10.0537
▁defensive	-10.0548
▁adult	-10.0549
▁authorities	-10.0553
▁genus	-10.0554
▁crowd	-10.0556
▁headquarters	-10.0561
▁solo	-10.0564
ji	-10.057
▁security	-10.0573
▁Dan	-10.0577
▁Russia	-10.0578
▁People	-10.0579
▁1967	-10.058
▁centuries	-10.0583
▁canno	-10.0599
▁800	-10.0605
▁Development	-10.0608
▁vehicles	-10.0609
▁bomb	-10.061
▁recommend	-10.061
▁Not	-10.0619
▁affair	-10.0627
▁di	-10.063
▁determined	-10.0631
▁MD	-10.0632
▁Square	-10.0633
▁street	-10.0634
▁Among	-10.0635
wise	-10.0638
▁Ra	-10.0644
▁families	-10.0645
▁turret	-10.0652
▁controlled	-10.0656
▁household	-10.0657
▁Un	-10.0661
▁breed	-10.0662
ists	-10.0664
▁refer	-10.0679
▁thing	-10.0682
▁Ottoman	-10.0691
▁temple	-10.0692
▁prison	-10.0692
▁Nintendo	-10.0693
▁computer	-10.0694
▁Office	-10.0695
▁Liverpool	-10.0695
▁Lewis	-10.0709
▁Asia	-10.0716
▁Lieutenant	-10.0725
▁Ni	-10.0725
▁Ma	-10.0727
▁Columbia	-10.0729
▁guard	-10.0735
▁Christ	-10.0739
▁branch	-10.074
▁protection	-10.0742
▁Additional	-10.0744
▁paint	-10.0753
▁iron	-10.0762
▁dollar	-10.0764
▁steam	-10.0766
▁singing	-10.0772
▁shooting	-10.0775
▁ideas	-10.0775
▁SR	-10.0786
▁plants	-10.0792
op	-10.0793
▁piano	-10.0806
▁emerg	-10.0812
▁Daniel	-10.0821
▁gradual	-10.0823
▁Jewish	-10.0824
▁r	-10.0826
▁hope	-10.0829
▁follows	-10.0831
▁mountain	-10.0837
▁Gulf	-10.084
▁k	-10.0841
▁Matt	-10.0846
pe	-10.0847
▁Na	-10.0848
au	-10.085
▁mouth	-10.0851
▁1983	-10.0854
▁ex	-10.0858
▁brigade	-10.0861
▁farm	-10.0866
▁Gold	-10.0869
▁rare	-10.088
gen	-10.0881
▁younger	-10.0882
▁Olympic	-10.0892
▁51	-10.0903
▁Field	-10.0904
▁Americans	-10.0905
▁Carey	-10.0909
▁Good	-10.0909
▁Francisco	-10.0912
▁1969	-10.0912
▁flooding	-10.0916
▁declin	-10.0919
▁fine	-10.0924
▁let	-10.0927
▁comic	-10.0927
▁partial	-10.0928
▁intensity	-10.0929
▁Anderson	-10.093
▁1964	-10.0932
▁Miller	-10.094
▁quite	-10.0948
out	-10.095
▁ceremony	-10.0961
▁Railway	-10.0969
▁dedicated	-10.097
▁Emperor	-10.0973
▁indicate	-10.0974
▁shape	-10.0975
za	-10.0976
▁carry	-10.0977
▁120	-10.0985
▁provid	-10.0989
▁schedul	-10.0999
▁1914	-10.1012
vo	-10.1019
▁Davis	-10.102
▁HMS	-10.102
▁Out	-10.103
▁why	-10.1034
▁Conference	-10.1036
▁1918	-10.1047
all	-10.1052
▁rail	-10.1053
▁chance	-10.1068
▁invite	-10.1077
▁Far	-10.1078
▁PlayStation	-10.1078
▁Land	-10.1078
▁1971	-10.1079
▁Steve	-10.1081
▁element	-10.1081
▁1982	-10.1087
▁shift	-10.1092
▁volume	-10.1098
▁Brian	-10.1099
don	-10.1115
▁1972	-10.1123
▁1966	-10.1126
▁Jean	-10.1126
ow	-10.1127
▁1979	-10.113
▁arrive	-10.1145
▁kick	-10.1146
▁mounted	-10.1151
▁types	-10.1151
▁facilities	-10.1164
▁promotion	-10.1166
▁depend	-10.1168
▁fit	-10.1172
▁constant	-10.1172
▁purchase	-10.1173
▁cold	-10.1174
▁watch	-10.1175
▁core	-10.1175
▁reaction	-10.1185
▁roads	-10.1188
mar	-10.1188
▁weak	-10.1189
▁principal	-10.1191
▁department	-10.1194
▁happen	-10.1198
▁accident	-10.1201
▁notable	-10.121
▁drawn	-10.1212
▁Rose	-10.1214
▁supporter	-10.1214
▁escort	-10.1218
▁steel	-10.1222
▁decline	-10.1225
▁gives	-10.1231
▁publication	-10.1235
▁1965	-10.1237
▁ha	-10.1243
ze	-10.1245
ability	-10.1246
▁singles	-10.1247
▁pitch	-10.125
▁intersection	-10.1252
▁platform	-10.1263
▁unusual	-10.1265
▁try	-10.1275
▁fruit	-10.128
▁surprise	-10.1296
▁NHL	-10.1301
▁1975	-10.1305
▁Bank	-10.1306
▁analysis	-10.1311
▁yellow	-10.1316
▁lap	-10.1317
▁combination	-10.1317
▁Bowl	-10.1324
▁flow	-10.1327
▁Original	-10.1329
▁cap	-10.1334
▁Bell	-10.134
▁religion	-10.1352
▁strike	-10.1363
▁Har	-10.1364
▁Jr	-10.1367
▁Hollywood	-10.1367
▁hir	-10.1373
bound	-10.1384
▁Special	-10.1401
▁casualties	-10.1407
▁1974	-10.1418
▁entrance	-10.142
▁climb	-10.1423
▁defin	-10.1424
▁flat	-10.1427
▁assistant	-10.1429
▁bank	-10.1432
▁table	-10.1434
▁boats	-10.1437
▁method	-10.1438
ng	-10.1441
▁Station	-10.1442
▁95	-10.1447
▁Democratic	-10.1449
▁Wall	-10.145
▁flood	-10.1451
▁Press	-10.1454
▁1973	-10.1456
▁finds	-10.1458
▁launch	-10.1459
▁themes	-10.1464
▁Singapore	-10.1467
▁Way	-10.1468
▁cricket	-10.1469
▁digital	-10.1482
▁islands	-10.1491
chi	-10.1491
▁dress	-10.1498
▁editor	-10.1502
▁Between	-10.1504
▁cell	-10.151
▁Supreme	-10.1519
7	-10.1519
▁Lady	-10.1524
▁End	-10.1524
▁provides	-10.1525
▁secure	-10.1527
▁Ar	-10.153
▁row	-10.1532
▁Disney	-10.1535
▁1976	-10.1537
J	-10.1542
▁economy	-10.1542
▁joint	-10.1544
▁painting	-10.1549
▁SS	-10.1561
▁locations	-10.1561
▁Bart	-10.1571
▁agent	-10.1572
▁domestic	-10.1573
▁85	-10.1576
▁Colonel	-10.1589
▁depart	-10.1599
▁Han	-10.1602
▁programme	-10.1604
▁eyes	-10.1613
▁southeast	-10.1617
▁approved	-10.1622
▁journalist	-10.1624
▁von	-10.1636
▁losses	-10.1649
▁basic	-10.1654
▁wood	-10.1659
▁orders	-10.166
knew	-10.1662
ber	-10.1664
▁poem	-10.1666
▁boy	-10.1667
▁tend	-10.1671
▁favour	-10.1674
▁Ed	-10.1678
▁Women	-10.168
▁Daily	-10.1681
▁Chi	-10.1681
▁disc	-10.1684
▁easi	-10.169
▁literature	-10.1693
▁Summer	-10.1693
▁250	-10.1696
▁exact	-10.1697
▁decide	-10.1698
▁electric	-10.1703
un	-10.171
▁mean	-10.1712
▁trains	-10.1724
▁unsuccessful	-10.1725
▁garden	-10.1728
▁Muslim	-10.1729
▁Cape	-10.1731
▁urban	-10.1732
▁unlike	-10.1734
pa	-10.1736
▁turns	-10.1737
▁Book	-10.1744
▁prepared	-10.1749
▁eat	-10.1753
▁introduction	-10.176
▁industrial	-10.1764
either	-10.1767
▁resistance	-10.1767
▁Beyoncé	-10.1775
▁responsibilit	-10.1775
▁reform	-10.1775
▁store	-10.1775
▁calls	-10.1778
head	-10.1778
▁technology	-10.1782
▁albums	-10.1787
▁goes	-10.1789
▁reputation	-10.1795
▁anything	-10.1798
ker	-10.1801
ors	-10.1802
▁seconds	-10.1804
▁roles	-10.1822
▁rename	-10.1835
▁News	-10.1837
▁habitat	-10.1839
▁gameplay	-10.1841
▁significantly	-10.1841
em	-10.1844
ster	-10.1845
ron	-10.1849
▁straight	-10.185
▁Kentucky	-10.1852
▁dispute	-10.1852
▁fashion	-10.1854
▁sequel	-10.186
▁injured	-10.1869
▁Clark	-10.187
▁daily	-10.1872
▁desire	-10.1873
▁1946	-10.1877
▁Ray	-10.1877
▁phase	-10.1882
ig	-10.1885
▁1981	-10.1886
▁consists	-10.1886
▁bass	-10.1888
▁freeway	-10.19
▁En	-10.19
▁scientific	-10.1903
▁Radio	-10.1911
▁IV	-10.1911
▁Who	-10.1913
▁popularity	-10.1923
▁Airport	-10.1926
▁perhap	-10.1931
▁Lincoln	-10.1942
▁lb	-10.1943
▁employed	-10.1945
▁getting	-10.1949
▁dry	-10.1952
▁coal	-10.1958
▁extension	-10.196
▁channel	-10.1964
▁Norway	-10.1967
▁Part	-10.1976
▁travell	-10.1977
▁stock	-10.1984
▁1917	-10.1985
▁nor	-10.1987
▁structures	-10.1988
▁object	-10.199
▁appli	-10.1991
▁museum	-10.2002
▁Golden	-10.2004
▁drew	-10.2007
▁product	-10.2008
han	-10.2008
▁shaped	-10.2011
▁slave	-10.2016
▁homes	-10.2017
▁survey	-10.2018
que	-10.2027
▁Massachusetts	-10.2031
▁strateg	-10.2034
▁distinguish	-10.2038
▁Public	-10.2041
ran	-10.2047
ru	-10.205
▁Boy	-10.2053
▁awards	-10.206
ski	-10.2064
▁settl	-10.2064
▁en	-10.2068
▁journey	-10.2071
oc	-10.2074
▁compet	-10.2076
▁praise	-10.2077
▁am	-10.2078
▁54	-10.2086
▁rat	-10.2093
▁depth	-10.2094
▁transfer	-10.2098
▁cited	-10.2105
▁watched	-10.2108
▁driv	-10.2112
▁internal	-10.212
▁planning	-10.2126
▁settlement	-10.2126
U	-10.2139
▁stadium	-10.2139
▁knowledge	-10.2148
▁description	-10.2149
wa	-10.2152
▁reserve	-10.2153
▁possibilit	-10.2155
▁1948	-10.2156
▁Dark	-10.216
▁path	-10.216
▁Video	-10.2164
▁layer	-10.2171
▁distribution	-10.2175
▁distinct	-10.2179
▁southwest	-10.2182
▁missing	-10.2184
▁existence	-10.2187
▁56	-10.2192
▁roof	-10.2198
▁register	-10.2198
▁throw	-10.2202
▁About	-10.221
ated	-10.2215
▁genre	-10.2217
▁rich	-10.2217
▁Imperial	-10.2234
▁responded	-10.2236
▁connected	-10.2239
ho	-10.2242
▁statement	-10.2248
mp	-10.2254
▁Main	-10.2262
▁regions	-10.2263
▁letters	-10.2271
▁sustained	-10.2273
▁1978	-10.2274
▁fresh	-10.2293
▁Moore	-10.2296
▁price	-10.2296
ino	-10.2298
▁dismiss	-10.23
▁debate	-10.2303
▁candidate	-10.2306
▁reasons	-10.2309
▁surround	-10.2314
▁baseball	-10.2315
▁entitl	-10.2317
ever	-10.2319
▁reading	-10.2319
▁buried	-10.2329
▁committ	-10.2334
▁assum	-10.2335
▁Byzantine	-10.2336
▁Even	-10.2341
▁safet	-10.2345
lan	-10.2347
ung	-10.2354
▁moderate	-10.2357
▁Olympics	-10.2358
▁recruit	-10.236
▁collected	-10.2362
▁Age	-10.2367
▁carrying	-10.2368
▁promote	-10.2368
▁Justice	-10.237
▁festival	-10.2372
uk	-10.2375
▁Director	-10.238
▁1915	-10.2381
▁Sunday	-10.2384
▁Pe	-10.2387
▁Naval	-10.2392
▁shoot	-10.2393
▁bird	-10.2395
he	-10.2411
▁landfall	-10.2413
▁Sydney	-10.2416
▁Arab	-10.2431
capable	-10.2437
▁1977	-10.2443
▁charts	-10.2446
▁symbol	-10.2448
▁Pop	-10.2449
▁technical	-10.2449
▁stopp	-10.245
▁Poland	-10.245
▁earlie	-10.2458
▁Recording	-10.2461
▁Jay	-10.2462
▁Hu	-10.247
▁700	-10.247
▁afterward	-10.247
▁Sound	-10.2471
▁bowl	-10.2473
▁Maryland	-10.2473
▁brand	-10.2481
▁Simpsons	-10.2483
▁learned	-10.2492
▁MTV	-10.2492
ee	-10.2495
▁opera	-10.2495
▁wild	-10.2498
▁53	-10.2503
▁scheme	-10.2514
▁turning	-10.2518
▁repair	-10.2526
con	-10.2527
▁equal	-10.2527
▁credited	-10.2533
▁violence	-10.2536
per	-10.2536
▁none	-10.254
▁winner	-10.2545
▁1963	-10.2546
▁cells	-10.2549
▁Ti	-10.255
▁coastal	-10.2551
▁Theatre	-10.2557
▁Egypt	-10.2559
▁grade	-10.256
▁limit	-10.2571
▁signal	-10.2574
▁hall	-10.258
▁send	-10.2592
ade	-10.2592
▁battery	-10.2594
▁Moon	-10.2602
▁Ca	-10.2605
▁1916	-10.2605
▁argue	-10.2605
▁Col	-10.2606
▁wealth	-10.261
▁inter	-10.2613
▁Simon	-10.2614
▁Alan	-10.2614
▁skin	-10.2614
▁sites	-10.2625
▁politics	-10.2625
á	-10.2632
▁Ba	-10.2637
▁Gordon	-10.2645
tor	-10.2648
ini	-10.2652
▁supplies	-10.2652
▁tall	-10.2652
▁independence	-10.2656
▁brothers	-10.2657
▁Bi	-10.2659
▁evening	-10.2666
▁Ross	-10.2667
▁struggle	-10.2678
▁Da	-10.2679
▁rescue	-10.2683
▁Just	-10.2687
▁bottom	-10.2693
▁transition	-10.2693
▁rules	-10.2696
▁Mulder	-10.2699
▁animat	-10.2703
▁items	-10.271
ett	-10.2712
▁Songs	-10.2712
▁classic	-10.2717
▁showing	-10.2733
▁finding	-10.2734
ther	-10.2735
▁Stadium	-10.2735
▁Space	-10.2736
▁Per	-10.2742
▁delivered	-10.2745
▁prompt	-10.2747
port	-10.2751
▁indicated	-10.2755
▁1919	-10.2761
▁76	-10.2761
▁1962	-10.2762
gg	-10.2763
X	-10.2766
▁campus	-10.2766
▁civilian	-10.2773
jo	-10.2773
▁titles	-10.2778
▁catch	-10.278
▁Your	-10.2782
▁equipp	-10.2784
▁employee	-10.2789
▁Fire	-10.279
▁Albert	-10.2792
▁parties	-10.28
▁producing	-10.2801
▁multi	-10.2811
▁fun	-10.2816
▁Lu	-10.2816
▁cars	-10.2822
om	-10.2826
stone	-10.2826
ory	-10.2827
▁ends	-10.2834
▁Prior	-10.2834
▁exit	-10.2838
▁observation	-10.2839
▁Research	-10.2844
▁nomination	-10.285
▁ridge	-10.2851
▁flank	-10.2854
▁Water	-10.286
▁1938	-10.2862
▁heads	-10.2864
▁studi	-10.2864
▁Band	-10.2869
▁bought	-10.2873
▁seasons	-10.2875
▁fac	-10.2882
▁Rome	-10.2896
▁Critical	-10.2899
▁powers	-10.29
▁knots	-10.291
▁replacement	-10.2914
▁w	-10.2915
▁Head	-10.2915
▁essential	-10.2917
▁crime	-10.292
▁ago	-10.2921
▁relief	-10.2927
▁adapted	-10.2927
▁deploy	-10.2933
▁Va	-10.2934
▁online	-10.2935
▁protein	-10.2936
▁boundar	-10.2941
▁download	-10.2944
▁Power	-10.2944
▁bigge	-10.2948
▁premiere	-10.295
▁tank	-10.2954
▁substantial	-10.2957
▁models	-10.2962
▁owner	-10.2963
▁projects	-10.2964
ical	-10.2967
▁shell	-10.2984
▁Memorial	-10.2993
▁Free	-10.2995
▁Play	-10.2996
▁factor	-10.3
▁kingdom	-10.3003
gan	-10.3004
▁controversy	-10.3018
▁handle	-10.3027
▁Beach	-10.3028
▁spirit	-10.3032
▁equivalent	-10.3035
ny	-10.3038
▁Ha	-10.3039
▁component	-10.304
▁headed	-10.3042
▁Tony	-10.3042
▁academic	-10.3042
▁partner	-10.3043
▁duty	-10.3053
▁Kent	-10.3055
▁66	-10.3057
▁cent	-10.307
▁survived	-10.3077
▁mode	-10.308
▁Adam	-10.308
po	-10.3081
▁1956	-10.3083
▁Arts	-10.3084
▁spot	-10.3086
ence	-10.3089
▁Revolution	-10.3095
▁everyth	-10.3097
ou	-10.3098
▁fort	-10.3102
▁actress	-10.3103
▁Kong	-10.3108
▁note	-10.3109
▁views	-10.3109
spread	-10.311
▁recalled	-10.3112
▁Tu	-10.3112
▁entry	-10.3119
▁engineer	-10.3121
▁establishment	-10.3121
▁details	-10.3121
▁global	-10.3124
▁sufficient	-10.3127
▁Norman	-10.3127
coming	-10.3129
▁Hungarian	-10.3129
aw	-10.3137
▁Iron	-10.3138
▁worth	-10.314
▁remainder	-10.315
▁hotel	-10.3153
▁departure	-10.316
▁sets	-10.3163
ver	-10.3163
▁Douglas	-10.3164
▁Plot	-10.3165
▁airport	-10.3167
▁relations	-10.3169
▁manner	-10.317
▁admitted	-10.3175
▁ill	-10.3179
▁breeding	-10.318
▁1936	-10.318
▁Hamilton	-10.3184
▁IGN	-10.3192
▁convoy	-10.3194
▁Philip	-10.3209
▁Adams	-10.3209
▁installed	-10.321
▁Bush	-10.3211
▁classification	-10.322
▁Singles	-10.3222
▁drop	-10.3223
▁preparation	-10.3233
▁UTC	-10.3233
▁arm	-10.3248
▁income	-10.3255
▁Sky	-10.3264
▁Mountain	-10.3264
▁tanks	-10.3266
▁Cap	-10.3268
ure	-10.3285
▁Kennedy	-10.3288
▁union	-10.3288
▁wish	-10.3295
▁drug	-10.3296
▁engines	-10.3298
▁armour	-10.3301
▁Death	-10.3301
▁1961	-10.3301
▁meters	-10.3304
▁Howard	-10.3311
▁intention	-10.3317
▁instance	-10.3318
▁Science	-10.3318
▁emotional	-10.3319
▁stages	-10.332
▁accus	-10.3322
8	-10.3333
▁NBA	-10.3342
▁youth	-10.3348
▁buy	-10.3349
▁Jo	-10.335
▁secur	-10.335
ani	-10.3354
▁57	-10.3357
▁WWE	-10.3364
▁importanc	-10.3366
▁Te	-10.3372
▁1953	-10.3378
▁picture	-10.3382
▁rival	-10.3383
▁Today	-10.3385
▁FA	-10.3386
▁attain	-10.3386
▁rose	-10.3388
▁duties	-10.3392
▁Hitler	-10.3393
▁humans	-10.3395
▁58	-10.3397
▁Military	-10.3397
▁programs	-10.3398
▁Roger	-10.3401
▁rural	-10.3403
▁connection	-10.3412
▁someone	-10.3414
▁Ken	-10.3418
▁Magazine	-10.3418
▁Five	-10.3419
▁remember	-10.3423
▁eighth	-10.3433
▁decrease	-10.3433
▁designer	-10.3434
▁Initial	-10.3436
▁Project	-10.3438
▁lift	-10.3441
▁generation	-10.3448
▁heat	-10.3448
▁writes	-10.3462
▁pattern	-10.3464
▁Indiana	-10.3464
▁Lo	-10.3468
▁hip	-10.3469
▁ensure	-10.3473
▁identity	-10.3475
▁Design	-10.3475
fa	-10.3476
▁attribut	-10.3487
▁Ch	-10.3496
ara	-10.3496
▁Scully	-10.3506
▁segment	-10.3506
▁freedom	-10.3509
▁Norwegian	-10.3513
▁recognition	-10.3513
▁products	-10.3515
▁Sal	-10.3515
▁1947	-10.3517
▁champion	-10.3519
▁regional	-10.352
▁alter	-10.3522
▁sections	-10.3534
▁conclusion	-10.3534
▁patrol	-10.3535
▁fly	-10.3538
▁Back	-10.354
▁measure	-10.3542
▁climate	-10.3545
▁lose	-10.3548
▁Germans	-10.355
▁Santa	-10.3558
▁1958	-10.3558
▁generat	-10.3562
▁Max	-10.3566
▁towns	-10.3566
ney	-10.357
▁dog	-10.3582
▁exercise	-10.3587
▁convention	-10.3588
▁Mexican	-10.3589
▁Media	-10.3589
▁1910	-10.359
▁references	-10.3596
▁glass	-10.3603
▁belt	-10.3605
▁describing	-10.3605
▁dated	-10.3605
▁Hav	-10.3605
▁1957	-10.3608
▁achieve	-10.3618
▁Assembly	-10.362
▁enemies	-10.362
▁corner	-10.3626
▁soul	-10.3628
▁deriv	-10.3628
▁Ryan	-10.3638
▁ticket	-10.3639
▁1937	-10.364
▁Mu	-10.3641
▁determine	-10.3643
▁certifi	-10.3646
▁males	-10.3652
▁objects	-10.3659
▁Ta	-10.3663
gi	-10.3676
▁slowly	-10.3681
▁130	-10.3683
▁visitor	-10.3687
▁Cleveland	-10.3689
▁Illinois	-10.3691
▁Rolling	-10.3693
▁Oregon	-10.3694
▁experienc	-10.3695
▁Girl	-10.3695
▁Si	-10.3705
▁classes	-10.3706
▁restaurant	-10.371
▁judge	-10.3711
▁medal	-10.3717
▁waters	-10.3717
▁hits	-10.3717
▁cool	-10.3723
▁Master	-10.3726
▁attached	-10.3733
▁Ga	-10.3738
▁deem	-10.3748
▁Six	-10.3761
▁regiment	-10.3762
▁Dean	-10.3764
▁Ke	-10.3768
▁Carl	-10.377
▁news	-10.3772
▁Arsenal	-10.3774
tra	-10.3779
▁Review	-10.3781
▁cycle	-10.3783
▁correct	-10.3787
▁laws	-10.3789
▁1959	-10.3793
▁circulation	-10.3793
▁atmosphere	-10.3795
▁Ro	-10.3795
▁Family	-10.38
▁origin	-10.3801
▁Marine	-10.3801
▁behavior	-10.3807
▁Forest	-10.3809
▁favorite	-10.381
▁obtained	-10.3812
▁highlight	-10.3813
▁Stanley	-10.3814
▁surviv	-10.3815
▁Weekly	-10.3816
▁van	-10.382
▁vessels	-10.3821
▁acid	-10.3823
▁du	-10.3824
▁acclaim	-10.3824
▁Bruce	-10.3825
▁foundation	-10.3827
▁intelligence	-10.3833
▁Third	-10.3835
▁theatre	-10.3836
▁terminus	-10.3843
▁lay	-10.3844
▁valley	-10.3846
▁denied	-10.3852
▁literar	-10.3855
▁wearing	-10.3856
▁Kevin	-10.3857
▁Mediterranean	-10.3862
▁successor	-10.3867
▁inspiration	-10.387
▁Andy	-10.387
▁interested	-10.3871
SBN	-10.3878
▁opposite	-10.3882
▁Command	-10.3891
▁charg	-10.3893
▁Beatles	-10.3896
▁1955	-10.3898
▁insist	-10.39
▁supposed	-10.3904
▁prey	-10.3904
▁1954	-10.3906
▁Bristol	-10.3908
▁Channel	-10.3913
▁Morgan	-10.3914
▁funds	-10.3915
▁Release	-10.3916
▁Bishop	-10.3918
▁hill	-10.3921
▁criminal	-10.3921
▁citizens	-10.3926
▁downtown	-10.3926
▁places	-10.393
▁72	-10.3931
▁62	-10.3935
▁Temple	-10.3944
▁Del	-10.3946
▁completion	-10.3958
▁page	-10.3959
▁super	-10.3959
▁moral	-10.396
▁images	-10.3964
▁designs	-10.3965
▁continu	-10.397
▁61	-10.3971
▁Premier	-10.3972
▁operate	-10.3974
▁doctor	-10.3983
▁feeling	-10.3984
▁Tim	-10.3995
▁shipp	-10.4
▁merchant	-10.4
▁Allen	-10.4001
▁predict	-10.4002
▁Anne	-10.4006
▁province	-10.4008
▁thirty	-10.4008
▁warm	-10.4015
▁sole	-10.4015
▁possession	-10.4017
▁answer	-10.4022
▁Korea	-10.4022
▁interior	-10.4024
▁founder	-10.4028
▁benefit	-10.403
▁UN	-10.4042
▁Fame	-10.4044
▁shar	-10.4047
ić	-10.405
▁sort	-10.405
▁destruction	-10.4054
▁begun	-10.4057
▁Jeff	-10.4058
▁passage	-10.4074
▁brain	-10.4075
▁concerned	-10.4076
▁assistance	-10.4076
▁Nick	-10.4082
▁outer	-10.4085
▁th	-10.4092
over	-10.4095
▁Robinson	-10.4099
▁sport	-10.4103
min	-10.4107
▁Within	-10.4107
▁participate	-10.4109
▁cruiser	-10.4112
▁Lisa	-10.4123
▁venue	-10.4126
▁association	-10.4127
▁Pi	-10.4127
▁Jan	-10.4127
▁tied	-10.4132
▁110	-10.4132
▁trad	-10.4142
▁electronic	-10.4144
▁Sch	-10.4146
most	-10.4151
▁premier	-10.4152
▁wickets	-10.4152
▁alleged	-10.416
▁switch	-10.4161
▁properties	-10.4162
▁creator	-10.4162
▁impress	-10.4175
▁massive	-10.4183
▁1952	-10.4184
▁Bad	-10.4186
▁chorus	-10.4197
▁Wa	-10.42
▁59	-10.4203
▁speaking	-10.4203
▁vehicle	-10.4204
▁march	-10.4209
▁collapse	-10.421
▁ready	-10.4212
▁gather	-10.4218
▁Po	-10.422
AAF	-10.4221
▁Ann	-10.4223
▁dates	-10.4223
▁garrison	-10.4225
▁Horse	-10.4229
▁Francis	-10.4229
▁finishing	-10.4232
▁alien	-10.4236
▁incorporated	-10.4239
▁passengers	-10.4245
▁cavalry	-10.4248
▁Now	-10.4249
ari	-10.4251
▁ride	-10.4252
▁mark	-10.4256
▁credit	-10.4258
▁Unlike	-10.4262
▁lands	-10.4263
▁dissipat	-10.4265
▁roll	-10.4265
▁shore	-10.4267
▁differ	-10.4269
our	-10.4271
▁Winter	-10.4274
▁Television	-10.4279
▁narrative	-10.4279
▁Ki	-10.4279
▁1933	-10.428
▁Construction	-10.4281
di	-10.4283
▁females	-10.4284
▁Similar	-10.429
▁romantic	-10.4293
▁Around	-10.4301
án	-10.4303
▁recovered	-10.4308
▁touchdown	-10.431
▁circle	-10.4323
▁distribut	-10.4325
▁lake	-10.4326
▁classified	-10.4328
▁Nelson	-10.4329
▁honour	-10.4331
▁bands	-10.4332
▁schedule	-10.4346
▁stretch	-10.4347
▁Eric	-10.4349
▁pack	-10.4351
▁expos	-10.4353
▁ranking	-10.4357
mann	-10.4358
▁effectively	-10.4362
▁spoke	-10.4373
▁sand	-10.4373
▁minister	-10.4374
▁weapon	-10.4374
▁Patrick	-10.4374
tin	-10.4378
▁Pa	-10.438
▁door	-10.4383
▁Jane	-10.4396
▁1935	-10.4398
▁dominat	-10.4401
▁99	-10.4405
▁Sweden	-10.4405
ez	-10.4408
▁Pan	-10.4411
▁eleven	-10.4412
▁Tower	-10.4414
▁Finn	-10.4415
▁Bas	-10.4417
▁regularly	-10.4417
▁Welsh	-10.4425
▁monument	-10.4426
▁1949	-10.4435
▁basketball	-10.4437
▁compete	-10.4437
▁collect	-10.444
▁1951	-10.4446
▁routes	-10.4454
▁Toronto	-10.4454
▁Pat	-10.4471
▁Inter	-10.4473
ev	-10.4478
▁stood	-10.4479
▁patient	-10.4481
▁charges	-10.4485
▁outbreak	-10.4486
▁die	-10.4496
ata	-10.4506
▁Mel	-10.4511
▁96	-10.4511
▁protagonist	-10.4514
▁AD	-10.4514
cy	-10.4515
▁animation	-10.4519
▁Par	-10.4519
▁strip	-10.452
▁aboard	-10.4524
▁63	-10.4524
▁memory	-10.4525
▁inner	-10.4537
▁load	-10.4539
ica	-10.4548
▁reality	-10.4553
▁Ford	-10.4562
▁Jordan	-10.4563
ette	-10.4565
▁Netherlands	-10.4571
▁sale	-10.4574
ö	-10.4576
what	-10.4576
ap	-10.4578
▁obtain	-10.4578
▁bound	-10.458
▁fictional	-10.4582
▁vision	-10.4582
pi	-10.4584
▁Sports	-10.4589
▁step	-10.4591
▁Hospital	-10.4591
cha	-10.4593
▁plane	-10.4595
sis	-10.4596
▁adaptation	-10.4596
▁Nations	-10.4596
ita	-10.4598
▁communities	-10.4603
▁controversial	-10.4611
▁Here	-10.4612
▁separated	-10.4614
▁colour	-10.4616
▁Ron	-10.4627
▁classical	-10.4633
▁restored	-10.4641
▁Morris	-10.4641
▁differences	-10.4651
▁hot	-10.4654
tan	-10.4655
▁anniversary	-10.4658
í	-10.4663
bu	-10.4664
▁submarine	-10.4664
formula	-10.4675
▁sharp	-10.4675
ura	-10.468
▁injuries	-10.4681
▁architecture	-10.4682
▁Jews	-10.4682
temporary	-10.4684
▁ray	-10.4686
▁1900	-10.4688
ric	-10.4693
▁methods	-10.4693
borne	-10.47
▁soil	-10.4704
▁Croatian	-10.4706
▁missions	-10.4722
ps	-10.4726
▁express	-10.4727
▁grounds	-10.4728
▁throne	-10.4728
▁solid	-10.4735
▁Russell	-10.4737
▁Centre	-10.4737
▁Wright	-10.4737
▁penalty	-10.4738
▁absence	-10.474
je	-10.4742
hroughout	-10.4744
▁involvement	-10.4751
rew	-10.4751
▁passenger	-10.4751
▁Ver	-10.4756
▁delay	-10.4757
▁consistent	-10.4757
▁fil	-10.4765
▁cloth	-10.4766
▁twin	-10.4766
▁Anna	-10.4767
▁tries	-10.477
▁earth	-10.477
▁fighter	-10.4777
▁giant	-10.4781
▁batting	-10.4782
▁crosses	-10.4785
▁apart	-10.4791
▁cancer	-10.4794
▁discovery	-10.4802
▁documentary	-10.481
▁worst	-10.481
▁Kim	-10.4812
▁DE	-10.4818
▁Late	-10.4823
▁delayed	-10.4823
▁reviewer	-10.4825
▁snow	-10.4827
▁Maria	-10.483
▁Class	-10.4834
▁77	-10.4834
▁Thompson	-10.4846
▁criticis	-10.486
▁athlete	-10.4867
▁68	-10.4868
▁eliminat	-10.4875
▁weekend	-10.4877
▁colonial	-10.4881
▁intense	-10.4885
ich	-10.4887
▁exhibit	-10.4889
yl	-10.489
▁Down	-10.4895
▁Knight	-10.4897
ub	-10.4897
▁f	-10.4898
▁Federal	-10.4899
▁chairman	-10.4899
▁Puerto	-10.4899
▁Last	-10.4904
▁category	-10.4905
▁NFL	-10.4906
ik	-10.4906
zi	-10.4906
▁Carter	-10.4908
ington	-10.4912
▁library	-10.4923
▁govern	-10.4928
▁chain	-10.4932
▁Modern	-10.4932
ep	-10.4934
▁Commander	-10.4944
▁residence	-10.4945
▁94	-10.4947
▁medieval	-10.4953
▁requirement	-10.4957
▁Ball	-10.4958
ud	-10.4964
▁presidential	-10.4965
▁genetic	-10.4965
▁Kelly	-10.4971
▁Constitution	-10.4982
▁Alex	-10.4987
▁Phil	-10.4988
▁resources	-10.4995
▁canal	-10.4997
▁politician	-10.501
▁fitted	-10.5011
▁67	-10.5012
▁78	-10.5015
▁retirement	-10.5017
▁74	-10.5018
▁Along	-10.5019
▁ninth	-10.5022
▁profit	-10.5025
▁Network	-10.5028
▁Cor	-10.5034
▁musicians	-10.5037
back	-10.5038
▁gate	-10.5047
▁siege	-10.5053
▁87	-10.5054
▁rang	-10.5062
▁orbit	-10.5073
▁Police	-10.5074
▁ways	-10.5075
▁arrangement	-10.5079
▁Berlin	-10.508
hi	-10.5081
▁ratings	-10.5087
we	-10.5088
▁1913	-10.5091
▁Parker	-10.5092
▁revenue	-10.5092
ada	-10.5095
▁estimate	-10.5095
▁Simpson	-10.5096
shire	-10.5098
▁82	-10.5102
▁else	-10.5102
▁convection	-10.5104
▁160	-10.5112
▁Batman	-10.5128
▁dating	-10.5132
gate	-10.5136
▁Thus	-10.5145
▁visible	-10.5146
▁1927	-10.5148
▁carrier	-10.5149
▁emergenc	-10.5149
▁Silver	-10.515
▁Cal	-10.5153
▁stable	-10.5154
▁negotiation	-10.5159
▁1926	-10.516
▁shots	-10.5162
ip	-10.5163
▁pure	-10.5166
▁mix	-10.517
▁Palace	-10.5172
▁costs	-10.5175
▁Murray	-10.5182
ren	-10.5183
▁spin	-10.5184
▁code	-10.5184
▁Library	-10.5193
▁facility	-10.5193
▁falling	-10.5197
▁colony	-10.5199
▁modified	-10.5215
▁1934	-10.5215
▁1921	-10.5216
▁everyone	-10.5216
▁grand	-10.5219
work	-10.5223
▁legislation	-10.5224
▁DNA	-10.5225
▁mental	-10.5231
▁engagement	-10.5238
▁Education	-10.5242
gu	-10.5244
▁Commonwealth	-10.5245
▁Ja	-10.5247
▁environmental	-10.525
▁Dream	-10.5251
tenance	-10.5252
ala	-10.5253
▁remove	-10.5253
▁clean	-10.5253
▁Gen	-10.5254
ble	-10.5259
ib	-10.5262
neath	-10.5266
▁dialogue	-10.527
▁Houston	-10.527
▁Asian	-10.5271
▁shark	-10.5273
▁frame	-10.5274
▁Corporation	-10.5276
▁Ban	-10.5277
▁deliver	-10.5277
▁da	-10.5278
▁techniques	-10.5281
▁Track	-10.5281
che	-10.5284
▁gone	-10.5285
ken	-10.5294
off	-10.5298
▁divisions	-10.5305
▁designation	-10.5309
▁sponsor	-10.5309
▁Warner	-10.5314
▁chemical	-10.5316
▁See	-10.5318
▁gay	-10.5319
▁anyone	-10.5322
▁suffering	-10.5323
▁1912	-10.5328
▁folk	-10.5341
▁mere	-10.5341
▁materials	-10.5343
▁sudden	-10.5344
isation	-10.5345
▁populations	-10.5347
▁monarch	-10.5347
▁railroad	-10.5353
▁hear	-10.5356
▁characteristics	-10.5359
▁lies	-10.5361
▁frequent	-10.5361
vin	-10.5365
▁USA	-10.5369
▁girls	-10.5369
▁Samuel	-10.5375
▁huge	-10.5379
▁stands	-10.5379
▁Swedish	-10.5382
▁phone	-10.5384
▁eggs	-10.5388
▁emperor	-10.5394
pp	-10.5395
▁sector	-10.5401
▁1932	-10.5405
▁votes	-10.5409
▁bus	-10.5411
▁colleague	-10.5413
▁intersect	-10.5423
▁check	-10.5423
▁accounts	-10.543
▁Heart	-10.5433
▁belong	-10.5435
▁Guy	-10.544
av	-10.5444
▁historic	-10.5447
▁closer	-10.5451
▁Gaga	-10.5456
▁69	-10.5456
▁Medal	-10.5456
▁preced	-10.5456
▁universe	-10.5457
▁seeing	-10.5462
▁Anthon	-10.5463
▁poet	-10.5464
▁superior	-10.5478
▁require	-10.548
▁Tri	-10.5483
▁exception	-10.5485
▁implement	-10.5487
▁graphics	-10.5488
▁streets	-10.5496
▁movements	-10.5497
▁98	-10.5497
▁Israel	-10.5501
▁Pope	-10.5505
▁Holy	-10.5507
▁hero	-10.551
ena	-10.5511
▁bow	-10.5515
▁beautiful	-10.5517
▁sleep	-10.5518
▁understand	-10.5519
▁Jason	-10.5521
▁difference	-10.5523
▁adults	-10.5523
▁NBC	-10.5524
▁Fe	-10.5527
▁explosion	-10.553
▁Angel	-10.5532
pped	-10.5536
▁struggl	-10.5539
▁Democrat	-10.5542
▁influential	-10.5548
▁manage	-10.5548
ex	-10.555
▁developer	-10.5555
▁Ya	-10.5557
▁attempting	-10.5558
▁chapter	-10.5565
ular	-10.5566
▁73	-10.5566
▁tone	-10.557
▁Ku	-10.557
▁Mad	-10.5572
▁occupation	-10.5574
ach	-10.5577
▁Sh	-10.5577
▁RAF	-10.5577
▁professor	-10.5578
ile	-10.558
▁Gilbert	-10.5581
▁format	-10.5583
▁Detroit	-10.5584
▁Writing	-10.5584
▁Cooper	-10.5585
▁costume	-10.5587
▁doubt	-10.559
▁Croatia	-10.559
▁sounds	-10.559
▁88	-10.5593
▁transform	-10.5593
▁wrong	-10.56
▁witness	-10.56
▁affect	-10.5605
▁900	-10.5606
▁qualify	-10.5606
▁Frederick	-10.5613
▁reli	-10.5618
▁squad	-10.5618
▁guilt	-10.5622
her	-10.5622
▁memorial	-10.5622
bury	-10.5624
▁1929	-10.5627
▁involve	-10.5628
▁wooden	-10.563
▁Khan	-10.5633
▁Gun	-10.5635
▁Clinton	-10.5635
▁PA	-10.5638
▁Arm	-10.5644
▁Vice	-10.5645
▁1911	-10.5653
▁device	-10.5663
▁meets	-10.5668
▁chair	-10.5671
▁Mars	-10.5672
▁childhood	-10.5674
▁Race	-10.5689
▁graduat	-10.5694
ax	-10.5696
▁ethnic	-10.5696
▁trust	-10.5702
water	-10.5703
▁79	-10.5704
▁isolat	-10.5704
▁executed	-10.5708
▁Egyptian	-10.5709
▁firing	-10.5712
▁Journal	-10.5713
▁Ju	-10.5721
▁concentration	-10.5724
power	-10.5726
▁pit	-10.5726
▁Lane	-10.5731
▁Princess	-10.5732
▁coat	-10.5734
▁1931	-10.5737
▁ocean	-10.574
▁1922	-10.5743
▁gap	-10.5743
▁91	-10.5744
▁Melbourne	-10.5751
hu	-10.5752
▁Spears	-10.5753
▁card	-10.5753
▁tension	-10.5755
▁Building	-10.5755
▁diameter	-10.5757
led	-10.5761
▁touch	-10.5763
▁afternoon	-10.5764
▁Evans	-10.5766
▁measures	-10.5773
▁hearing	-10.5776
▁Stewart	-10.578
▁tribute	-10.578
▁Jesus	-10.578
▁Nielsen	-10.5784
▁o	-10.5793
▁speak	-10.5794
▁bright	-10.5797
ai	-10.5798
uri	-10.5811
▁Raw	-10.5812
▁trained	-10.5813
▁Human	-10.5817
▁Anglo	-10.582
▁hunting	-10.5821
▁71	-10.5828
▁Colorado	-10.5832
▁Xbox	-10.5836
▁Guard	-10.5841
▁provision	-10.5841
▁Sand	-10.5847
▁Camp	-10.5848
ola	-10.5848
▁victims	-10.5849
▁curve	-10.585
▁Lennon	-10.5852
mon	-10.5853
▁carbon	-10.5854
▁fields	-10.5856
▁fair	-10.5858
▁poll	-10.5862
▁belief	-10.5864
▁Category	-10.5868
▁neck	-10.587
▁talent	-10.5871
▁audio	-10.5873
▁wear	-10.5881
▁radar	-10.5882
▁instruments	-10.5885
▁recover	-10.5886
▁81	-10.5886
▁verse	-10.589
▁footage	-10.589
▁resigned	-10.5892
▁Dave	-10.5904
▁flew	-10.5905
▁lawyer	-10.5906
ven	-10.5906
▁facing	-10.5909
▁sun	-10.591
▁spend	-10.5911
▁vessel	-10.5912
▁preserv	-10.5914
▁ideal	-10.5919
▁deposit	-10.592
tre	-10.5922
▁poetry	-10.5926
▁Turkish	-10.5931
▁experiment	-10.5932
▁preferred	-10.5937
▁Wind	-10.5938
▁Austria	-10.594
▁trail	-10.5941
▁remix	-10.5942
ph	-10.5946
▁Area	-10.5947
▁ruin	-10.5948
▁Sarah	-10.5953
▁extent	-10.5954
▁Foundation	-10.5955
▁collaboration	-10.5959
▁tie	-10.5959
▁Brazil	-10.5966
▁watching	-10.5969
▁violent	-10.5971
▁circuit	-10.5974
▁notabl	-10.5976
▁sons	-10.5978
▁Mill	-10.5985
▁Ham	-10.5987
▁resolution	-10.5991
▁holds	-10.5992
▁Greece	-10.5997
▁junior	-10.5997
▁craft	-10.5997
▁shear	-10.6
▁desert	-10.6002
▁militia	-10.6004
hr	-10.6005
▁accompany	-10.6007
▁Nazi	-10.6009
▁drums	-10.6011
▁promise	-10.6011
▁Austrian	-10.6011
▁confront	-10.6012
▁copy	-10.6014
▁skills	-10.6017
▁debt	-10.6017
▁Story	-10.6019
▁exhibition	-10.602
▁Baltimore	-10.6024
▁window	-10.6029
▁suspend	-10.6034
▁owners	-10.6041
▁hull	-10.6042
▁edit	-10.605
▁thereafter	-10.6051
▁technique	-10.6052
▁enlist	-10.6057
▁beach	-10.6059
▁teeth	-10.6062
▁93	-10.6064
▁charter	-10.6072
ano	-10.6074
▁considerabl	-10.6075
▁erect	-10.6085
▁vice	-10.6086
▁offering	-10.609
▁Guardian	-10.6093
▁Mario	-10.6094
▁Mal	-10.6094
▁Val	-10.6097
▁interpret	-10.6097
▁sentence	-10.6099
▁97	-10.6101
▁upgrad	-10.6101
▁authors	-10.6102
▁disaster	-10.6104
▁encourag	-10.6108
▁Garden	-10.611
▁140	-10.6128
▁Wing	-10.6129
▁Iowa	-10.6129
▁starts	-10.6131
▁Dance	-10.6133
▁Marshall	-10.614
▁Harris	-10.6142
▁easy	-10.6144
▁Wrestling	-10.6145
▁Somerset	-10.6145
▁shock	-10.6147
▁continuous	-10.615
▁Through	-10.6155
▁interests	-10.6159
▁moves	-10.6162
▁factors	-10.6169
▁standards	-10.617
▁opponents	-10.6173
▁stem	-10.6178
▁margin	-10.6181
bar	-10.6181
▁territories	-10.6182
▁taught	-10.6182
sk	-10.6184
▁publisher	-10.6184
▁instrumental	-10.619
▁Fair	-10.6194
fer	-10.6202
▁alternate	-10.6209
▁1928	-10.6211
▁junction	-10.6212
▁happy	-10.6212
▁Canal	-10.6216
▁learning	-10.6225
▁identify	-10.6226
▁import	-10.6226
▁column	-10.6227
▁soft	-10.6227
▁l	-10.6233
▁withdrew	-10.624
▁alliance	-10.6243
▁sit	-10.6248
▁journal	-10.6249
▁legs	-10.625
▁sure	-10.6252
residential	-10.6257
▁creative	-10.626
▁prize	-10.6261
▁representative	-10.6262
▁Albums	-10.6264
▁trace	-10.6265
▁Every	-10.6268
▁ballad	-10.6269
▁Miami	-10.6274
▁creature	-10.6276
▁recognis	-10.6282
▁alignment	-10.6284
▁1925	-10.6289
▁86	-10.6292
▁84	-10.6293
▁Soon	-10.6294
▁salt	-10.6296
▁northward	-10.6297
▁Confederate	-10.6298
▁Peninsula	-10.6298
▁Jon	-10.6299
▁Open	-10.6308
▁loop	-10.6312
▁1890	-10.6313
▁safe	-10.6319
car	-10.6322
▁dangerous	-10.633
▁teammate	-10.6331
▁wedding	-10.6337
▁satellite	-10.6339
▁Senator	-10.6342
▁elections	-10.6343
▁permission	-10.6343
gency	-10.6344
▁interpretation	-10.6344
▁pain	-10.6346
▁Mi	-10.6349
▁medium	-10.6353
▁simultaneous	-10.6356
▁Cat	-10.6357
ula	-10.6357
▁crisis	-10.6367
▁Ministr	-10.637
light	-10.6374
▁choose	-10.6377
▁Hart	-10.6377
▁Pass	-10.6378
▁tourist	-10.6382
ize	-10.639
▁Seattle	-10.6391
▁1924	-10.6396
▁shelter	-10.6398
▁pace	-10.6401
▁withdraw	-10.6402
▁conservative	-10.6403
▁Bra	-10.6403
▁wrestl	-10.6404
▁boiler	-10.6406
▁der	-10.6407
▁whereas	-10.6413
sky	-10.6419
mb	-10.642
▁Yo	-10.642
body	-10.6428
▁thin	-10.6432
▁Trek	-10.6432
▁veteran	-10.6436
9	-10.6439
▁testing	-10.6443
▁Treaty	-10.6443
ological	-10.6446
▁Front	-10.6449
▁cruisers	-10.645
▁crown	-10.645
▁advice	-10.6453
▁Alabama	-10.646
▁Fi	-10.6461
▁Ian	-10.6461
▁Giants	-10.6461
▁sing	-10.6462
▁apartment	-10.6465
har	-10.6466
red	-10.6472
citing	-10.6481
ella	-10.6484
ology	-10.6486
▁platinum	-10.6488
▁bypass	-10.649
▁engineering	-10.6502
▁diet	-10.6504
▁mainstream	-10.6504
▁policies	-10.6506
▁difficulties	-10.6508
▁submitt	-10.6509
▁Charlie	-10.6509
▁prime	-10.6509
▁Key	-10.651
idae	-10.6513
▁Let	-10.6514
▁clubs	-10.6517
▁rarely	-10.6518
▁Native	-10.6522
▁Caribbean	-10.6523
ori	-10.6532
▁personality	-10.6533
▁Run	-10.6535
▁illegal	-10.654
▁spending	-10.6544
▁needs	-10.6555
lu	-10.6558
▁pounds	-10.656
▁Lawrence	-10.6565
▁Real	-10.6565
▁reviewers	-10.6566
▁drawing	-10.6566
▁specimens	-10.6573
▁1923	-10.6573
▁Hero	-10.6574
istic	-10.6575
▁Minnesota	-10.6576
▁toll	-10.6578
▁suicide	-10.6579
▁forcing	-10.6579
▁nest	-10.658
▁scholars	-10.6583
▁Bu	-10.6584
▁existed	-10.6585
▁le	-10.6587
▁elder	-10.6595
▁balance	-10.6596
dale	-10.6603
▁tunnel	-10.6609
▁demonstrat	-10.6609
shi	-10.6611
▁appointment	-10.6613
ec	-10.6614
▁Apple	-10.6616
bi	-10.6616
▁survive	-10.6618
▁loan	-10.6621
iv	-10.6622
▁Crown	-10.6623
▁USS	-10.6626
▁smooth	-10.6629
▁Township	-10.6629
low	-10.663
▁PC	-10.6632
▁evolution	-10.6632
▁Dead	-10.6635
▁attitude	-10.6639
▁emphasis	-10.6639
▁approval	-10.6643
▁dynasty	-10.6646
▁compilation	-10.6648
dding	-10.6653
▁li	-10.6655
▁vertical	-10.6658
▁89	-10.6659
aki	-10.6663
▁faith	-10.6664
▁justice	-10.6664
▁dream	-10.6664
▁minimum	-10.6664
▁pursu	-10.6666
▁Ram	-10.6669
▁appropriate	-10.6671
▁false	-10.6675
ward	-10.6676
▁Yu	-10.6676
▁perspective	-10.6678
▁Hotel	-10.6682
▁hockey	-10.6685
▁spiritual	-10.6686
▁finale	-10.6692
ative	-10.67
▁Hi	-10.67
▁notice	-10.6704
▁tenth	-10.6705
▁Grammy	-10.6707
▁Matthew	-10.6708
▁Hungary	-10.6714
▁graduate	-10.6717
▁neighborhood	-10.6718
▁Health	-10.6721
van	-10.6722
▁housing	-10.6725
▁comments	-10.6726
era	-10.6728
▁Indians	-10.673
▁churches	-10.6735
▁Gar	-10.674
▁Staff	-10.6743
▁Country	-10.6743
▁Hay	-10.6745
▁descend	-10.6749
▁shoulder	-10.675
▁agents	-10.6752
ston	-10.6756
▁palace	-10.6757
▁Christopher	-10.6759
▁Flight	-10.676
▁Return	-10.6761
▁triple	-10.6766
▁monitor	-10.6767
▁landscape	-10.6771
▁adjacent	-10.6774
▁Belgium	-10.6778
▁prepare	-10.6778
▁hat	-10.6783
▁finance	-10.6786
▁knock	-10.6793
▁resum	-10.6795
▁CR	-10.6796
▁funeral	-10.6804
▁teacher	-10.6815
▁Interstate	-10.6818
▁92	-10.682
▁Diego	-10.6822
tri	-10.6823
ku	-10.6827
▁del	-10.6827
▁partnership	-10.6833
▁warn	-10.6834
▁Guide	-10.6834
▁Walker	-10.6843
▁grown	-10.6845
▁map	-10.6848
▁destroyers	-10.6856
▁handed	-10.6858
▁complain	-10.6859
▁aware	-10.6863
▁pitched	-10.6864
▁changing	-10.6865
ball	-10.6869
▁pursue	-10.687
▁beam	-10.6883
▁elevation	-10.6883
▁windows	-10.6886
▁races	-10.6889
▁friendly	-10.689
▁Children	-10.6894
▁disappear	-10.6897
▁Cold	-10.6898
▁victories	-10.6898
▁Seven	-10.6899
▁Vo	-10.6899
ack	-10.69
▁mine	-10.69
yn	-10.6901
▁attendance	-10.6901
ok	-10.6905
▁stress	-10.6907
▁option	-10.6908
▁definition	-10.6909
▁1908	-10.6912
▁Halo	-10.6913
▁bombers	-10.6919
▁elsewhere	-10.692
▁jump	-10.6924
▁1905	-10.6924
▁wings	-10.6928
▁bat	-10.693
▁arc	-10.693
tter	-10.693
▁Benjamin	-10.6931
▁argument	-10.6934
▁How	-10.6935
▁evil	-10.6935
▁1909	-10.6935
▁Saxon	-10.6937
▁Edge	-10.6938
▁Legacy	-10.6942
▁stick	-10.6942
▁truck	-10.6943
shore	-10.6946
yan	-10.6946
▁percentage	-10.6949
▁operational	-10.6959
▁motor	-10.6962
▁intensifi	-10.6963
▁influences	-10.6964
▁pool	-10.6965
▁aggressive	-10.6967
▁bishop	-10.6971
▁Mississippi	-10.6975
▁lieutenant	-10.6975
▁teaching	-10.6983
▁Hockey	-10.6993
▁opponent	-10.6995
▁priest	-10.6996
▁entertainment	-10.6997
▁fighters	-10.6999
▁span	-10.7001
▁Alfred	-10.7001
▁Roosevelt	-10.7004
▁statue	-10.7007
idden	-10.7008
▁USD	-10.7011
▁originat	-10.7013
▁mount	-10.7014
▁context	-10.7015
ew	-10.7021
▁rush	-10.7026
▁Born	-10.7027
▁scholar	-10.7029
▁languages	-10.7031
▁Manhattan	-10.7033
▁signing	-10.7034
▁evolv	-10.7035
var	-10.7043
▁advisor	-10.7045
▁Bel	-10.7048
▁Hong	-10.705
▁cat	-10.7052
▁Chronicle	-10.7054
▁concrete	-10.7059
▁danger	-10.7066
pt	-10.7066
▁absorb	-10.7067
▁construct	-10.7067
▁Franklin	-10.7072
▁marry	-10.7085
▁organizations	-10.7085
▁Ali	-10.7089
ram	-10.7092
▁listing	-10.71
▁abuse	-10.7102
▁celebrat	-10.7105
▁Miss	-10.7106
▁scientists	-10.7108
ix	-10.711
▁Ice	-10.7113
▁westward	-10.7117
▁Plan	-10.7124
▁audition	-10.7126
▁Bal	-10.7126
▁1907	-10.7128
▁Kansas	-10.713
▁courts	-10.7151
▁Digital	-10.7152
▁update	-10.7152
▁guide	-10.7156
▁Pu	-10.7156
▁Margaret	-10.7156
▁Roy	-10.7158
▁regain	-10.716
▁Bus	-10.7169
fi	-10.7172
▁Ber	-10.7174
tro	-10.7176
ians	-10.7181
▁accurate	-10.7182
▁impossible	-10.7186
▁Portland	-10.7189
▁Industry	-10.7193
▁survivors	-10.7195
▁credits	-10.7198
▁Die	-10.7199
▁profile	-10.7201
▁Call	-10.7201
▁introduce	-10.7203
▁telling	-10.7204
▁agricultural	-10.7208
▁abilities	-10.7212
uff	-10.7216
▁investment	-10.7216
▁Much	-10.7219
▁Wolf	-10.722
▁Nu	-10.722
▁08	-10.7229
ement	-10.7229
▁boys	-10.7231
▁armament	-10.7239
▁understanding	-10.7246
▁Independent	-10.725
q	-10.725
tes	-10.7253
▁assembl	-10.7253
▁Campbell	-10.7257
▁Gi	-10.7258
▁situat	-10.7261
▁sees	-10.7264
▁1880	-10.7266
▁horror	-10.7276
▁truth	-10.7276
▁orchestra	-10.7279
▁occasion	-10.7281
▁covering	-10.7282
▁Saturday	-10.7284
▁Rob	-10.7286
▁seal	-10.7288
▁dense	-10.7292
▁tests	-10.7293
▁restoration	-10.7303
▁seats	-10.7304
▁oxygen	-10.7306
▁occasions	-10.7306
og	-10.7309
▁communist	-10.7312
▁bombing	-10.7316
board	-10.7317
▁Rick	-10.7317
▁lock	-10.7318
▁Ash	-10.7319
▁rhythm	-10.7322
▁fifteen	-10.7322
ju	-10.7324
gar	-10.7324
▁Sullivan	-10.7324
▁guy	-10.7326
▁labor	-10.7328
craft	-10.7334
▁closing	-10.7339
ise	-10.7341
▁Fa	-10.7348
▁offices	-10.7354
▁Philippines	-10.7355
▁ammunition	-10.7356
▁virtual	-10.7356
▁organ	-10.7357
▁behalf	-10.7359
▁distinctive	-10.7361
▁dancer	-10.7371
▁sank	-10.7372
▁Mer	-10.7374
▁relationships	-10.7382
▁skull	-10.7382
▁con	-10.7384
▁tornado	-10.7386
▁secondar	-10.7388
▁Historic	-10.7388
ó	-10.739
▁proceed	-10.7398
▁concerts	-10.7401
▁Mor	-10.7408
▁execution	-10.741
▁Warren	-10.741
▁Marie	-10.7411
ect	-10.7414
▁legend	-10.742
▁symptoms	-10.742
▁explore	-10.7422
▁resemble	-10.7423
▁Liberal	-10.7433
▁DC	-10.7437
▁panel	-10.744
▁burn	-10.7441
▁Dar	-10.7447
▁paintings	-10.7448
▁ca	-10.745
▁Tar	-10.7453
▁angle	-10.7465
▁sunk	-10.7465
qua	-10.7469
▁Bre	-10.747
Y	-10.7471
▁complet	-10.7473
▁Hell	-10.7474
▁celebration	-10.7477
▁illness	-10.7477
▁cargo	-10.7478
▁scatter	-10.7478
▁Small	-10.7479
▁Wars	-10.7481
▁Bull	-10.7489
▁faction	-10.7497
▁organis	-10.7497
▁Bros	-10.7498
▁bridges	-10.7501
▁Enterprise	-10.7505
let	-10.7511
▁09	-10.7516
wore	-10.7516
▁Ag	-10.7516
▁Graham	-10.7517
▁dramatic	-10.7517
▁Tennessee	-10.7521
wi	-10.7521
▁Louisiana	-10.7521
▁bonus	-10.7521
▁wins	-10.7535
▁underground	-10.7535
▁Honor	-10.7536
▁360	-10.7553
▁1870	-10.7553
▁earthquake	-10.7564
▁regulation	-10.7564
ick	-10.757
▁Labour	-10.7575
▁Depression	-10.7579
▁Missouri	-10.7579
▁interesting	-10.7584
▁mayor	-10.7587
▁1906	-10.7588
▁bear	-10.7589
▁queen	-10.7591
▁grey	-10.7591
▁Gu	-10.7601
▁explain	-10.7606
▁Montreal	-10.7606
▁escap	-10.7613
▁1904	-10.7619
▁loose	-10.7622
▁Tamil	-10.7623
val	-10.7628
▁Ridge	-10.7631
▁communication	-10.7633
▁Season	-10.7634
▁purposes	-10.7636
▁temporari	-10.7638
▁artistic	-10.7639
burn	-10.7642
▁Sp	-10.7644
▁plus	-10.7648
▁guitarist	-10.7648
▁pointed	-10.7651
ü	-10.7652
▁Sar	-10.7661
▁newspapers	-10.7662
▁candidates	-10.7664
▁Week	-10.7664
▁styles	-10.7668
qui	-10.7669
bb	-10.7679
▁Are	-10.7681
▁investigate	-10.7682
▁feed	-10.7682
▁Ge	-10.7686
▁Persian	-10.7688
ged	-10.769
ama	-10.769
▁Harvey	-10.7697
cher	-10.77
▁cult	-10.77
▁Championships	-10.7702
▁jazz	-10.7705
▁Tag	-10.7706
▁brick	-10.7708
▁Mitchell	-10.7709
▁proper	-10.7711
▁drum	-10.7712
▁solution	-10.7714
▁Sen	-10.7716
▁expensive	-10.7716
▁Dragon	-10.7723
▁rates	-10.7724
▁wicket	-10.7726
▁Glen	-10.7728
▁fifty	-10.7728
▁radical	-10.7728
▁Tan	-10.7729
▁degrees	-10.7736
▁strengthen	-10.7738
▁publicly	-10.7741
▁associate	-10.7745
▁Near	-10.7748
▁knee	-10.775
ator	-10.7751
▁administrative	-10.7752
▁artwork	-10.7754
▁forty	-10.7756
▁drove	-10.7757
▁helping	-10.7761
sch	-10.7766
▁Snow	-10.7769
▁typhoon	-10.7772
▁Critics	-10.7774
▁dozen	-10.7777
▁Report	-10.7778
▁Take	-10.7779
bra	-10.7779
▁familiar	-10.778
▁Business	-10.7784
▁permitt	-10.7785
▁bid	-10.7789
▁measured	-10.7796
▁Cuba	-10.7799
lon	-10.7808
▁halt	-10.7808
▁Get	-10.7808
▁inhabitant	-10.7812
▁Box	-10.7813
▁rebuilt	-10.7828
itt	-10.7828
▁imp	-10.7829
▁print	-10.7832
▁meat	-10.7834
▁bronze	-10.7835
▁values	-10.7838
▁parish	-10.7839
▁Cook	-10.7839
▁comparison	-10.7841
▁Billy	-10.7843
▁strict	-10.7844
▁Wild	-10.7846
gon	-10.7847
▁revolt	-10.7847
▁Forces	-10.7853
illa	-10.7869
▁180	-10.7871
▁Fu	-10.7872
fo	-10.7873
▁Sel	-10.7874
▁83	-10.7875
▁disorder	-10.7876
▁clock	-10.7877
WC	-10.7879
▁regime	-10.7879
▁alcohol	-10.7881
▁cancelled	-10.7884
mm	-10.7884
▁Hindu	-10.7885
▁Ex	-10.7887
▁minimal	-10.789
▁runner	-10.789
▁Base	-10.7894
▁coverage	-10.7895
▁x	-10.7895
▁racing	-10.79
▁colonie	-10.79
▁willing	-10.79
▁Dam	-10.7904
▁god	-10.7906
▁Hard	-10.7916
▁rising	-10.7918
▁fled	-10.792
▁characteriz	-10.7928
sburg	-10.7934
▁behaviour	-10.7936
▁rebellion	-10.7936
▁defender	-10.794
▁ow	-10.7943
▁repairs	-10.7943
▁mechanism	-10.7944
▁Den	-10.795
Z	-10.795
▁organisation	-10.7955
tte	-10.7957
▁songwriter	-10.7957
ries	-10.7961
▁practical	-10.7963
▁render	-10.7963
▁string	-10.7969
end	-10.7969
▁Pen	-10.7969
▁Fall	-10.7971
Q	-10.7972
▁photo	-10.7972
▁ownership	-10.7973
▁Files	-10.7975
▁Bureau	-10.7977
pen	-10.7977
▁feelings	-10.7977
▁application	-10.7982
▁enabl	-10.7982
▁Tokyo	-10.7984
if	-10.7985
▁Karl	-10.7986
▁Arizona	-10.7989
▁signature	-10.7993
▁ruling	-10.7993
▁mature	-10.7994
vi	-10.8
▁Sol	-10.8002
▁Blues	-10.8003
▁Athletic	-10.8005
▁cousin	-10.8005
▁Dylan	-10.8009
▁Ward	-10.8009
▁Indies	-10.8009
▁absolute	-10.8013
▁recordings	-10.8013
▁reward	-10.8016
▁Hal	-10.8017
▁waves	-10.8019
▁Che	-10.802
▁conversion	-10.8021
iz	-10.8022
▁Such	-10.8033
▁stream	-10.8038
▁Nine	-10.804
ay	-10.8045
▁Za	-10.8049
▁Ru	-10.8051
▁basin	-10.8056
▁assists	-10.8056
▁fur	-10.8057
▁representation	-10.8059
▁Sony	-10.8063
war	-10.8067
fish	-10.8069
▁Vi	-10.8072
ag	-10.8078
tis	-10.8079
▁Delaware	-10.8086
▁reverse	-10.8087
▁predecessor	-10.8091
▁tribes	-10.8093
▁flagship	-10.8096
▁reinforcement	-10.8099
▁remnants	-10.8101
▁rap	-10.8103
▁fin	-10.8106
▁chapel	-10.8107
▁earning	-10.8109
▁Fo	-10.8115
▁ban	-10.812
▁Officer	-10.8121
▁Victor	-10.8124
▁thinking	-10.8128
▁adventure	-10.814
▁gust	-10.814
▁Oklahoma	-10.8148
▁frigate	-10.8148
▁sq	-10.8149
▁Sin	-10.8151
▁respond	-10.8152
hood	-10.8157
▁functions	-10.816
▁legislature	-10.8165
▁Album	-10.8169
▁Mid	-10.817
▁flee	-10.8172
▁marine	-10.8172
▁Murphy	-10.8173
▁Federation	-10.8173
▁quiet	-10.8178
▁battles	-10.8179
▁fallen	-10.818
▁shall	-10.8183
▁Iraq	-10.8184
▁shells	-10.8189
ria	-10.8191
▁obvious	-10.8198
▁Broadway	-10.8198
▁kW	-10.8199
▁embark	-10.8202
▁dominant	-10.8212
▁1901	-10.8213
▁Switzerland	-10.8214
▁universal	-10.8214
▁cancel	-10.8216
▁Soul	-10.8217
▁Juan	-10.8219
ible	-10.8222
▁console	-10.8223
▁Villa	-10.8223
▁bases	-10.8226
▁arch	-10.8227
▁Fred	-10.823
▁shield	-10.8231
▁Kirk	-10.8232
▁wider	-10.8232
▁restricted	-10.8233
▁Prize	-10.8235
▁perceiv	-10.8237
▁05	-10.8238
▁excellent	-10.8239
▁ma	-10.824
ide	-10.824
▁Rico	-10.8241
bridge	-10.8242
▁ABC	-10.8243
▁sight	-10.8247
▁musician	-10.8248
▁bi	-10.8248
▁VII	-10.8251
▁Personal	-10.8252
▁spotted	-10.826
▁chamber	-10.8262
net	-10.8267
▁faster	-10.8269
▁contributions	-10.827
▁manufacture	-10.8272
▁Mon	-10.8281
▁imperial	-10.8283
▁wound	-10.8284
ign	-10.8287
▁spore	-10.8287
▁bann	-10.8289
▁announcement	-10.829
▁playoffs	-10.829
nes	-10.8296
▁storage	-10.8298
tal	-10.8299
▁Amy	-10.83
▁Wi	-10.8314
▁Owen	-10.8315
of	-10.8315
▁Sha	-10.832
▁Kurt	-10.8321
▁impression	-10.8322
▁06	-10.8323
▁institutions	-10.8324
du	-10.8328
▁suggestion	-10.8328
rat	-10.833
▁quarterback	-10.8332
▁Baker	-10.8339
▁subspecies	-10.8344
▁settler	-10.8353
▁Bach	-10.8353
▁sp	-10.8356
▁vi	-10.8362
▁1903	-10.8364
▁striking	-10.8365
▁arts	-10.8372
▁07	-10.8373
▁neighbor	-10.8373
▁Ri	-10.8373
lock	-10.8379
▁Well	-10.8382
▁vast	-10.8384
▁Shakespeare	-10.8384
rum	-10.8387
▁1902	-10.8388
▁concentrat	-10.8393
▁plate	-10.8394
▁mountains	-10.8396
▁useful	-10.8396
▁touring	-10.8397
▁apply	-10.84
▁favorabl	-10.8402
▁Leslie	-10.8403
▁marks	-10.8405
▁Var	-10.8408
▁legac	-10.841
▁baby	-10.8413
▁theatrical	-10.8415
▁surgery	-10.8417
▁targets	-10.8417
▁Perry	-10.8418
▁objective	-10.842
▁Movie	-10.8421
▁ensu	-10.8421
▁feud	-10.8422
▁yield	-10.8428
▁patterns	-10.8429
▁VI	-10.8434
▁riders	-10.8438
▁Ve	-10.8441
▁Baseball	-10.8441
▁altitude	-10.8445
▁philosophy	-10.8445
▁reconnaissance	-10.8445
▁rounds	-10.8446
▁Bor	-10.845
▁liberal	-10.8454
▁Dor	-10.8454
hill	-10.8455
▁explains	-10.8464
▁Actor	-10.8464
▁sequences	-10.8468
▁Know	-10.8469
▁Atlanta	-10.8471
▁Nixon	-10.8471
▁stole	-10.8471
ae	-10.8478
air	-10.8479
▁liquid	-10.8479
art	-10.848
▁examples	-10.8484
▁biographer	-10.8485
▁pretty	-10.8488
▁jet	-10.8488
▁emotion	-10.849
▁Denmark	-10.8492
▁Type	-10.8492
▁refuse	-10.8495
oo	-10.8497
▁Mother	-10.8502
▁Trust	-10.8504
▁Jonathan	-10.8505
▁ignor	-10.8508
▁circumstances	-10.8511
▁fixed	-10.8514
zu	-10.8515
▁theater	-10.8519
▁hunt	-10.852
▁Hudson	-10.8522
ida	-10.8523
▁Qu	-10.8524
▁Gray	-10.8527
▁expect	-10.8527
▁leak	-10.8527
▁dubb	-10.8527
▁portrayal	-10.8527
▁Johnny	-10.8528
▁Campaign	-10.853
▁ritual	-10.853
▁Friday	-10.853
▁realize	-10.8531
▁Jam	-10.8535
▁Rihanna	-10.8543
▁conventional	-10.8545
▁Sub	-10.8549
▁105	-10.8549
▁displac	-10.855
▁Stan	-10.8552
▁Gate	-10.8555
▁Abbey	-10.8556
ugh	-10.8559
▁whils	-10.8565
▁Cole	-10.8569
▁incorporate	-10.8572
▁farmer	-10.8572
▁Express	-10.8577
▁Fighter	-10.8578
ika	-10.8581
▁shop	-10.8582
▁Em	-10.8583
▁friendship	-10.8584
▁holiday	-10.8586
▁printed	-10.8588
▁Potter	-10.8591
▁Las	-10.8594
▁expression	-10.8598
down	-10.8601
▁alive	-10.8602
▁subjects	-10.8605
▁Spring	-10.8606
▁tissue	-10.8608
▁Shaw	-10.8608
▁poems	-10.8609
▁offense	-10.8617
▁Baby	-10.8619
▁resist	-10.8621
▁revis	-10.8624
▁abandon	-10.863
▁electron	-10.8643
▁Arnold	-10.8647
▁proportion	-10.8649
▁Communist	-10.8652
▁represents	-10.8653
▁remarked	-10.866
▁Railroad	-10.866
▁payment	-10.866
▁architect	-10.8661
▁mill	-10.8661
▁trouble	-10.8667
▁indicat	-10.8669
ore	-10.8672
▁Keith	-10.8676
▁cinema	-10.8677
▁goods	-10.8678
▁punk	-10.8683
▁Shi	-10.8684
▁Dun	-10.8685
▁Je	-10.8688
▁Impact	-10.869
▁investigat	-10.8692
▁delegate	-10.8695
sel	-10.8696
▁Cu	-10.8696
▁flights	-10.8697
▁hook	-10.8701
▁Obama	-10.8703
▁EP	-10.8705
went	-10.871
ff	-10.871
▁Wayne	-10.8711
▁mainland	-10.8713
▁gift	-10.8716
tu	-10.8716
sha	-10.8717
▁backing	-10.8717
▁tight	-10.8718
▁Natural	-10.8721
▁Pearl	-10.8721
▁Jimmy	-10.8725
▁employ	-10.8725
▁soldier	-10.8728
▁Classic	-10.8733
▁parent	-10.8734
▁external	-10.8734
▁sword	-10.8736
▁Internet	-10.8738
▁cloud	-10.8742
▁Reserve	-10.8743
▁Hugh	-10.8744
enberg	-10.8747
▁Rachel	-10.8747
▁duo	-10.8748
oli	-10.8751
▁Israeli	-10.8751
cal	-10.8756
▁readers	-10.8756
▁pioneer	-10.8756
▁Defence	-10.8756
▁exposure	-10.8761
▁Dis	-10.8766
▁merg	-10.8766
▁prove	-10.8771
ora	-10.8772
▁mines	-10.8773
▁carriers	-10.8776
▁revolution	-10.8778
▁strain	-10.8778
20	-10.878
▁donat	-10.8781
▁Peace	-10.8782
▁Tracy	-10.8782
▁cutting	-10.8783
▁sung	-10.879
▁casting	-10.8791
▁compound	-10.8792
▁Drive	-10.8796
▁strengthened	-10.8799
▁meter	-10.8801
▁empire	-10.8804
▁nominations	-10.8811
▁taste	-10.8816
▁Universal	-10.8817
▁Eventual	-10.8817
▁plain	-10.8819
▁mobile	-10.8821
▁sky	-10.8825
ón	-10.883
▁routine	-10.8831
▁demolished	-10.8835
▁Birmingham	-10.8835
▁constitution	-10.8838
▁dancing	-10.8839
▁Ab	-10.8841
▁uniform	-10.8847
▁Tre	-10.8848
▁conversation	-10.8853
▁constitutional	-10.8855
▁McCartney	-10.8861
▁Social	-10.8865
▁expense	-10.8866
SA	-10.8868
▁Belgian	-10.887
▁coup	-10.8871
▁uncle	-10.8871
▁reduction	-10.8872
▁experimental	-10.8873
ction	-10.8876
▁Inc	-10.8876
▁Boat	-10.8878
▁Leonard	-10.8881
▁bearing	-10.8881
▁cannon	-10.8883
▁Yankees	-10.8885
▁Bur	-10.8889
▁artificial	-10.8892
▁Blood	-10.8895
▁Our	-10.8899
▁Champion	-10.8901
ough	-10.8906
▁mining	-10.8906
▁carv	-10.8906
cu	-10.8911
▁roots	-10.8912
qualified	-10.8912
▁Hor	-10.8913
▁attraction	-10.8914
▁Bobby	-10.8914
▁evacuat	-10.8914
▁oversea	-10.8915
oon	-10.8916
ox	-10.8917
▁cup	-10.8919
▁releases	-10.8919
ois	-10.892
▁Secret	-10.8922
▁seed	-10.8927
▁Phoenix	-10.8928
▁pitcher	-10.8929
▁Lost	-10.8932
▁Morrison	-10.8935
▁factory	-10.8935
▁secretary	-10.8945
▁delivery	-10.8946
▁renew	-10.8951
ii	-10.8956
▁depiction	-10.8959
▁sitting	-10.8959
▁license	-10.8962
▁favourite	-10.8962
▁drugs	-10.8963
▁et	-10.8965
▁Shin	-10.8966
▁Mint	-10.8971
▁serial	-10.8972
rie	-10.8975
▁deliberate	-10.8976
▁acoustic	-10.8977
▁Todd	-10.8981
▁Connecticut	-10.8982
▁crest	-10.8983
▁Madagascar	-10.8986
tt	-10.8991
▁strategic	-10.9001
▁tube	-10.9003
▁decorat	-10.9003
▁Kan	-10.9005
stein	-10.9006
▁infection	-10.9006
▁personally	-10.9008
▁impos	-10.9008
tel	-10.9009
▁waste	-10.9011
▁stores	-10.9015
▁Still	-10.9017
▁blow	-10.9019
▁trans	-10.902
▁armie	-10.9022
▁nickname	-10.9034
▁placing	-10.9036
▁Napoleon	-10.9037
▁withdrawal	-10.9037
▁electrical	-10.9039
▁Ur	-10.9044
▁Ontario	-10.9045
▁Rain	-10.9045
▁aerial	-10.9045
▁researcher	-10.9049
▁Vol	-10.9052
▁removal	-10.9053
▁inherit	-10.9053
▁Canterbury	-10.9054
▁discussion	-10.9061
uc	-10.9063
▁Mass	-10.9065
▁Community	-10.9067
dal	-10.907
▁Jupiter	-10.9072
▁magic	-10.9078
▁Roll	-10.9081
▁raising	-10.9085
▁Fleming	-10.9085
▁battalions	-10.9086
▁aftermath	-10.9094
fe	-10.9096
▁diamond	-10.9099
▁Cro	-10.91
▁covers	-10.9102
▁villain	-10.9102
▁solar	-10.9102
▁Ultimate	-10.9108
▁mechanical	-10.9115
kar	-10.912
▁Victorian	-10.9126
hl	-10.9127
▁Convention	-10.9131
▁Foreign	-10.9131
▁articles	-10.9135
▁Maya	-10.9136
▁prospect	-10.9139
▁wheel	-10.9142
▁bone	-10.9143
▁guid	-10.9144
▁encourage	-10.9145
▁Lin	-10.9146
adi	-10.9149
▁TNA	-10.915
▁prohibit	-10.9151
▁Trail	-10.9151
ros	-10.9153
▁Char	-10.9157
dar	-10.9158
elle	-10.9166
▁compil	-10.9167
zo	-10.9171
▁Mrs	-10.9178
row	-10.9183
▁Rights	-10.9184
▁specimen	-10.9185
▁Greg	-10.9185
ill	-10.919
▁dam	-10.9191
▁acknowledged	-10.9195
▁amateur	-10.9199
▁suppli	-10.9203
▁parliament	-10.9205
stood	-10.9211
▁Windows	-10.9211
ona	-10.9212
▁Dog	-10.9214
▁125	-10.9216
▁react	-10.9217
▁inhabit	-10.9221
▁Hy	-10.9222
▁UEFA	-10.9222
worth	-10.9223
▁Anti	-10.9225
▁Oak	-10.9225
▁membership	-10.9226
▁Gro	-10.9227
▁realized	-10.9228
▁dis	-10.9231
▁Wal	-10.9233
▁decay	-10.9236
▁authoriz	-10.9237
▁Cho	-10.9245
▁rivers	-10.9248
▁Lang	-10.9249
▁cave	-10.925
▁wine	-10.925
az	-10.925
▁inland	-10.9251
▁net	-10.9254
▁Vancouver	-10.9254
▁commenc	-10.9255
▁initiated	-10.9258
▁translat	-10.9258
▁garner	-10.9259
▁Triple	-10.9261
▁jurisdiction	-10.9263
▁fame	-10.9264
ky	-10.9265
mat	-10.9267
▁extratropical	-10.9268
▁promis	-10.9272
▁upgrade	-10.9273
▁anchor	-10.9274
▁sang	-10.9275
ban	-10.9276
▁translation	-10.9277
▁publishing	-10.9281
lor	-10.9291
▁Administration	-10.9291
▁venture	-10.9292
bel	-10.9292
▁blocks	-10.9298
lic	-10.9299
▁Gary	-10.9301
▁fantasy	-10.9305
▁Works	-10.9309
▁lover	-10.9309
▁youngest	-10.9312
19	-10.9312
▁Unit	-10.9312
▁remark	-10.9314
▁par	-10.9314
▁substitute	-10.9318
▁Bernard	-10.932
▁trailer	-10.9329
uck	-10.9331
▁Deep	-10.9334
▁ongoing	-10.9334
▁bombs	-10.9337
▁planets	-10.9342
▁Cha	-10.9342
▁steps	-10.9346
▁Marvel	-10.9347
hitting	-10.9351
▁fewer	-10.9351
▁tenure	-10.9351
▁Hardy	-10.9353
▁racial	-10.9355
▁Alice	-10.9358
▁sisters	-10.936
▁petition	-10.9361
▁Local	-10.9361
▁Village	-10.9364
▁vs	-10.9365
▁Portuguese	-10.9365
▁Min	-10.9369
▁explor	-10.9372
and	-10.9372
▁Bat	-10.9372
▁Bradman	-10.9373
▁bond	-10.9373
▁1860	-10.9373
▁exile	-10.9379
▁Dick	-10.9381
▁funny	-10.9385
15	-10.9395
ris	-10.9395
▁chase	-10.9397
▁Grey	-10.9406
▁compounds	-10.9407
▁putting	-10.9408
▁pages	-10.941
▁battlecruiser	-10.9412
▁listen	-10.9413
▁characteristic	-10.9413
▁examin	-10.9414
▁Dwight	-10.9417
▁exploit	-10.942
▁architectural	-10.9421
▁exceed	-10.9422
▁NCAA	-10.9426
▁fault	-10.9431
▁competitive	-10.9432
▁Marge	-10.9435
▁Trophy	-10.9436
27	-10.9439
▁mushroom	-10.944
▁Nar	-10.9442
▁accomplish	-10.9444
▁improvements	-10.9444
eng	-10.9448
nt	-10.9449
▁1893	-10.9451
▁intervention	-10.9454
ux	-10.9454
ified	-10.9457
▁watershed	-10.9459
▁disturbance	-10.9459
▁heading	-10.946
▁invad	-10.9463
▁explosive	-10.9464
▁bay	-10.9464
▁Howe	-10.9465
▁matters	-10.9467
▁hydrogen	-10.9468
burg	-10.947
▁trigger	-10.9473
ane	-10.9475
▁JT	-10.9477
▁dispatch	-10.9478
▁supplement	-10.9478
▁Oliver	-10.9478
▁intellectual	-10.9482
▁birthday	-10.9483
▁mar	-10.9483
▁assess	-10.9485
ice	-10.9486
▁wire	-10.9486
▁Hampshire	-10.9487
▁provincial	-10.9487
▁density	-10.9488
▁shallow	-10.9497
▁1896	-10.9499
▁Professor	-10.9501
▁guarantee	-10.9501
18	-10.9502
▁banks	-10.9504
▁Er	-10.9507
▁relocat	-10.9511
▁bones	-10.9513
osaurus	-10.9516
▁anticipat	-10.9518
▁educational	-10.9519
▁Penn	-10.952
▁identical	-10.952
▁Collins	-10.952
▁walking	-10.9522
▁Alaska	-10.9525
▁sample	-10.9528
▁terrain	-10.953
▁elaborate	-10.9531
▁micro	-10.9531
ification	-10.9532
▁Edinburgh	-10.9534
▁Armenian	-10.9536
ious	-10.9537
▁ratio	-10.954
mont	-10.9544
▁creek	-10.9549
▁feeding	-10.955
▁Pakistan	-10.9554
din	-10.9556
▁insects	-10.9557
▁Side	-10.9562
11	-10.9563
▁examination	-10.9565
▁Turner	-10.9568
▁sat	-10.9573
▁trough	-10.9577
▁List	-10.9578
▁voyage	-10.9582
▁1898	-10.9584
▁parody	-10.9591
▁duration	-10.9592
▁Trade	-10.9592
▁04	-10.9594
ating	-10.9595
▁Flying	-10.9601
▁streak	-10.9601
▁350	-10.9601
▁assembly	-10.9605
▁neighbour	-10.9606
▁Province	-10.9606
▁Beck	-10.9611
▁seized	-10.9612
▁Virgin	-10.9612
▁condemn	-10.9613
▁photograph	-10.9614
▁Craig	-10.9616
hold	-10.9622
▁wreck	-10.9629
▁ski	-10.9634
▁Kin	-10.9637
utstanding	-10.9637
▁Champions	-10.9644
▁flower	-10.9652
▁medicine	-10.9654
▁jury	-10.9654
▁anime	-10.9655
▁Historical	-10.9656
▁preserve	-10.9657
▁collaps	-10.9657
▁Mission	-10.966
▁promotional	-10.967
31	-10.967
▁Argentina	-10.9673
▁Yorkshire	-10.9673
▁export	-10.9673
▁automatic	-10.9681
▁Ste	-10.9684
▁repeat	-10.9685
nch	-10.9686
ivity	-10.9687
ologist	-10.9687
▁float	-10.9688
▁Performance	-10.9692
▁Ralph	-10.9692
▁tape	-10.9692
▁Wii	-10.9694
▁exclusive	-10.9696
▁advertising	-10.9697
▁ceased	-10.9701
▁trend	-10.9702
ima	-10.9702
▁requires	-10.9704
▁mistake	-10.971
▁employment	-10.9711
▁sh	-10.9711
▁Lloyd	-10.9711
▁tubes	-10.9715
wick	-10.9716
▁approaching	-10.9716
▁defences	-10.9717
48	-10.9719
▁blind	-10.9721
▁unclear	-10.9722
ua	-10.9726
▁directors	-10.973
▁Shu	-10.9731
▁commitment	-10.9731
▁Overall	-10.9733
▁accidental	-10.9735
▁conservation	-10.9741
ue	-10.9742
▁magnitude	-10.9745
▁Mountains	-10.9746
▁Boys	-10.9748
unt	-10.9748
▁output	-10.9748
▁fossil	-10.9749
▁wage	-10.9749
▁annually	-10.9749
▁drummer	-10.975
▁Kar	-10.9755
▁Rio	-10.9759
▁sav	-10.9759
▁predominant	-10.976
▁swimm	-10.9765
▁Globe	-10.9769
▁progressive	-10.9772
▁phrase	-10.9772
▁arrangements	-10.9773
▁distant	-10.9774
▁commentary	-10.9775
▁contribution	-10.9779
▁Celtic	-10.9784
▁software	-10.9784
▁compliment	-10.9786
▁wake	-10.9788
▁Jerry	-10.9789
▁jobs	-10.9791
▁1899	-10.9791
▁imagery	-10.9793
▁recall	-10.9794
▁origins	-10.9795
▁divorce	-10.9795
▁succession	-10.9797
▁Trans	-10.9799
▁replied	-10.98
▁Swift	-10.9803
▁ruler	-10.9803
▁Win	-10.9804
▁proclaim	-10.9808
▁Jacob	-10.9809
▁Mont	-10.981
▁tip	-10.981
bert	-10.9811
▁worship	-10.9811
▁thirteen	-10.9812
▁leads	-10.9812
▁explanation	-10.9813
▁Steven	-10.9816
cat	-10.9816
▁Subsequent	-10.9818
▁Eve	-10.9818
▁Lucas	-10.9822
▁liner	-10.9828
▁Bird	-10.9831
▁sum	-10.9834
▁mirror	-10.9837
▁lawsuit	-10.9838
▁drinking	-10.9841
▁biograph	-10.9842
▁reluctant	-10.9845
ska	-10.985
ef	-10.9851
▁burial	-10.9852
▁Bennett	-10.9852
gin	-10.9853
itis	-10.9855
onic	-10.9857
▁Queensland	-10.9857
▁Kate	-10.9857
▁vary	-10.9858
▁Grace	-10.9858
thel	-10.9862
▁Johnston	-10.9862
▁demonstrate	-10.9864
avi	-10.9864
▁Finland	-10.9867
▁Work	-10.9869
▁publications	-10.987
▁monaster	-10.9872
▁Mir	-10.9873
▁Blu	-10.9874
bin	-10.9875
▁improvement	-10.9876
16	-10.9877
▁restore	-10.9881
▁structural	-10.9881
▁Voice	-10.9883
▁sending	-10.9884
▁pleas	-10.9889
▁mate	-10.9891
▁Brothers	-10.9892
▁Mayor	-10.9894
▁failing	-10.9896
▁Norfolk	-10.9896
▁electricity	-10.9897
▁disband	-10.9901
▁destroyer	-10.9902
▁Gil	-10.9903
▁dynamic	-10.9906
▁grave	-10.9909
▁Judge	-10.9911
▁Hills	-10.9919
▁videos	-10.992
▁branches	-10.9925
ring	-10.9926
▁Burton	-10.9929
▁mask	-10.9933
▁essay	-10.9936
▁Hawaii	-10.9938
ato	-10.994
▁undergo	-10.9942
▁activist	-10.9942
▁celebrate	-10.9943
qu	-10.9945
ids	-10.9947
▁Heritage	-10.995
▁cabinet	-10.9951
ping	-10.9956
▁contribute	-10.9959
▁Barry	-10.9962
▁presentation	-10.9964
▁dive	-10.9966
▁eastward	-10.9968
▁Nicholas	-10.9975
▁smoke	-10.9978
▁turbine	-10.998
▁Harbor	-10.998
tion	-10.9985
▁Guinea	-10.9985
▁attending	-10.9986
▁radiation	-10.9991
▁Helen	-10.9991
▁eagle	-11
▁Com	-11
▁1850	-11.0003
cho	-11.0009
▁precipitation	-11.001
▁heir	-11.0011
▁Brazilian	-11.0012
▁Girls	-11.0013
pan	-11.0013
ito	-11.0013
▁Catherine	-11.0015
▁instrument	-11.0016
▁Mur	-11.0018
▁fatal	-11.0019
▁Sega	-11.0021
rus	-11.0024
▁Medical	-11.0025
▁Vincent	-11.0025
▁atomic	-11.0026
▁stronger	-11.0034
▁athletic	-11.0039
▁exclusively	-11.0041
ft	-11.0045
▁Syria	-11.0047
kan	-11.0049
▁gender	-11.005
▁pursuit	-11.0051
▁beaut	-11.0051
▁Kane	-11.0051
▁Next	-11.0052
▁slavery	-11.0053
▁inscription	-11.0054
▁photographs	-11.0056
▁Davies	-11.0059
▁mini	-11.006
▁Sweet	-11.0064
▁Emmy	-11.0064
▁Abu	-11.0068
lia	-11.0069
▁crews	-11.0071
▁Ph	-11.0071
lay	-11.0073
▁Child	-11.0076
▁Transportation	-11.0076
▁accommodate	-11.0077
▁Yellow	-11.0079
▁Gre	-11.0083
▁Common	-11.0087
▁Farm	-11.0088
▁Darwin	-11.009
▁loved	-11.0092
▁recognize	-11.0095
▁Rap	-11.0098
▁varied	-11.0099
▁tea	-11.01
▁rent	-11.01
▁Gor	-11.0103
zer	-11.0105
▁Training	-11.0105
▁instruct	-11.0108
▁moon	-11.0112
▁fourteen	-11.0114
iness	-11.0118
▁hybrid	-11.012
▁Ger	-11.0125
gue	-11.0128
▁Scientology	-11.013
38	-11.0132
▁volumes	-11.0132
▁limits	-11.0135
▁01	-11.0136
▁sheet	-11.0137
nie	-11.0137
▁Rangers	-11.0137
▁virus	-11.0139
▁reinforc	-11.0139
▁Harvard	-11.0145
▁Hughes	-11.0146
gy	-11.0147
▁hole	-11.0147
▁copper	-11.0151
▁demo	-11.0153
▁Magic	-11.0153
▁frequency	-11.0158
▁Beginning	-11.016
▁1897	-11.0167
▁Credits	-11.0167
▁Mag	-11.0167
▁champions	-11.0168
36	-11.0169
took	-11.0171
▁Prix	-11.0171
▁lyrical	-11.0173
ire	-11.0173
▁airfield	-11.0175
▁Edwards	-11.0178
▁Cast	-11.0184
▁Tang	-11.0184
▁dogs	-11.0189
▁conquer	-11.019
▁survival	-11.0193
▁discipline	-11.0195
▁Fran	-11.0195
▁sugar	-11.0195
▁legislative	-11.0195
▁respective	-11.0199
▁Oslo	-11.02
▁suspect	-11.0203
▁shut	-11.0205
▁crystal	-11.0205
▁dealing	-11.0206
▁Swiss	-11.0207
▁sixteen	-11.021
▁advised	-11.021
▁scar	-11.0211
▁collective	-11.0212
▁Indonesia	-11.0215
▁Cameron	-11.0215
▁Gallery	-11.0216
▁anger	-11.0216
▁valuable	-11.0217
▁evacuation	-11.0218
▁mono	-11.0222
▁ports	-11.0228
▁conceived	-11.0228
▁Neil	-11.0231
▁summit	-11.0232
▁tru	-11.0234
▁Moscow	-11.0236
▁Salt	-11.0237
▁neutral	-11.0245
▁initiative	-11.0246
▁commentator	-11.0251
▁charity	-11.0252
▁lists	-11.0255
▁03	-11.0256
▁Upper	-11.0256
▁Des	-11.0257
kh	-11.026
▁Bath	-11.0262
lam	-11.0262
▁voting	-11.0271
▁Indonesian	-11.0272
▁Susan	-11.0272
▁Ruth	-11.0272
▁Luke	-11.0274
▁representatives	-11.0275
▁Pittsburgh	-11.0276
▁Protestant	-11.0276
▁boss	-11.028
▁upset	-11.0284
▁worn	-11.0287
▁Antonio	-11.0292
▁sacrifice	-11.0293
mit	-11.03
▁victim	-11.0301
▁Orange	-11.0302
cle	-11.0303
▁Stevens	-11.0304
▁servant	-11.0304
ug	-11.0307
▁Hans	-11.0307
▁Female	-11.0307
▁shaft	-11.0307
10	-11.0311
▁spoken	-11.0311
▁assume	-11.0312
▁autumn	-11.0317
▁Junior	-11.0322
▁scout	-11.0328
▁Books	-11.0329
▁Ol	-11.033
39	-11.033
▁photography	-11.0332
▁confidence	-11.0333
par	-11.0335
ene	-11.0336
▁web	-11.0336
28	-11.0337
▁celebrit	-11.0338
▁burned	-11.0338
▁prepar	-11.034
▁tonnes	-11.0343
▁attorney	-11.0343
▁Marc	-11.0344
▁storms	-11.0346
▁Hope	-11.0346
▁humor	-11.0348
▁tactics	-11.0349
▁fate	-11.0351
▁fee	-11.0352
▁puzzle	-11.0353
▁manga	-11.0355
▁Pam	-11.0355
▁Pink	-11.0358
▁nautical	-11.0358
▁Wallace	-11.0359
▁Terry	-11.036
▁stuff	-11.0364
elli	-11.0364
▁laborator	-11.037
▁Studio	-11.037
lis	-11.0372
▁flowers	-11.0373
▁patron	-11.0373
▁recommendation	-11.0373
▁roadway	-11.0378
▁fold	-11.0383
37	-11.0383
▁explicit	-11.0384
▁melody	-11.0389
▁forecast	-11.039
▁Edition	-11.0391
▁Mega	-11.0392
49	-11.0395
▁proceeded	-11.0397
▁Mc	-11.0406
chemistry	-11.0407
br	-11.041
▁Section	-11.041
hen	-11.0411
▁Then	-11.0416
▁careful	-11.0417
▁spell	-11.0417
▁inclusion	-11.042
▁Bryan	-11.0424
29	-11.0425
▁urani	-11.0425
▁None	-11.0425
▁harbour	-11.0425
ira	-11.0426
▁admir	-11.043
▁Microsoft	-11.0431
▁Transport	-11.0434
▁tag	-11.0436
▁Formation	-11.0443
eg	-11.0443
▁Liz	-11.0445
▁Description	-11.0446
▁Metro	-11.0452
▁indeed	-11.0453
▁Afterma	-11.0456
▁Defense	-11.0457
▁institution	-11.046
▁sweet	-11.0462
dom	-11.0462
▁occupy	-11.0462
▁minority	-11.0464
▁Off	-11.0471
▁Jefferson	-11.0472
mus	-11.0476
▁Thing	-11.0477
ture	-11.0488
▁Cre	-11.0489
▁Ly	-11.0492
▁Charts	-11.0496
rin	-11.0497
30	-11.0498
▁Richmond	-11.0498
▁programming	-11.0498
▁steal	-11.0501
▁sculpture	-11.0504
▁Security	-11.0507
eb	-11.051
aj	-11.0512
▁mail	-11.0512
▁Sheffield	-11.0519
▁Control	-11.0521
▁burning	-11.0522
▁Rat	-11.0522
▁consideration	-11.0522
▁Larry	-11.0525
▁Fer	-11.0528
osa	-11.0529
▁Malaysia	-11.053
▁warfare	-11.0535
▁Oh	-11.0535
ock	-11.0537
▁demonstration	-11.0538
▁fairly	-11.0539
▁fundamental	-11.0545
▁devices	-11.0546
▁steep	-11.0551
▁el	-11.0554
▁samples	-11.0555
▁uncertain	-11.0559
▁gear	-11.0561
▁115	-11.0561
▁1895	-11.0563
ress	-11.0565
▁users	-11.0569
▁culminat	-11.0569
▁tempo	-11.0571
▁Dallas	-11.0571
▁package	-11.0574
tha	-11.0576
▁Zero	-11.0579
▁Allie	-11.058
▁Austin	-11.0582
21	-11.0585
▁Cam	-11.0586
▁Herald	-11.0593
▁riding	-11.0595
▁consult	-11.0598
▁rivalry	-11.0601
oma	-11.0601
▁Together	-11.0603
▁bombardment	-11.0604
ily	-11.0609
▁inflict	-11.0614
▁Collection	-11.0614
▁convey	-11.0619
▁FBI	-11.0619
▁administer	-11.0624
▁Cyrus	-11.0625
igan	-11.0625
17	-11.0628
▁tough	-11.0628
▁warrior	-11.0629
▁Ring	-11.063
form	-11.063
▁Fund	-11.0631
▁collaborat	-11.0632
PA	-11.0636
▁Mix	-11.0637
master	-11.0638
▁gray	-11.064
▁prices	-11.0641
cia	-11.0641
▁transportation	-11.0643
▁Picture	-11.0644
▁Amendment	-11.0645
▁Woman	-11.0648
▁Son	-11.0648
▁participation	-11.0649
▁Clarke	-11.0651
▁modification	-11.0656
▁myth	-11.0661
▁cruise	-11.0661
▁remote	-11.0661
▁scandal	-11.0661
▁airline	-11.0664
▁Room	-11.0668
lie	-11.0669
▁Para	-11.0669
▁suitabl	-11.0673
▁carrie	-11.0679
▁advocate	-11.068
hose	-11.0687
▁Wilhelm	-11.0693
▁papers	-11.0694
▁girlfriend	-11.0698
▁Parsons	-11.0704
ath	-11.0704
▁imprison	-11.0708
▁multiplay	-11.0709
▁tale	-11.0711
▁Hand	-11.0712
▁Ivan	-11.0712
▁Sri	-11.0721
▁brilliant	-11.073
bre	-11.0732
▁Musical	-11.0734
▁Stock	-11.0739
▁Sur	-11.0741
▁Armstrong	-11.0741
▁widow	-11.0741
▁Pin	-11.0743
▁Half	-11.0749
▁Danish	-11.0749
▁MP	-11.0751
▁Chelsea	-11.0752
▁salary	-11.0752
▁crops	-11.0759
▁habit	-11.076
▁Mas	-11.0762
▁grandfather	-11.0762
▁surge	-11.0763
▁onward	-11.0765
▁Walt	-11.0765
ré	-11.0765
▁Hunt	-11.0766
▁noise	-11.0769
▁Nova	-11.0772
50	-11.0775
▁wrestler	-11.0776
▁expectation	-11.0781
long	-11.0782
▁Cathedral	-11.0789
▁02	-11.0791
▁CE	-11.0792
▁slight	-11.0792
▁beating	-11.0798
▁principle	-11.0799
▁Quebec	-11.08
▁Buffalo	-11.0805
▁bell	-11.0812
▁j	-11.0816
▁recurring	-11.0816
▁Place	-11.0818
▁Fisher	-11.0819
▁playoff	-11.082
lar	-11.082
wan	-11.0822
ison	-11.0824
▁Stand	-11.0825
▁Apollo	-11.0826
▁Fourth	-11.0827
▁Greater	-11.0827
▁principles	-11.0829
▁beats	-11.0829
▁Bon	-11.0829
▁diverse	-11.0829
▁dinosaur	-11.0832
▁vulnerable	-11.0832
▁dinner	-11.0833
mas	-11.0833
▁Ci	-11.0834
▁revival	-11.0841
▁Cultural	-11.0843
▁orange	-11.0844
▁educat	-11.0846
▁significance	-11.0849
▁Past	-11.0849
▁mixture	-11.0854
▁platforms	-11.0854
▁Agency	-11.0856
▁recovery	-11.0856
▁Authority	-11.0856
▁deteriorat	-11.0857
▁Spider	-11.0865
▁borrow	-11.087
▁advertisement	-11.0871
bus	-11.0872
86	-11.0878
▁mytholog	-11.088
▁Pictures	-11.0882
66	-11.0883
▁conquest	-11.0886
fire	-11.0888
▁Plant	-11.0894
▁Guitar	-11.0894
▁pale	-11.0897
▁Pine	-11.0898
▁Tor	-11.0901
▁Serbian	-11.0902
▁Stuart	-11.0903
▁tin	-11.0903
▁Monster	-11.0903
▁conclude	-11.0911
▁statistics	-11.0913
▁formula	-11.0914
▁calculat	-11.0918
▁traveling	-11.0918
▁confirm	-11.0918
▁tribe	-11.0919
▁variable	-11.0919
▁Years	-11.0919
▁connections	-11.0924
▁Orleans	-11.0924
▁terminal	-11.0924
▁Tyler	-11.0925
can	-11.0925
ensis	-11.0926
▁persuad	-11.0927
▁Cricket	-11.0929
▁descent	-11.093
▁Sta	-11.093
▁rebels	-11.0932
fin	-11.0932
▁aft	-11.0935
▁clothes	-11.0936
pin	-11.0937
af	-11.0938
▁unexpected	-11.0941
▁outcome	-11.0941
▁Regional	-11.0942
▁Utah	-11.0946
gh	-11.0949
▁interaction	-11.0951
▁steer	-11.0951
▁Baron	-11.0952
zy	-11.0954
yne	-11.0956
▁trick	-11.0956
▁kilometer	-11.0957
▁rug	-11.0958
▁efficient	-11.0963
▁dome	-11.0963
▁exclud	-11.0963
▁1861	-11.0965
89	-11.0965
▁error	-11.0966
▁Harold	-11.0968
▁Charlotte	-11.0973
▁descendant	-11.0975
▁pin	-11.0977
▁chest	-11.0977
▁requir	-11.0978
▁immun	-11.0978
pon	-11.0979
▁cathedral	-11.0979
▁installation	-11.098
▁opin	-11.098
▁opt	-11.0983
▁drift	-11.0984
▁Typhoon	-11.0984
▁CBS	-11.0985
▁Spirit	-11.099
▁Spin	-11.0992
▁1889	-11.0993
mel	-11.0994
▁curv	-11.0994
ami	-11.0996
▁enable	-11.0997
▁FIFA	-11.1001
▁Justin	-11.1006
85	-11.1009
▁Metropolitan	-11.1012
▁Say	-11.1012
▁mood	-11.1014
▁Rama	-11.1018
▁Hunter	-11.1019
▁sa	-11.1021
▁killer	-11.1024
▁Sonic	-11.1025
▁Th	-11.1027
▁Kal	-11.1028
▁trapp	-11.1031
▁Newton	-11.1032
67	-11.1034
▁Op	-11.1035
oh	-11.1035
▁experiments	-11.1037
▁Muhammad	-11.1039
▁Bulgarian	-11.1041
uma	-11.1052
▁1894	-11.1052
▁lit	-11.1053
▁Motor	-11.1053
▁pm	-11.1054
▁Want	-11.1055
▁DS	-11.1056
▁Constantine	-11.1056
king	-11.1059
lla	-11.1062
▁commanding	-11.1063
▁destination	-11.1068
▁para	-11.107
▁theories	-11.107
▁tune	-11.1073
▁grass	-11.1075
▁reliev	-11.1076
▁fl	-11.1079
▁flows	-11.1079
▁dual	-11.1079
▁scholarship	-11.1084
▁screenplay	-11.109
▁texts	-11.1091
▁Tam	-11.1091
▁Come	-11.1092
▁Pete	-11.1092
▁diplomatic	-11.1093
▁magazines	-11.1093
▁competitor	-11.1095
▁Pra	-11.1101
▁1000	-11.1101
ight	-11.1105
▁elite	-11.1107
▁lie	-11.1109
▁lifetime	-11.1109
▁bull	-11.111
▁heritage	-11.1111
▁physic	-11.1117
▁Bible	-11.1119
▁Executive	-11.1122
▁poly	-11.1126
▁decisive	-11.1128
▁provinces	-11.1133
▁Freedom	-11.1134
▁1891	-11.1135
▁saving	-11.1136
13	-11.1137
▁Mason	-11.1137
▁empty	-11.1139
▁rejoin	-11.1139
▁Ye	-11.114
▁variation	-11.1148
tur	-11.1149
▁Ros	-11.115
▁markets	-11.1151
▁talks	-11.1155
▁movies	-11.1157
▁Kon	-11.116
▁Rhodes	-11.1162
stra	-11.1164
▁YouTube	-11.1167
▁southeastern	-11.1167
▁batt	-11.1168
▁absent	-11.1169
AC	-11.1172
the	-11.1172
▁sin	-11.1177
ben	-11.1178
sey	-11.118
▁joke	-11.1181
▁Code	-11.1183
▁nice	-11.1185
▁processes	-11.1186
96	-11.1187
▁coordinate	-11.1196
▁Nor	-11.1197
▁illustrat	-11.1199
▁evident	-11.12
▁Cardiff	-11.12
▁confusion	-11.12
▁Leo	-11.1203
12	-11.1204
35	-11.1205
▁Zone	-11.1205
▁bulk	-11.1206
▁agriculture	-11.1206
▁cable	-11.1208
▁sings	-11.1208
▁Services	-11.1209
▁disrupt	-11.1214
▁dwarf	-11.1217
▁resolv	-11.1219
▁Wells	-11.1219
lat	-11.1221
cus	-11.1223
▁telephone	-11.1223
▁golden	-11.1225
▁Register	-11.1228
▁highways	-11.1229
▁ramp	-11.123
▁1892	-11.123
▁Kyle	-11.1233
▁timber	-11.1234
▁grain	-11.1234
▁nose	-11.1235
▁millimeter	-11.1239
▁precise	-11.1239
▁devoted	-11.124
▁tooth	-11.1242
▁Grade	-11.1244
nis	-11.1246
▁biological	-11.1251
▁proof	-11.1251
▁ear	-11.1252
▁followers	-11.1254
▁Symphony	-11.1256
▁measurement	-11.1259
▁scenario	-11.1262
▁communications	-11.1269
▁skill	-11.1272
▁disabl	-11.1272
▁Electric	-11.1276
▁240	-11.128
▁oriented	-11.1281
cation	-11.1284
▁1800	-11.1286
▁taxe	-11.1288
▁Conservation	-11.129
▁infrastructure	-11.1291
▁Set	-11.1291
▁pound	-11.1292
▁Stra	-11.1301
▁Wisconsin	-11.1301
dor	-11.1303
▁Mat	-11.1304
▁extinct	-11.1305
▁Orchestra	-11.1307
▁Until	-11.1307
▁pregnant	-11.1307
▁Ground	-11.1307
▁Bru	-11.1308
▁asset	-11.1316
▁observer	-11.1317
▁Donald	-11.1317
tch	-11.132
ei	-11.1321
▁bowler	-11.1322
▁Shiva	-11.1323
▁Auto	-11.1325
ray	-11.1328
▁sailing	-11.1329
▁Nature	-11.133
▁Danny	-11.1331
▁Sox	-11.1336
▁possess	-11.1339
ero	-11.1339
26	-11.1341
▁literal	-11.1343
▁applications	-11.1345
▁dimension	-11.1345
ati	-11.1347
▁Cavalry	-11.1347
▁Joan	-11.1347
▁refugee	-11.1349
where	-11.1356
▁prince	-11.1357
▁Falls	-11.1359
▁Fish	-11.1359
ave	-11.1363
eh	-11.1363
▁categorie	-11.1364
▁Islamic	-11.1366
▁fortress	-11.1368
mal	-11.1369
ome	-11.1369
▁Actress	-11.1371
▁rotation	-11.1372
▁Flag	-11.1372
▁ordinar	-11.1372
▁Jerusalem	-11.1375
▁Branch	-11.1375
▁resort	-11.1375
▁Oscar	-11.1375
▁Beth	-11.138
▁clan	-11.1381
▁Stein	-11.1382
▁arena	-11.1383
rick	-11.1384
cht	-11.1384
▁Attorney	-11.1387
▁peninsula	-11.1387
▁lighting	-11.1389
▁Record	-11.139
▁Ak	-11.1394
chen	-11.1394
▁crack	-11.1398
▁retail	-11.1403
▁census	-11.1404
▁manuscript	-11.141
ole	-11.1412
▁inning	-11.1414
▁Airlines	-11.1415
▁hide	-11.1417
▁commenting	-11.1419
▁Boeing	-11.1421
▁spark	-11.1421
▁afford	-11.1424
▁impressive	-11.1429
▁tomb	-11.1429
▁cash	-11.143
▁Father	-11.1439
▁104	-11.1439
▁portrait	-11.1439
▁Brooks	-11.144
▁170	-11.1444
▁Again	-11.1445
fall	-11.1445
▁Panzer	-11.145
▁Montgomery	-11.1455
▁1888	-11.1458
▁fortune	-11.1462
▁hang	-11.1464
ret	-11.1464
▁Ser	-11.1466
▁overlook	-11.1467
▁Pierre	-11.1468
▁pupil	-11.1469
▁blast	-11.147
▁Bri	-11.1473
▁realistic	-11.1476
▁exhaust	-11.1481
▁alert	-11.1483
▁manufacturer	-11.1484
▁Kill	-11.1489
▁Chapel	-11.149
▁lesson	-11.1492
▁proceeding	-11.1493
▁Czech	-11.1495
▁Barnes	-11.1496
▁harm	-11.1497
wall	-11.15
▁Isle	-11.1503
nne	-11.1504
gel	-11.1504
▁airing	-11.1505
▁mineral	-11.1509
▁prototype	-11.151
▁comprise	-11.1512
▁Draft	-11.1513
▁bats	-11.1516
▁spawn	-11.1519
▁Turkey	-11.1519
▁promot	-11.152
▁Zo	-11.1521
▁speculation	-11.1521
oid	-11.1524
ico	-11.1525
▁remov	-11.1525
ela	-11.1526
pu	-11.1527
▁Ven	-11.1527
▁censor	-11.1527
60	-11.1527
matic	-11.1528
▁Cemetery	-11.153
▁Independence	-11.153
▁vital	-11.153
▁hostile	-11.1532
▁autobiograph	-11.1535
▁drain	-11.1535
▁Saturn	-11.1536
▁Sean	-11.1536
24	-11.1538
▁Had	-11.1541
▁MacArthur	-11.1542
▁cylinder	-11.1542
▁pictures	-11.1542
▁Baltic	-11.1543
▁equally	-11.1544
▁Burns	-11.1544
▁Sherman	-11.1545
▁109	-11.1548
▁1885	-11.1551
97	-11.1552
▁Thor	-11.1553
▁Scots	-11.1556
▁generate	-11.1558
▁naming	-11.1559
▁Gr	-11.156
▁traditions	-11.1562
▁reforms	-11.1563
eri	-11.1568
▁metric	-11.1569
▁Century	-11.1571
▁epic	-11.1571
ij	-11.1572
oi	-11.1572
▁sad	-11.1579
▁captur	-11.1582
▁wet	-11.1595
▁Carol	-11.1596
▁Evil	-11.1604
▁Shah	-11.1604
▁infant	-11.1604
▁swing	-11.1607
▁relation	-11.1608
▁Rear	-11.1614
▁twist	-11.1616
▁Minor	-11.1616
▁Resident	-11.1617
▁explaining	-11.1618
▁dependent	-11.1619
▁Start	-11.1621
▁parliamentar	-11.1621
▁warships	-11.1621
▁strand	-11.1623
pper	-11.1628
▁Miles	-11.1629
▁Beat	-11.1633
▁rumor	-11.1635
ducted	-11.1635
▁amendment	-11.1635
14	-11.1637
▁daughters	-11.1638
▁111	-11.164
▁Mil	-11.1644
▁concurrent	-11.1647
▁oversee	-11.1652
▁Program	-11.1655
25	-11.1658
ien	-11.166
▁Management	-11.1664
▁closure	-11.1664
▁hurt	-11.1664
▁persons	-11.1665
▁lo	-11.1683
▁circular	-11.1688
▁galax	-11.1688
▁dying	-11.1688
▁intent	-11.1693
▁Ren	-11.1694
▁Reagan	-11.1694
▁Thames	-11.1699
▁Glee	-11.1701
▁columns	-11.1705
nell	-11.1706
▁Gene	-11.1706
▁predators	-11.1707
res	-11.1708
▁Rogers	-11.171
▁drink	-11.171
▁scrap	-11.1711
▁suspension	-11.1711
▁Barbara	-11.1713
▁disagree	-11.1716
▁Tra	-11.1717
aga	-11.172
▁Article	-11.1723
▁separation	-11.1724
▁romance	-11.1725
▁municipal	-11.1725
▁comment	-11.1727
▁Against	-11.1728
▁Tribune	-11.1729
▁Heavyweight	-11.1729
▁invest	-11.1729
ava	-11.1732
▁Organization	-11.1735
▁distinction	-11.1735
▁Legend	-11.1735
ort	-11.174
▁Romney	-11.1741
▁Lock	-11.1748
▁dust	-11.1751
▁myster	-11.1751
iya	-11.1752
▁manufacturing	-11.1752
▁978	-11.1754
▁1865	-11.1755
▁Athens	-11.1758
69	-11.1759
▁segments	-11.1762
navy	-11.1763
▁doctrine	-11.1764
▁homosexual	-11.177
▁velocity	-11.177
tus	-11.1775
oni	-11.1778
▁Action	-11.1778
▁bomber	-11.1779
▁rider	-11.1779
▁enroll	-11.1787
▁blend	-11.1788
▁handling	-11.1789
▁volcanic	-11.179
mu	-11.179
hall	-11.179
▁101	-11.1791
▁shortage	-11.1792
▁bears	-11.1793
▁Comedy	-11.1795
▁Reich	-11.1796
▁crimes	-11.1798
▁fa	-11.1799
▁laps	-11.18
▁continent	-11.18
▁Sport	-11.1802
▁kills	-11.1802
izing	-11.1804
▁abroad	-11.1806
▁stroke	-11.1809
▁Robin	-11.1809
▁districts	-11.1811
▁Shadow	-11.1812
▁harsh	-11.1817
▁NATO	-11.1818
▁Nancy	-11.1819
eur	-11.1821
▁Hol	-11.1822
hin	-11.1823
brook	-11.1823
▁universities	-11.1827
▁cattle	-11.183
▁rescu	-11.1839
Without	-11.1839
▁volunteers	-11.1843
▁settle	-11.1846
▁unveil	-11.1847
▁sinking	-11.1848
én	-11.185
▁interrupt	-11.1851
▁egg	-11.1853
▁custom	-11.1854
▁cards	-11.1859
▁Duch	-11.1861
▁corps	-11.1863
tting	-11.1864
▁Cyclone	-11.1865
▁Carr	-11.1868
▁enhanc	-11.1869
▁Ernest	-11.1871
▁pole	-11.1873
▁Mah	-11.1873
▁towers	-11.1875
▁belonging	-11.1876
una	-11.1887
47	-11.1887
▁usage	-11.1887
▁kings	-11.1887
▁physician	-11.1887
ique	-11.1887
kov	-11.1889
▁Kh	-11.1893
▁Portugal	-11.1895
▁Sk	-11.1895
▁marking	-11.1899
▁bore	-11.1917
▁Representatives	-11.1917
▁squadrons	-11.1918
▁Brad	-11.1923
▁blues	-11.1924
▁Constantinople	-11.1925
▁studying	-11.1926
▁Angle	-11.1927
▁450	-11.1927
pop	-11.1932
▁rushing	-11.1933
▁exists	-11.1934
sley	-11.1934
▁loyal	-11.1935
▁Newcastle	-11.1937
▁participants	-11.1941
79	-11.1942
sson	-11.1945
▁commanders	-11.1945
▁crop	-11.1947
▁trait	-11.1949
▁assessment	-11.1957
▁cyclones	-11.1958
▁massacre	-11.1961
▁millimetre	-11.1961
▁Personnel	-11.1961
▁José	-11.1961
▁companion	-11.1967
▁Joint	-11.1971
▁Eddie	-11.1974
▁Continental	-11.1974
▁ambassador	-11.1979
▁strange	-11.1981
▁Drake	-11.1982
▁Future	-11.1984
▁lighter	-11.1984
▁compromise	-11.1985
▁housed	-11.1989
▁batteries	-11.1989
▁operates	-11.199
▁Ancient	-11.1992
▁cheap	-11.1992
▁Marshal	-11.1992
▁reactions	-11.1993
▁concerning	-11.1995
▁visits	-11.1995
▁Cena	-11.1997
▁Sex	-11.1998
▁Jar	-11.1998
▁gang	-11.2
▁debri	-11.2
▁doors	-11.2001
mouth	-11.2002
▁demographic	-11.2004
▁ceiling	-11.201
▁Eight	-11.2011
▁Tournament	-11.2016
▁organisms	-11.2018
▁Gibraltar	-11.2022
▁enzyme	-11.2022
▁1864	-11.2025
▁Laboratory	-11.2028
▁horizontal	-11.2028
▁approache	-11.2029
▁suspected	-11.203
▁Link	-11.2033
del	-11.2033
▁Cornwall	-11.2034
▁admit	-11.2038
▁centers	-11.2038
▁campaigns	-11.2039
▁choir	-11.204
▁Liberty	-11.204
▁Standard	-11.2041
▁Ana	-11.2043
▁fat	-11.2044
▁gods	-11.2045
▁extract	-11.205
98	-11.2051
▁boyfriend	-11.2052
▁ballot	-11.2055
▁Archbishop	-11.2058
▁genuine	-11.2058
▁Affairs	-11.2059
▁goddess	-11.2064
▁flu	-11.2065
▁ERA	-11.2068
▁Lower	-11.2071
▁polar	-11.2072
▁shadow	-11.2077
▁Strait	-11.2078
▁cameo	-11.208
▁indigenous	-11.2081
ple	-11.2082
▁Euro	-11.2087
▁Malcolm	-11.2089
▁na	-11.2098
▁Too	-11.2099
▁Career	-11.21
▁Buck	-11.21
AT	-11.2101
▁Meteorological	-11.2101
etic	-11.2105
▁transmission	-11.2107
set	-11.2108
aka	-11.2109
▁flash	-11.2109
ase	-11.211
▁corporate	-11.2113
▁easier	-11.2114
▁Boulevard	-11.212
▁options	-11.212
▁referee	-11.2122
▁displays	-11.2122
▁advocat	-11.2123
▁licens	-11.2123
▁CO	-11.2125
▁Isaac	-11.2128
▁dies	-11.2129
▁helicopter	-11.213
▁Zu	-11.213
▁Opera	-11.2131
▁Kenneth	-11.2132
▁random	-11.2133
▁logo	-11.2133
▁Ter	-11.2134
▁remake	-11.2138
▁rivals	-11.2139
▁definite	-11.2145
▁relat	-11.2147
▁Make	-11.2149
▁Commissioner	-11.2149
▁Low	-11.2153
▁hills	-11.2153
▁Mis	-11.2153
▁Where	-11.2153
nal	-11.2155
▁fulfill	-11.2156
▁Leicester	-11.2156
▁deputy	-11.2156
▁consumption	-11.2156
▁ties	-11.2159
▁metre	-11.216
▁occurr	-11.2161
▁scrapp	-11.2163
▁attribute	-11.2163
Hg	-11.2168
▁vocalist	-11.2171
▁pav	-11.2171
aya	-11.2179
▁breast	-11.2179
▁flesh	-11.2181
▁Alberta	-11.2182
▁Roberts	-11.2183
▁quot	-11.2185
▁Capital	-11.2187
▁measur	-11.219
▁statements	-11.219
dra	-11.2191
▁excess	-11.2192
▁Pedro	-11.2194
▁Wu	-11.2196
▁DJ	-11.2198
ngry	-11.2198
▁resignation	-11.2201
ila	-11.2201
▁parks	-11.2203
att	-11.2204
▁nurse	-11.2205
▁Energy	-11.2206
▁Dublin	-11.2206
ado	-11.2209
▁Rush	-11.2211
▁Chamberlain	-11.2212
▁suppress	-11.2216
▁allocat	-11.2216
hart	-11.2219
lus	-11.2226
▁blam	-11.2226
▁dreadnought	-11.2231
▁Ry	-11.2231
▁Scar	-11.2232
▁Count	-11.2233
▁Friends	-11.2233
▁punishment	-11.2238
▁sentenc	-11.2245
▁1862	-11.225
▁Rad	-11.2253
▁stern	-11.2258
pro	-11.2261
▁stripp	-11.2261
▁Electronic	-11.2262
▁pounder	-11.2262
▁Islam	-11.2262
▁restrictions	-11.2262
▁benefits	-11.2266
▁Hit	-11.2273
▁industrie	-11.2274
och	-11.2275
▁Yugoslavia	-11.2276
▁corresponding	-11.2277
hal	-11.2279
▁nephew	-11.228
▁Bradley	-11.2281
▁pan	-11.2283
▁Crystal	-11.2283
▁Whit	-11.2283
▁releas	-11.2284
ash	-11.2285
▁Adventure	-11.2287
▁Horn	-11.2287
▁Machine	-11.2287
▁Origin	-11.2288
bro	-11.2289
▁loud	-11.2291
▁judges	-11.2292
▁sick	-11.2293
▁collision	-11.2299
▁Romanian	-11.231
▁territorial	-11.2311
ér	-11.2313
▁varie	-11.2315
▁user	-11.2315
▁Number	-11.2318
zz	-11.232
▁Hearts	-11.2321
▁observe	-11.2321
▁Pal	-11.2323
▁vicinit	-11.2324
▁shipment	-11.2326
▁Dennis	-11.2326
tle	-11.2327
▁Julian	-11.2332
▁variations	-11.2333
▁disappointed	-11.2333
▁kilogram	-11.2337
▁Kaiser	-11.2337
▁Raj	-11.2338
▁Burke	-11.2339
▁log	-11.2347
▁valid	-11.2347
▁corridor	-11.2349
▁adapt	-11.2349
▁pen	-11.235
▁beliefs	-11.235
▁Youth	-11.2351
▁organic	-11.2351
▁Dakota	-11.2355
▁complicated	-11.2355
▁thunderstorm	-11.2355
DOT	-11.2359
▁positively	-11.2362
▁rapper	-11.2362
▁mixing	-11.2364
nan	-11.2365
▁expert	-11.2367
▁customers	-11.2368
▁Political	-11.2368
▁Nam	-11.2371
ema	-11.2374
▁settlements	-11.2374
▁screening	-11.2375
▁bitter	-11.2376
▁Lou	-11.2376
▁Historian	-11.2377
33	-11.238
▁revolutionary	-11.2382
▁stall	-11.2386
▁circulat	-11.2391
▁Tin	-11.2391
▁ferry	-11.2393
▁roster	-11.2393
▁speculat	-11.2396
▁barrel	-11.2397
▁Churchill	-11.2401
65	-11.2402
▁Serbia	-11.2403
▁Bear	-11.2405
▁Springfield	-11.2407
▁particles	-11.2408
▁Jake	-11.241
▁hail	-11.2412
len	-11.2412
▁Morning	-11.2412
▁infect	-11.2416
41	-11.2416
▁congregation	-11.2419
▁Conservative	-11.2419
▁wash	-11.242
▁burst	-11.242
▁troop	-11.2421
rell	-11.2423
▁convicted	-11.2425
▁Gill	-11.2425
▁Tommy	-11.2431
▁rely	-11.2431
▁Ce	-11.2432
▁prayer	-11.2433
▁humanity	-11.2435
▁220	-11.2437
ali	-11.2437
▁Der	-11.2439
▁reconstruction	-11.2439
▁Range	-11.2442
pol	-11.2443
▁inaugural	-11.2444
▁Alliance	-11.2444
▁Got	-11.2446
▁steadi	-11.2449
▁consumer	-11.245
▁Filming	-11.2451
▁Studies	-11.2451
list	-11.2452
rom	-11.2454
▁fluid	-11.2458
▁transit	-11.2459
▁breach	-11.2463
▁1840	-11.2466
▁mansion	-11.247
▁nationalist	-11.247
▁honest	-11.2475
nic	-11.2478
▁Serb	-11.2481
▁Hop	-11.2482
99	-11.2483
▁Ages	-11.2483
▁sheep	-11.2483
llied	-11.2486
cker	-11.2487
▁mysterious	-11.2488
▁Wagner	-11.2495
book	-11.2496
▁Inside	-11.2497
▁Blake	-11.2499
▁Bears	-11.25
▁sentiment	-11.2501
▁Malta	-11.2503
▁Hull	-11.2504
▁silent	-11.2507
▁wonder	-11.2512
▁domain	-11.2514
▁Friedrich	-11.2514
▁labour	-11.2515
▁sharks	-11.2519
▁Maine	-11.252
▁Montana	-11.2521
▁lasting	-11.2522
▁Il	-11.2523
▁Ac	-11.2523
▁maps	-11.2524
▁accessibl	-11.2525
▁colours	-11.2529
▁arose	-11.2531
▁exterior	-11.2533
▁Rich	-11.2538
▁Gra	-11.2539
▁dock	-11.2543
▁mammals	-11.2543
▁challenges	-11.2544
▁Mind	-11.2544
▁Cincinnati	-11.2546
▁Qui	-11.2547
▁Lamb	-11.255
▁combine	-11.255
▁conspiracy	-11.2552
▁Nation	-11.2557
▁102	-11.2558
▁Olivia	-11.2559
▁Tree	-11.2562
▁Non	-11.2566
▁Kid	-11.2567
uch	-11.2567
▁gathering	-11.257
▁medals	-11.2573
not	-11.2574
▁voters	-11.2575
▁Mann	-11.2577
▁din	-11.2578
▁specializ	-11.2578
eau	-11.2579
▁reache	-11.258
▁Leon	-11.2581
44	-11.2583
beaten	-11.2584
▁gunner	-11.2585
▁permit	-11.2585
▁Tr	-11.2593
▁threatening	-11.2596
▁Cra	-11.2596
▁Steam	-11.2601
▁Barr	-11.2601
▁Sho	-11.2603
▁mutual	-11.2603
▁Angelo	-11.2607
▁Ze	-11.2608
▁HD	-11.2609
▁spider	-11.261
▁Normandy	-11.261
▁Ever	-11.2611
▁Hood	-11.2611
▁rifle	-11.2616
▁knight	-11.2617
▁camps	-11.2624
olo	-11.2624
rk	-11.2625
▁asserted	-11.2628
▁Shield	-11.2629
▁Afghanistan	-11.2629
▁stunt	-11.2629
▁bra	-11.2632
▁ion	-11.2635
▁VIII	-11.2637
▁quarters	-11.2637
▁outdoor	-11.2642
▁Austro	-11.2642
▁Cy	-11.2643
▁reporter	-11.2647
▁electro	-11.2652
idi	-11.2652
▁Mus	-11.2654
▁courses	-11.2656
▁Marines	-11.2656
nce	-11.2658
▁Arena	-11.266
▁Circle	-11.2661
▁Yugoslav	-11.2666
▁Devil	-11.2667
▁sphere	-11.2669
▁1887	-11.2671
▁Was	-11.2673
▁invent	-11.2674
▁skeleton	-11.2674
rid	-11.2674
▁Madison	-11.2675
▁assassination	-11.2676
▁dropping	-11.2677
▁feathers	-11.2684
▁Edmund	-11.2687
▁installment	-11.2688
▁Twitter	-11.2694
▁patent	-11.2694
▁Curtis	-11.2694
▁outstanding	-11.2697
▁mo	-11.2698
68	-11.2702
▁trio	-11.2707
reby	-11.271
▁plates	-11.2717
▁cuts	-11.2718
▁1863	-11.2722
ites	-11.2723
▁root	-11.2724
pur	-11.2725
▁mild	-11.2727
night	-11.2734
▁Pet	-11.2734
▁fe	-11.2734
▁Brook	-11.2736
▁Vegas	-11.2738
lot	-11.274
▁pump	-11.2742
▁1886	-11.2743
▁averag	-11.2745
▁Former	-11.2745
▁Gregory	-11.2748
▁Kara	-11.2749
▁Technology	-11.2752
▁enact	-11.2753
▁Orton	-11.2754
▁Sim	-11.2756
▁migration	-11.276
▁tools	-11.2763
▁Gay	-11.2764
▁Milan	-11.2767
tar	-11.2767
▁pink	-11.2767
▁routing	-11.2769
▁JNA	-11.2773
▁filmmaker	-11.2774
▁Les	-11.2775
win	-11.2775
ope	-11.2776
▁Mall	-11.2776
▁Rev	-11.2776
▁intermediate	-11.2779
▁Schumach	-11.2779
▁gauge	-11.2779
▁varying	-11.2787
▁exploration	-11.2788
▁Ty	-11.279
far	-11.2791
▁Mercury	-11.2792
▁Brooklyn	-11.2792
▁fungus	-11.2798
vis	-11.2799
▁teenager	-11.2802
▁Anton	-11.2803
▁Leeds	-11.2804
▁judicial	-11.2805
▁Pr	-11.2807
▁complement	-11.2807
▁MLB	-11.2812
phy	-11.2813
▁voices	-11.2815
▁grid	-11.2817
▁readi	-11.2818
ili	-11.2818
▁Urban	-11.2818
▁Josh	-11.2828
▁ensur	-11.2832
▁blockade	-11.2834
▁harbor	-11.2838
▁Comics	-11.2838
▁Eagle	-11.2838
▁Sto	-11.284
▁Cur	-11.2841
▁Hubbard	-11.2844
▁anthem	-11.2845
▁Market	-11.285
▁faculty	-11.2851
▁submerg	-11.2851
▁swept	-11.2851
▁Solar	-11.2851
▁Planet	-11.2851
▁Iran	-11.2856
▁finals	-11.2857
▁witnesses	-11.2857
▁Herbert	-11.2859
drawn	-11.2859
▁Name	-11.286
▁Talk	-11.2862
▁Banks	-11.2866
▁Princeton	-11.2866
▁Holland	-11.2867
▁pet	-11.2868
▁Sultan	-11.287
▁Kings	-11.287
▁McKinley	-11.2871
▁milk	-11.2871
▁independently	-11.2871
▁chas	-11.2873
▁commend	-11.2877
▁sketch	-11.288
▁Bang	-11.2881
▁psychological	-11.2884
▁emission	-11.2884
ech	-11.2885
▁Watch	-11.2885
▁bombard	-11.2885
bal	-11.2885
▁enormous	-11.2891
▁comics	-11.2891
▁zero	-11.2891
RA	-11.2892
81	-11.2893
▁murdered	-11.2896
ER	-11.2896
▁Starr	-11.2898
▁Buddhist	-11.2904
▁declaration	-11.2905
▁Month	-11.2906
▁und	-11.2907
mmer	-11.2908
nia	-11.2911
bri	-11.2914
▁martial	-11.2917
▁Ghost	-11.2917
▁Monte	-11.2917
▁Official	-11.292
band	-11.2923
▁corporation	-11.2924
▁confin	-11.2924
▁magnetic	-11.2924
▁1884	-11.2927
▁Tigers	-11.2934
▁Gal	-11.2935
▁NASA	-11.2937
▁allegation	-11.2938
▁Round	-11.2939
▁Lion	-11.295
fshore	-11.2953
▁stability	-11.2957
▁Din	-11.2958
▁holes	-11.2958
▁Theater	-11.2958
▁coastline	-11.2962
▁spur	-11.2962
▁rebel	-11.2962
▁Computer	-11.2967
▁consequence	-11.2968
▁Rosa	-11.2969
▁boost	-11.297
▁detect	-11.297
▁excessive	-11.2972
▁echo	-11.2974
▁touchdowns	-11.2975
▁Titan	-11.2975
play	-11.2976
▁irregular	-11.2977
▁Total	-11.2981
▁saint	-11.2984
▁violation	-11.2986
▁bench	-11.2988
und	-11.2989
▁Glasgow	-11.299
wy	-11.2994
▁confused	-11.2996
▁locomotives	-11.2997
▁acquisition	-11.2997
▁insurance	-11.2997
▁ambush	-11.2997
▁ceremoni	-11.2998
▁decoration	-11.3001
▁Canucks	-11.3004
▁flown	-11.3004
▁fortifications	-11.3008
▁mad	-11.301
▁harvest	-11.3011
▁torpedoes	-11.3012
▁rains	-11.3015
▁challenging	-11.3017
▁rice	-11.3019
▁tender	-11.3021
▁noble	-11.3022
▁Franco	-11.3031
▁cotton	-11.3037
▁Fan	-11.304
room	-11.304
▁Alpha	-11.3042
▁Train	-11.3042
IS	-11.3044
▁calm	-11.3044
▁adjust	-11.305
▁deployment	-11.3054
▁eliminate	-11.3054
▁atop	-11.3056
ose	-11.3056
▁Fifth	-11.3058
▁Phillies	-11.3058
▁Theodore	-11.3061
▁Strong	-11.3061
▁uprising	-11.3061
stream	-11.3063
▁remind	-11.3064
▁Ottawa	-11.3064
▁Scout	-11.3065
bird	-11.3067
▁Millennium	-11.3071
▁Tintin	-11.3072
▁diversity	-11.3072
▁worse	-11.3074
▁NA	-11.3075
▁Denver	-11.3078
▁Westminster	-11.3079
▁Break	-11.308
▁gam	-11.3081
▁couldn	-11.3084
45	-11.3085
▁Has	-11.3085
▁gene	-11.3086
▁collections	-11.3088
▁engineers	-11.309
▁diminish	-11.3091
▁cur	-11.3093
▁Nevada	-11.3098
▁Rod	-11.3099
▁Percy	-11.3099
▁quest	-11.3102
▁127	-11.3103
▁Otto	-11.3108
▁BCE	-11.311
▁Chuck	-11.3113
▁viewing	-11.3115
▁CEO	-11.3119
▁fed	-11.312
▁collector	-11.3121
ties	-11.3124
▁Basketball	-11.3125
▁jail	-11.3126
▁UB	-11.3128
▁1877	-11.313
rac	-11.3131
▁bottle	-11.3132
▁bo	-11.3133
▁Current	-11.3139
▁aesthetic	-11.3139
▁Gothic	-11.3139
▁myself	-11.314
▁exceptional	-11.3144
▁Large	-11.3148
▁donation	-11.3151
▁outfit	-11.3151
▁Manuel	-11.3154
▁1876	-11.3155
▁intend	-11.3157
▁agencies	-11.3159
▁ghost	-11.3159
▁cemetery	-11.3162
▁Turn	-11.3162
▁jersey	-11.3166
▁Mercedes	-11.3166
▁conviction	-11.3167
▁scores	-11.3169
▁Reed	-11.3169
▁resolve	-11.3171
▁motif	-11.3173
▁resembl	-11.3174
▁detected	-11.3175
▁beside	-11.3177
▁Stage	-11.3181
act	-11.3186
▁battlefield	-11.3189
▁Ellen	-11.3195
rich	-11.3198
▁Colin	-11.3199
▁intelligent	-11.32
▁Reg	-11.3206
▁rebounds	-11.3207
▁Emma	-11.3212
zen	-11.3213
▁hypothesis	-11.3214
▁Albany	-11.3217
▁emerge	-11.322
▁Gloucester	-11.3221
▁aggregate	-11.3221
▁sensitive	-11.3221
are	-11.3224
▁emphasiz	-11.3224
▁Kil	-11.3225
▁notion	-11.3226
RS	-11.3227
▁threats	-11.3227
▁hatch	-11.3229
▁Cox	-11.3229
▁radius	-11.3229
▁Days	-11.3233
inus	-11.3233
▁Grove	-11.3233
▁revenge	-11.3234
▁assignment	-11.3235
▁hint	-11.3236
▁Brand	-11.3237
▁dissolv	-11.3237
64	-11.3237
▁Ronald	-11.3239
▁monster	-11.3239
▁rocks	-11.324
uit	-11.3247
▁file	-11.3247
▁relate	-11.3253
▁eligible	-11.3257
▁elevated	-11.3258
▁guests	-11.326
▁blame	-11.3261
▁Territory	-11.3262
chy	-11.3264
Brien	-11.3265
ote	-11.3265
▁LP	-11.3266
aging	-11.327
▁Hey	-11.3278
▁prefer	-11.3278
87	-11.328
▁bio	-11.3283
▁declare	-11.3288
▁compar	-11.3288
▁Composition	-11.3296
nik	-11.3297
phi	-11.3297
▁1830	-11.33
▁Nash	-11.3302
▁Weather	-11.3303
▁prompting	-11.3304
▁editions	-11.3305
▁Delta	-11.3307
▁mast	-11.3312
▁strikes	-11.3314
▁Chester	-11.3317
▁Chan	-11.3317
▁linear	-11.332
▁Bla	-11.3323
▁kiss	-11.3323
▁Economic	-11.3324
▁Canyon	-11.3324
▁finest	-11.3325
▁crush	-11.3326
▁achievement	-11.3329
▁lava	-11.333
▁Barcelona	-11.3331
▁Pokémon	-11.3331
mor	-11.3333
77	-11.3333
▁Marsh	-11.3334
▁steppe	-11.3335
▁accelerat	-11.3336
▁integrated	-11.3337
▁consequent	-11.3338
ink	-11.3338
▁1875	-11.334
▁specialist	-11.334
▁harmon	-11.3347
▁odd	-11.3347
▁indirect	-11.3348
▁Foster	-11.3352
▁lease	-11.3354
▁Ship	-11.3354
▁Pitt	-11.3355
▁Metal	-11.3356
▁reviv	-11.3356
▁punt	-11.3356
▁Poe	-11.3358
▁cubic	-11.3364
▁quit	-11.3364
▁competitions	-11.3371
▁enthusiastic	-11.3371
▁Parkway	-11.3373
▁fossils	-11.3374
ello	-11.3379
▁Henderson	-11.3379
▁width	-11.3379
▁archaeological	-11.338
▁Labor	-11.3382
cor	-11.3383
▁230	-11.3385
▁Carlos	-11.339
▁sharing	-11.339
▁SmackDown	-11.3393
▁Enix	-11.3394
▁laugh	-11.3395
▁Body	-11.3395
▁smok	-11.3396
▁links	-11.3398
▁Kn	-11.34
▁abundant	-11.34
▁remarkabl	-11.3403
▁Raymond	-11.3408
▁instant	-11.3408
▁yd	-11.341
▁weakness	-11.3413
▁ward	-11.3413
▁induc	-11.3414
▁resign	-11.3419
gle	-11.3423
▁Rh	-11.3423
▁ne	-11.3423
▁Leigh	-11.3426
▁leaf	-11.3427
▁Au	-11.3428
▁Duncan	-11.3428
▁Blair	-11.3429
▁horn	-11.343
▁Bosnia	-11.3432
71	-11.3434
▁southwestern	-11.3435
▁vegetation	-11.3435
▁Derby	-11.3444
▁1883	-11.3444
▁True	-11.3449
▁successive	-11.3449
▁memoir	-11.3449
▁Gabriel	-11.3452
▁Single	-11.3454
▁scientist	-11.3455
▁Professional	-11.3463
▁Desert	-11.3463
▁kids	-11.3464
▁1881	-11.3466
oe	-11.3469
07	-11.3475
▁tier	-11.3476
▁delegation	-11.3477
▁continental	-11.3481
▁properly	-11.3484
▁borough	-11.3484
▁invitation	-11.3484
ST	-11.3485
▁encounters	-11.3489
46	-11.349
▁aside	-11.3495
▁bag	-11.3495
cent	-11.3499
refore	-11.3503
▁acquire	-11.3504
▁Northwest	-11.3505
▁Veronica	-11.3505
▁mortar	-11.3512
▁propaganda	-11.3512
▁manag	-11.3513
▁hunter	-11.3516
▁submarines	-11.3519
▁procedure	-11.352
▁Jamaica	-11.3523
▁Cle	-11.3526
▁presidenc	-11.3527
▁verses	-11.3528
▁Fur	-11.3529
▁coaches	-11.3529
▁Lead	-11.353
ob	-11.3531
▁printing	-11.3532
88	-11.3532
▁antagonist	-11.3534
▁hence	-11.3534
▁Powell	-11.3535
▁Mos	-11.3536
▁Cardinals	-11.3537
▁Kra	-11.3539
▁Lancashire	-11.3541
▁Richardson	-11.3545
▁orchestral	-11.3546
▁RNA	-11.3546
▁190	-11.3546
▁backed	-11.3548
▁tendenc	-11.3548
▁consciousness	-11.3549
▁landmark	-11.355
▁crucial	-11.3551
▁1869	-11.3552
▁Mes	-11.3552
▁Store	-11.3556
▁Ferdinand	-11.3562
▁etc	-11.3562
▁damaging	-11.3562
▁Jen	-11.3565
▁Calgary	-11.3569
▁detachment	-11.3569
▁lesser	-11.3579
comprising	-11.3585
▁northeastern	-11.3586
met	-11.3593
rm	-11.3597
▁Venic	-11.3597
▁spite	-11.3598
chan	-11.36
▁nervous	-11.3604
ister	-11.3607
▁Butler	-11.3609
▁1866	-11.3609
▁Malay	-11.3611
apolis	-11.3614
▁Dal	-11.3617
▁PS	-11.3619
versus	-11.3623
▁jaw	-11.3624
▁boom	-11.3625
▁Floyd	-11.3626
▁Ker	-11.3627
fu	-11.3627
▁fr	-11.3628
▁cartoon	-11.3632
▁instructions	-11.3632
▁hamlet	-11.3633
▁Meyer	-11.3634
mic	-11.3634
▁sortie	-11.3637
▁woodland	-11.3637
▁championships	-11.3638
▁forth	-11.3639
▁Culture	-11.364
▁Mail	-11.3641
▁persuade	-11.3644
▁sailors	-11.3645
▁Wellington	-11.3648
ichi	-11.3652
▁genres	-11.3653
▁XI	-11.3654
▁possessed	-11.3654
uli	-11.3656
▁modest	-11.3657
▁Michel	-11.3658
▁Why	-11.366
▁750	-11.366
▁golf	-11.3663
▁Petr	-11.3664
▁Beij	-11.3665
▁Headquarters	-11.3669
76	-11.367
▁Cloud	-11.3671
▁Palestin	-11.3674
▁Viet	-11.3674
▁135	-11.3675
▁authentic	-11.3676
▁filter	-11.3676
▁corruption	-11.3678
▁populat	-11.3681
▁subtropic	-11.3682
▁Pri	-11.3682
▁phenomenon	-11.3683
▁whale	-11.3688
▁seeming	-11.3688
wo	-11.369
▁Crawford	-11.369
▁Solomon	-11.369
▁Using	-11.3692
▁Steel	-11.3693
61	-11.3695
▁Aaron	-11.3698
▁frontier	-11.3698
cur	-11.37
59	-11.3701
▁Thi	-11.3704
▁ni	-11.3704
▁philosopher	-11.3705
▁cook	-11.3705
▁Members	-11.3708
▁Episode	-11.3712
▁Flanders	-11.3712
▁consent	-11.3712
▁lifestyle	-11.3713
▁pe	-11.3715
▁Cry	-11.3716
▁fix	-11.3718
▁Mine	-11.3718
▁Telegraph	-11.3719
▁throat	-11.3719
RC	-11.372
thrown	-11.3723
▁Site	-11.3724
▁Punk	-11.3733
▁surprising	-11.3733
▁eighteen	-11.3738
▁dimensional	-11.3739
▁colored	-11.374
▁kitchen	-11.3741
▁Food	-11.3742
▁thanks	-11.3744
▁Fischer	-11.3748
▁silk	-11.3748
▁button	-11.3748
▁Watson	-11.3749
▁clouds	-11.3749
▁Tucker	-11.3752
moto	-11.3754
▁Chile	-11.3755
▁ambition	-11.3755
▁poverty	-11.3755
▁input	-11.3756
int	-11.3756
▁1873	-11.3757
▁Truman	-11.3758
aire	-11.3758
▁awareness	-11.3758
▁insert	-11.3758
urged	-11.376
▁innovation	-11.3762
▁Tur	-11.3764
vel	-11.3769
▁Heavy	-11.377
▁1882	-11.3772
57	-11.3773
rant	-11.3775
▁worker	-11.3778
▁arcade	-11.3778
▁Gas	-11.3778
▁rehearsal	-11.3779
▁Burn	-11.378
xi	-11.3781
▁Geoffr	-11.3782
▁achievements	-11.3782
▁mbar	-11.3784
▁notic	-11.3785
▁ensemble	-11.3791
char	-11.3793
90	-11.3794
▁eruption	-11.3795
▁shopp	-11.3795
lt	-11.3798
▁canon	-11.38
▁1871	-11.3802
nu	-11.3803
ean	-11.3803
▁Kor	-11.3804
▁Im	-11.3804
▁controller	-11.3804
▁Caesar	-11.3806
▁Quest	-11.3807
umi	-11.381
▁Adrian	-11.3813
▁Tai	-11.3814
▁variant	-11.3815
▁1867	-11.3817
▁Travel	-11.3818
▁conducting	-11.3818
▁Monument	-11.382
▁molecular	-11.382
▁listening	-11.3821
▁pleasure	-11.3821
▁poison	-11.3825
▁regiments	-11.3826
bul	-11.3828
▁theaters	-11.3834
▁Kepler	-11.3835
heim	-11.3836
▁Panama	-11.3836
pha	-11.3838
cast	-11.3838
hurst	-11.3841
▁overcome	-11.3842
▁rocket	-11.3843
▁clip	-11.3845
iest	-11.3846
▁McCarthy	-11.3849
▁percussion	-11.3849
▁Cher	-11.385
▁ease	-11.3851
▁acceptance	-11.3851
▁tactical	-11.3852
▁navigation	-11.3852
▁Clement	-11.3855
▁reinforce	-11.3863
▁Bengal	-11.3866
▁marsh	-11.3869
▁mechanics	-11.3874
▁icon	-11.3876
▁surpassed	-11.3877
named	-11.3877
aku	-11.3879
▁reopen	-11.3879
▁fierce	-11.3879
▁Dudley	-11.3886
▁Norse	-11.3889
bit	-11.3889
▁erupt	-11.3891
▁arguments	-11.3892
▁elephant	-11.3893
▁overwhelming	-11.3897
▁relay	-11.3897
▁realm	-11.3898
▁interact	-11.3899
▁clash	-11.3899
▁revealing	-11.3901
▁Artist	-11.3903
rate	-11.3904
▁Deputy	-11.3908
▁peasant	-11.3908
▁unanimous	-11.3908
▁tributar	-11.3908
▁mud	-11.3908
gna	-11.3908
▁Sid	-11.3909
▁genera	-11.3909
▁Eu	-11.3911
▁1878	-11.3911
▁Gibson	-11.3915
▁divine	-11.3915
▁pocket	-11.3923
▁Heaven	-11.3923
▁fitting	-11.3923
▁Movement	-11.3923
▁comprised	-11.3924
▁mock	-11.3924
ert	-11.3925
gre	-11.393
▁syndrome	-11.393
▁thorough	-11.393
▁Author	-11.3931
▁functional	-11.3934
▁oak	-11.3939
▁performers	-11.394
▁Commercial	-11.3945
40	-11.3945
▁winners	-11.3949
▁Luftwaffe	-11.3952
▁ironclad	-11.3952
▁Wei	-11.3955
ain	-11.3958
▁Newman	-11.3959
▁Damage	-11.3961
sville	-11.3962
▁iTune	-11.3967
▁nerve	-11.3967
▁graphic	-11.3969
▁Isles	-11.3971
▁Trinity	-11.3974
▁AC	-11.3976
ically	-11.3978
▁sic	-11.3979
▁Sara	-11.398
esh	-11.3982
▁Hawaiian	-11.3994
ith	-11.3996
▁privilege	-11.3996
▁Region	-11.3998
▁Wil	-11.4
ost	-11.4002
58	-11.4005
aud	-11.4006
iki	-11.401
▁Mobile	-11.4011
▁Burger	-11.4011
maker	-11.4015
vert	-11.4016
▁Expedition	-11.4018
▁Adult	-11.4018
▁bowled	-11.4019
▁Leader	-11.4025
▁Choice	-11.4026
▁legitimate	-11.4027
▁Revolutionar	-11.4028
▁feminist	-11.4033
▁Christians	-11.4036
▁raw	-11.4043
▁underwater	-11.4046
▁depress	-11.4047
▁headline	-11.4049
▁pinn	-11.405
56	-11.4051
▁reader	-11.4052
▁Combat	-11.4053
▁Metacritic	-11.4056
▁statute	-11.4056
shaw	-11.4059
▁su	-11.4064
▁Mick	-11.4064
sham	-11.4067
▁Logan	-11.4067
▁Bermuda	-11.4071
▁lesbian	-11.4071
▁qualification	-11.4071
▁plantation	-11.4072
34	-11.4073
tail	-11.4074
▁missile	-11.4075
ground	-11.4077
ual	-11.4078
ral	-11.408
▁shirt	-11.4089
▁Taiwan	-11.4093
▁consensus	-11.4093
▁centered	-11.4103
ante	-11.4103
▁Any	-11.4103
▁Monroe	-11.4108
▁qualities	-11.4108
▁synthesis	-11.4108
▁Shelley	-11.4108
▁Notable	-11.4111
▁Gla	-11.4112
▁intact	-11.4116
▁loyalty	-11.4117
▁manual	-11.4118
▁Hale	-11.4121
▁caution	-11.4123
▁coalition	-11.4123
▁perception	-11.4124
70	-11.4124
▁Springs	-11.4126
▁Marcus	-11.4129
▁Genesis	-11.4131
▁Raven	-11.4133
▁Bert	-11.4134
▁immigrants	-11.4134
▁Right	-11.4137
▁adequate	-11.4138
▁Gang	-11.4138
▁Spencer	-11.4139
▁Manager	-11.4139
▁conductor	-11.4142
ale	-11.4143
▁fragments	-11.4143
▁Mack	-11.4145
▁kn	-11.4145
nar	-11.4145
▁teach	-11.4145
gal	-11.4149
▁pine	-11.415
▁directing	-11.4153
▁stake	-11.4156
▁duck	-11.4156
▁declar	-11.4157
▁knowing	-11.4157
▁Chandler	-11.4161
▁Various	-11.4161
▁gr	-11.4161
▁situations	-11.4164
▁whales	-11.4165
ibility	-11.4165
▁1872	-11.4169
▁Wings	-11.4171
▁ants	-11.4171
▁1868	-11.4171
▁Poll	-11.4171
▁Price	-11.4171
▁Aguilera	-11.4175
▁desperate	-11.4179
kel	-11.4179
▁Ellis	-11.4181
▁propeller	-11.4182
▁caliber	-11.4183
▁captive	-11.4183
▁flame	-11.4189
▁pregnanc	-11.4191
▁Fat	-11.4191
▁Selena	-11.4191
lle	-11.4193
▁divert	-11.4193
▁elde	-11.4195
▁Chase	-11.4198
▁Palm	-11.4201
▁telescope	-11.4206
▁peaceful	-11.4208
nor	-11.4209
▁Money	-11.4216
eck	-11.4217
hand	-11.4219
▁pi	-11.4219
▁greet	-11.4221
▁detective	-11.4222
▁twentieth	-11.4222
▁insufficient	-11.4228
▁locomotive	-11.4229
▁trademark	-11.4229
▁complaints	-11.4236
▁Cabinet	-11.4236
▁songwriting	-11.4237
▁instrumentation	-11.4239
▁confrontation	-11.424
▁Nan	-11.4244
▁appreciat	-11.4246
ides	-11.4247
▁batsman	-11.425
▁engaging	-11.4251
▁receiver	-11.4251
▁Generation	-11.4251
▁cabin	-11.4252
▁objection	-11.4252
▁MVP	-11.4252
▁renovation	-11.4253
▁spots	-11.4257
▁slot	-11.426
▁Newport	-11.4264
▁Belle	-11.4264
▁Vin	-11.4265
▁spare	-11.4267
▁Engineering	-11.4269
▁motivat	-11.4271
mond	-11.4272
▁Tiger	-11.4272
▁preliminar	-11.4274
CA	-11.4279
▁rally	-11.4281
▁Principal	-11.4281
▁Griffin	-11.4281
▁Riley	-11.4283
▁realis	-11.4284
▁internationally	-11.4285
▁Glass	-11.4286
▁bacteria	-11.4288
▁Renaissance	-11.4289
▁ministers	-11.4289
▁Barrett	-11.4291
▁maneuver	-11.4291
▁MS	-11.4292
oka	-11.4295
▁Parachute	-11.4297
▁spectators	-11.4297
▁meal	-11.4301
▁175	-11.4302
▁roller	-11.4303
▁stance	-11.4305
▁judgment	-11.4305
awa	-11.4305
▁Fear	-11.4306
vor	-11.4311
rah	-11.4311
fra	-11.4311
▁Adelaide	-11.4312
▁revision	-11.4317
▁Ark	-11.4317
▁liver	-11.4319
▁Ant	-11.4319
▁Reading	-11.432
▁Dur	-11.4321
▁quote	-11.4323
▁derive	-11.4324
▁riot	-11.4327
▁WWF	-11.4328
▁Waters	-11.433
▁tap	-11.4333
▁reminiscent	-11.4335
▁tow	-11.4338
▁Kir	-11.4338
▁Commons	-11.4339
▁Guild	-11.4342
▁preference	-11.4343
▁objectives	-11.4346
▁Berg	-11.4347
▁Flames	-11.4347
▁Lone	-11.4349
▁Sciences	-11.435
▁weighed	-11.435
▁Surrey	-11.435
▁Regard	-11.4351
▁motorway	-11.4352
▁Hawk	-11.4353
▁interference	-11.4358
▁Maxwell	-11.4359
▁rope	-11.436
54	-11.436
▁homeless	-11.436
ude	-11.436
▁counsel	-11.4361
▁utiliz	-11.4361
▁Zoo	-11.4363
▁attractive	-11.4363
▁publish	-11.4365
quin	-11.4365
▁dealt	-11.4369
▁stain	-11.4373
▁extraordinar	-11.4373
▁Chamber	-11.4375
▁texture	-11.4377
DA	-11.4378
MA	-11.4379
▁Jun	-11.438
▁laud	-11.438
▁loaded	-11.4381
▁machines	-11.4381
▁passion	-11.4383
▁gallery	-11.4389
AR	-11.439
▁depot	-11.4391
▁terror	-11.4395
▁Chancellor	-11.4396
▁Page	-11.4397
▁attachment	-11.4397
▁Legion	-11.4398
viation	-11.4401
▁chord	-11.4402
▁alarm	-11.4406
▁lemurs	-11.4408
das	-11.441
▁Abraham	-11.4412
▁Essex	-11.4412
▁Skinner	-11.4412
held	-11.4412
▁wishes	-11.4413
▁consequences	-11.4414
▁weld	-11.4415
▁quantiti	-11.4419
▁Plymouth	-11.4419
▁auction	-11.4419
▁thickness	-11.442
▁layout	-11.4421
▁volunteer	-11.4422
▁Heath	-11.4422
tti	-11.4426
ode	-11.4426
osis	-11.4427
▁unaware	-11.4427
▁Est	-11.4427
▁warrant	-11.4431
▁Chu	-11.4432
saw	-11.4434
▁fi	-11.4434
▁Foot	-11.4434
▁mathematics	-11.4435
▁organize	-11.4435
▁Madrid	-11.4435
▁civilization	-11.4437
▁Banksia	-11.444
▁Baldwin	-11.4443
▁parade	-11.4447
tone	-11.4447
▁Swan	-11.4447
▁neverthe	-11.445
▁divide	-11.445
▁Brigadier	-11.445
▁Tunnel	-11.4451
agh	-11.4451
▁Kerr	-11.4454
▁conceal	-11.4458
▁Hancock	-11.4458
▁locate	-11.4459
▁reactor	-11.446
▁Stoke	-11.4462
▁runway	-11.4465
▁Preston	-11.4467
▁clay	-11.4468
▁Pur	-11.4468
▁cu	-11.4468
▁baron	-11.4468
▁Stars	-11.447
▁enclos	-11.4471
▁machinery	-11.4473
▁neglect	-11.4474
▁Edgar	-11.4476
▁Mills	-11.4479
▁Vienna	-11.4481
▁Lancaster	-11.4481
▁Model	-11.4483
▁cluster	-11.449
▁Mongol	-11.4494
▁Contemporar	-11.4496
▁Sc	-11.4496
▁fake	-11.45
▁flaw	-11.4502
▁Coach	-11.4505
▁configuration	-11.4505
▁Mari	-11.4505
▁corn	-11.4506
▁Br	-11.4506
▁Diamond	-11.4509
▁endors	-11.451
▁spaces	-11.451
▁instruction	-11.4517
▁confident	-11.452
▁Florence	-11.4521
▁stor	-11.4521
▁citizen	-11.4521
▁productions	-11.4524
▁seeds	-11.4525
▁dislik	-11.4528
▁subordinate	-11.4528
▁nominee	-11.4528
▁auto	-11.4529
mark	-11.4531
▁progression	-11.4531
cut	-11.4536
▁proximit	-11.4536
▁Flood	-11.4536
▁Aviation	-11.4536
84	-11.4538
▁z	-11.454
▁Admiralty	-11.4542
▁triumph	-11.4543
22	-11.4545
pel	-11.4548
▁SH	-11.4551
▁redesign	-11.4553
▁Ji	-11.4553
wich	-11.4553
▁rookie	-11.4554
▁Pol	-11.4555
▁106	-11.4557
▁Pit	-11.4557
▁Jacque	-11.4558
▁custody	-11.4559
▁defect	-11.4565
▁Senior	-11.4567
▁Twenty	-11.4567
ute	-11.4568
▁Cuban	-11.4568
▁grandson	-11.457
▁Nobel	-11.4571
▁pronounced	-11.4575
▁merger	-11.4577
▁southward	-11.458
cio	-11.4581
▁Mk	-11.4582
▁Usher	-11.4583
▁Christianit	-11.4586
▁currency	-11.4588
▁rings	-11.4589
▁Jennifer	-11.4591
▁Jeremy	-11.4591
▁incomplete	-11.4591
bank	-11.4598
▁revers	-11.4598
▁Mau	-11.4599
▁Publishing	-11.46
▁Eye	-11.4601
▁focuse	-11.4604
▁Phillips	-11.4604
atory	-11.4606
▁platoon	-11.4607
▁accommodation	-11.4607
▁113	-11.4609
▁Task	-11.4609
▁Andrea	-11.4609
rapy	-11.461
▁Arkansas	-11.4614
▁suburb	-11.4616
▁ascend	-11.4616
▁muscle	-11.4619
▁funk	-11.4619
▁editorial	-11.4624
▁Bass	-11.4626
▁Circuit	-11.463
▁Hergé	-11.463
▁memories	-11.463
▁keen	-11.4633
▁interactions	-11.4634
▁processing	-11.4637
▁Romania	-11.4637
▁Rail	-11.4638
▁Ltd	-11.4641
▁bout	-11.4642
▁cream	-11.4646
▁1879	-11.465
▁soap	-11.4651
▁obstacle	-11.4654
▁Bun	-11.4655
▁McCain	-11.4655
▁correspond	-11.4657
▁Stories	-11.4657
▁reef	-11.4658
aba	-11.466
▁supervis	-11.4661
▁atmospheric	-11.4662
▁Mile	-11.4663
▁ch	-11.4668
lum	-11.4671
horn	-11.4671
▁des	-11.4675
▁batter	-11.4676
▁McDonald	-11.4677
▁Capitol	-11.4677
▁dawn	-11.4678
▁AP	-11.4678
▁Drama	-11.4679
▁widen	-11.468
how	-11.4681
▁regardless	-11.4683
▁Allmusic	-11.4685
▁Monday	-11.4686
▁Perth	-11.4698
mun	-11.4699
▁molecules	-11.4701
▁Industrial	-11.4701
▁proud	-11.4703
▁155	-11.4704
▁comparable	-11.4706
▁sediment	-11.4709
▁Caroline	-11.4711
▁mat	-11.4712
▁Bowie	-11.4712
▁Cad	-11.4712
stock	-11.4715
▁scorer	-11.4715
▁nineteenth	-11.4715
▁Minogue	-11.4717
▁Mirror	-11.4717
▁northwestern	-11.4717
▁pot	-11.4717
▁Bro	-11.472
▁clergy	-11.4722
▁sustain	-11.4723
▁Double	-11.4725
▁Plaza	-11.4725
▁JG	-11.4726
▁synth	-11.4729
▁Tales	-11.473
32	-11.4731
▁Orthodox	-11.4733
▁Sierra	-11.4733
▁array	-11.4733
▁postpon	-11.4735
lé	-11.4739
▁guards	-11.474
▁Manning	-11.474
▁Edmonton	-11.4741
▁Lithuanian	-11.4742
▁tourism	-11.4743
uz	-11.4746
▁deny	-11.4747
day	-11.4749
▁spann	-11.4749
iel	-11.4751
▁duet	-11.4753
away	-11.4754
▁commemorate	-11.4754
▁hyper	-11.4757
▁Continu	-11.4757
▁Intelligence	-11.4757
▁prosecution	-11.4758
▁decid	-11.4759
▁Motion	-11.476
▁Beautiful	-11.4765
▁Newfoundland	-11.4765
▁thrust	-11.4765
take	-11.4771
▁operator	-11.4772
▁volcano	-11.4772
▁admission	-11.4773
jan	-11.4773
▁Operations	-11.4776
▁Found	-11.4779
lly	-11.4779
▁punish	-11.478
▁muzzle	-11.4781
▁northwestward	-11.4782
▁Lynch	-11.4783
▁discharge	-11.4785
world	-11.4786
top	-11.4788
▁discontinued	-11.4788
▁Fl	-11.479
▁photographer	-11.479
run	-11.4792
▁Eli	-11.4793
▁lights	-11.4794
▁Thunder	-11.4797
▁Bee	-11.4803
▁besieg	-11.4805
old	-11.4806
▁steady	-11.4806
▁finger	-11.4809
▁commit	-11.4809
▁opens	-11.4814
▁welcome	-11.4816
▁Janet	-11.4819
▁Arabian	-11.482
▁testimon	-11.4821
▁ambitious	-11.4821
▁gravity	-11.4821
▁Sword	-11.4822
▁Toy	-11.4829
▁Consequent	-11.4829
▁Nothing	-11.4831
dium	-11.4831
▁recount	-11.4837
▁happi	-11.4837
▁Hat	-11.4837
▁cooperation	-11.4838
▁teachers	-11.4839
▁bath	-11.484
▁patch	-11.4841
▁theoretical	-11.4845
▁270	-11.4845
▁employer	-11.4847
tric	-11.4849
▁Cong	-11.485
▁AA	-11.4851
▁partners	-11.4857
▁mentions	-11.4858
aff	-11.4864
▁Card	-11.4866
▁barely	-11.4868
▁conjunction	-11.4869
▁necessari	-11.4869
▁Edwin	-11.487
▁tours	-11.4876
▁latitude	-11.4877
▁memorabl	-11.4878
▁Protection	-11.4878
beat	-11.4879
▁slip	-11.488
▁165	-11.4883
▁mall	-11.4885
▁accumulat	-11.4886
▁152	-11.489
▁substance	-11.489
▁strings	-11.4891
▁busy	-11.4894
▁captivity	-11.4894
part	-11.4895
ín	-11.4901
▁Jin	-11.4903
▁prop	-11.4906
▁Armenia	-11.4908
bol	-11.4908
hir	-11.4908
▁Spy	-11.491
▁reconstruct	-11.4916
bach	-11.4919
▁Chang	-11.4924
▁112	-11.4926
▁neo	-11.493
▁clerk	-11.4934
▁wonderful	-11.4935
▁Turks	-11.4937
▁editing	-11.4937
wl	-11.4939
▁Clay	-11.494
▁trap	-11.494
atus	-11.4943
▁Devon	-11.4946
▁magical	-11.4949
▁ibn	-11.4951
▁Rhine	-11.4953
▁rulers	-11.4953
▁extinction	-11.4954
app	-11.4958
▁terrorist	-11.496
mate	-11.4961
▁McC	-11.4963
▁Wonder	-11.4965
▁Hip	-11.4966
▁eject	-11.4967
▁Survey	-11.4967
▁View	-11.4967
EC	-11.4968
▁Bern	-11.4969
▁chess	-11.4973
▁108	-11.4973
▁membrane	-11.4975
▁Calvin	-11.4975
▁Nashville	-11.4976
▁honors	-11.4976
▁certification	-11.4984
▁Luis	-11.4988
▁deeper	-11.4989
▁rounded	-11.4991
▁gambl	-11.4994
▁examine	-11.4996
▁transformation	-11.4996
▁Nord	-11.4997
hara	-11.5
▁merit	-11.5003
▁Busch	-11.5004
▁Panther	-11.5009
▁sporting	-11.5009
▁jumping	-11.5012
91	-11.5013
▁enlarg	-11.5016
▁copyright	-11.5016
▁trophy	-11.5016
▁disappointment	-11.5024
▁AllMusic	-11.5024
▁Block	-11.5025
rian	-11.5028
▁tide	-11.5028
pre	-11.503
▁delet	-11.5034
▁Lim	-11.5034
▁Online	-11.5035
▁Chairman	-11.5039
▁anonymous	-11.504
rang	-11.5041
▁FM	-11.5044
▁rumour	-11.5049
▁Mov	-11.5049
▁retire	-11.5049
▁Hank	-11.505
▁Masters	-11.5051
wind	-11.5052
▁refit	-11.5052
▁masse	-11.5054
▁Knights	-11.5057
▁Row	-11.506
▁Louise	-11.5062
▁Yet	-11.5063
▁Corner	-11.5065
▁Junction	-11.5065
▁Peak	-11.5065
▁Maurice	-11.5066
ingham	-11.5067
▁Form	-11.5067
▁pyramid	-11.5073
▁Rhodesia	-11.5074
▁Emily	-11.5074
▁concentrate	-11.5078
▁Hanna	-11.5079
▁Paramount	-11.5082
box	-11.5082
▁weigh	-11.5083
key	-11.5084
▁erosion	-11.509
▁balls	-11.509
▁panels	-11.5105
▁Sue	-11.5106
▁Stop	-11.5106
▁Crane	-11.5111
▁Que	-11.5115
▁clause	-11.5115
▁shrine	-11.5115
▁Arctic	-11.5116
▁Woods	-11.5116
▁Garfield	-11.5116
ott	-11.5121
▁backup	-11.5124
▁demanding	-11.5129
gra	-11.5129
▁writings	-11.513
▁thriller	-11.513
OC	-11.5131
▁nickel	-11.5131
▁chapters	-11.5131
nz	-11.5131
▁RPG	-11.5132
▁145	-11.5133
evolutionary	-11.5134
▁AL	-11.5134
▁riff	-11.5137
▁Moor	-11.5139
▁Kol	-11.514
▁Fra	-11.5141
▁1848	-11.5144
▁Formula	-11.5145
ush	-11.5146
0	-11.5147
▁intensify	-11.5148
amba	-11.5148
▁Face	-11.5149
▁topic	-11.5151
▁speaker	-11.5152
▁Male	-11.5152
oll	-11.5155
▁bin	-11.5156
▁secular	-11.5156
▁compare	-11.516
▁reserves	-11.5161
▁mob	-11.5163
▁Global	-11.5164
▁1874	-11.5167
▁rape	-11.5168
▁vein	-11.5168
TA	-11.5169
▁Alien	-11.5169
▁align	-11.5171
▁bullet	-11.5171
▁Bol	-11.5172
▁metropolitan	-11.5173
▁decree	-11.5173
▁drown	-11.5173
▁Kiss	-11.5173
▁gland	-11.518
▁Bl	-11.5182
▁Pierce	-11.5184
▁plastic	-11.5189
▁210	-11.5189
▁Paper	-11.5193
▁Laura	-11.5193
▁Nicola	-11.5196
▁speeds	-11.5197
▁unhapp	-11.5198
hor	-11.52
uka	-11.5202
▁colonel	-11.5206
▁Windsor	-11.5206
▁Fre	-11.5208
▁Irving	-11.521
▁Axi	-11.521
ova	-11.5213
▁tennis	-11.5217
bor	-11.5218
▁Holmes	-11.522
▁hire	-11.5221
▁Kat	-11.5221
▁reservoir	-11.5223
▁Hopkins	-11.5223
ui	-11.5224
▁reserved	-11.5224
▁Randy	-11.5225
▁tasks	-11.5231
▁undergraduate	-11.5231
▁discussions	-11.5232
ée	-11.5236
▁Martha	-11.5236
78	-11.5237
▁Burg	-11.5238
▁Shan	-11.5238
▁Manor	-11.5243
▁Lind	-11.5246
▁Kur	-11.5248
▁lobby	-11.5248
▁Ski	-11.525
▁Michelle	-11.5251
▁item	-11.5253
erson	-11.5257
▁silence	-11.5262
▁plutoni	-11.5265
▁Stalin	-11.5266
▁lakes	-11.5268
▁Lea	-11.527
read	-11.5271
▁worried	-11.5272
▁specifi	-11.5272
▁Reform	-11.5273
▁SpongeBob	-11.5273
▁tongue	-11.5274
▁loading	-11.5274
▁identification	-11.5274
DS	-11.5281
▁groove	-11.5281
▁diving	-11.5281
▁Lindwall	-11.5282
▁barrier	-11.5282
erman	-11.5283
▁Advance	-11.5283
▁hiding	-11.5284
▁crowned	-11.5285
▁detached	-11.5285
▁Partisan	-11.529
▁disagreement	-11.5291
game	-11.5292
▁Basin	-11.5295
▁Harper	-11.5296
▁compact	-11.5298
▁ser	-11.53
asa	-11.5301
oz	-11.5303
▁resume	-11.5304
▁Nad	-11.5306
▁Argentine	-11.5307
▁Patriot	-11.5307
▁Walk	-11.5311
▁unlock	-11.5312
feld	-11.5316
▁Dodger	-11.5317
▁Lan	-11.5318
▁Hold	-11.5321
▁Rec	-11.5322
▁pose	-11.5323
▁investor	-11.5323
▁Arabic	-11.5325
str	-11.5326
▁oxide	-11.5331
▁Turnpike	-11.5332
▁uncover	-11.5333
▁vampire	-11.5335
▁teenage	-11.5337
▁bars	-11.5337
▁sympath	-11.534
▁counterattack	-11.5341
▁Snake	-11.5341
▁luck	-11.5341
▁Claire	-11.5342
cin	-11.5343
▁Gerald	-11.5343
▁kit	-11.5344
▁contestant	-11.5344
▁brings	-11.5346
▁Berkeley	-11.5349
▁Stanford	-11.535
▁geographical	-11.5353
grad	-11.5353
▁Case	-11.5356
▁garage	-11.5358
▁Rhodesian	-11.5364
ashi	-11.5365
▁instructor	-11.5365
ware	-11.5366
▁Iceland	-11.5367
▁Presley	-11.5367
▁manor	-11.5368
▁demon	-11.5373
▁feat	-11.5374
▁Adventures	-11.5374
▁hectare	-11.5374
achi	-11.5374
eva	-11.5378
▁Rhode	-11.5378
▁fusion	-11.5383
▁Superman	-11.5384
▁internet	-11.5385
▁Stefani	-11.5386
▁funnel	-11.5386
▁Observer	-11.5387
▁Others	-11.5387
09	-11.5388
▁Bulgaria	-11.539
ometric	-11.5392
▁Willis	-11.5393
▁131	-11.5394
▁haul	-11.5394
▁diagnosed	-11.5397
▁cor	-11.5398
canal	-11.54
▁electoral	-11.54
▁Vocal	-11.54
▁seize	-11.5402
▁reflection	-11.5406
illo	-11.5406
▁Guadal	-11.5409
▁Pac	-11.5409
▁landings	-11.5413
▁Wat	-11.5413
▁Luc	-11.5414
TS	-11.5414
▁ta	-11.5416
▁Soundtrack	-11.5417
▁coloured	-11.542
▁Glenn	-11.5421
▁activat	-11.5424
▁plead	-11.5425
▁bedroom	-11.5426
▁naked	-11.5426
▁NL	-11.5428
TV	-11.5428
▁honorar	-11.5431
hole	-11.5431
log	-11.5432
▁Dale	-11.5434
iva	-11.5434
▁pirate	-11.5436
▁Member	-11.5439
▁comprehensive	-11.5443
▁jokes	-11.5447
▁Care	-11.5448
▁lineup	-11.5449
▁Jennings	-11.5451
▁Recreation	-11.5451
▁lodge	-11.5452
beit	-11.5454
▁Raja	-11.5455
tern	-11.5461
▁woods	-11.5465
OR	-11.5467
▁Beside	-11.5469
▁torture	-11.5479
▁waterline	-11.5482
▁Castro	-11.5483
▁centimetre	-11.5485
stown	-11.5486
▁Chapman	-11.5486
▁1851	-11.5488
FR	-11.549
bon	-11.5492
BA	-11.5492
▁Delhi	-11.5495
▁Shore	-11.5495
▁disk	-11.55
borough	-11.5501
ull	-11.5501
▁propose	-11.5504
▁Broadcasting	-11.5506
phone	-11.5506
▁AM	-11.5508
▁Mana	-11.5511
▁Outside	-11.5516
try	-11.5516
▁unofficial	-11.552
▁intersections	-11.5522
like	-11.5522
▁Living	-11.5522
▁Berry	-11.5523
▁rational	-11.5524
▁genes	-11.5526
▁sc	-11.5526
▁Marco	-11.5527
▁Concert	-11.5529
▁280	-11.553
▁103	-11.5531
▁Singer	-11.5532
▁evacuate	-11.5533
gram	-11.5535
▁solve	-11.5535
▁accent	-11.5537
▁Alternative	-11.5537
▁Nathan	-11.554
▁darkness	-11.5541
▁Booth	-11.5541
erg	-11.5542
▁Palmer	-11.5543
▁Bueno	-11.5546
▁Ny	-11.5546
▁experts	-11.5547
fold	-11.5549
▁Comic	-11.5549
ras	-11.555
▁Mun	-11.555
▁insect	-11.5551
▁Hayes	-11.5552
▁Baptist	-11.5553
▁affiliate	-11.5553
94	-11.5554
▁Southampton	-11.5554
▁mathematical	-11.5554
▁Universe	-11.5554
▁sacred	-11.5555
▁André	-11.5557
▁symbolic	-11.5558
▁Gone	-11.556
▁Borough	-11.5564
▁Nichols	-11.5564
atic	-11.5565
▁Pilot	-11.5565
▁violat	-11.5566
odi	-11.5567
▁Whig	-11.557
▁amazing	-11.557
▁Spielberg	-11.5572
▁Jeffrey	-11.5572
▁compensation	-11.5572
ridge	-11.5576
zh	-11.5577
▁Johann	-11.5578
aro	-11.5578
74	-11.558
▁Style	-11.558
▁Fletcher	-11.558
▁ages	-11.5581
▁Tell	-11.5582
▁comet	-11.5584
▁Venus	-11.5586
▁midnight	-11.5591
▁Dominican	-11.5592
▁App	-11.5594
cla	-11.5594
▁Doug	-11.5596
▁EU	-11.5596
▁escalat	-11.5598
▁foul	-11.5598
▁Annie	-11.5598
▁Prussian	-11.5598
née	-11.5599
▁Vince	-11.5601
point	-11.5605
▁ash	-11.561
▁Bolton	-11.5611
▁shops	-11.5611
▁wagon	-11.5615
▁Lightning	-11.5616
▁punch	-11.5616
▁subsid	-11.5622
▁Krishna	-11.5624
▁drainage	-11.5625
unk	-11.5627
▁lion	-11.5629
▁Kenny	-11.5634
▁outline	-11.5636
▁corpse	-11.5636
ail	-11.5637
▁Brandon	-11.5639
▁freight	-11.5639
ES	-11.564
▁Senators	-11.564
▁coffee	-11.5641
rim	-11.5641
▁Rugby	-11.5642
▁Vel	-11.5642
▁Gaza	-11.5643
▁Daniels	-11.5644
▁eleventh	-11.5648
▁denounc	-11.565
▁Porter	-11.5651
TC	-11.5653
ffer	-11.5655
▁Patton	-11.5655
▁collid	-11.5659
▁backward	-11.5659
une	-11.566
▁toxic	-11.5662
▁swamp	-11.5663
dia	-11.5665
▁Artillery	-11.5667
▁Eisenhower	-11.5667
▁Ferrari	-11.5667
▁mistaken	-11.567
bat	-11.567
▁Neu	-11.5674
▁diary	-11.5674
▁choos	-11.5676
▁Truth	-11.5677
▁contender	-11.568
▁mint	-11.5681
mur	-11.5681
▁expell	-11.5684
▁Lex	-11.5684
▁Retriev	-11.5685
▁mosque	-11.5685
arrow	-11.5687
▁entertaining	-11.569
rit	-11.5692
▁bassist	-11.5692
udi	-11.5693
▁dorsal	-11.5694
▁crater	-11.5695
aries	-11.5695
▁lemur	-11.5698
via	-11.5703
ele	-11.5703
▁117	-11.5705
▁placement	-11.5706
card	-11.5706
▁streams	-11.5706
▁cow	-11.5709
▁Lords	-11.5709
▁leather	-11.5711
▁NOK	-11.5712
▁dragon	-11.5713
▁den	-11.5715
wive	-11.5715
▁nests	-11.572
▁reprint	-11.5721
▁rotat	-11.5725
▁unpopular	-11.5729
▁predator	-11.573
▁contributor	-11.5732
▁accord	-11.5735
▁Hendrix	-11.5738
▁Syrian	-11.574
▁teen	-11.5741
▁Films	-11.5742
▁Rare	-11.5745
▁370	-11.5745
▁monks	-11.5745
▁Easter	-11.5747
▁Sometime	-11.5747
▁promising	-11.5747
▁Pirates	-11.5747
▁Jesse	-11.5748
▁diseases	-11.5751
▁disturb	-11.5751
▁gig	-11.5753
tron	-11.5754
wing	-11.5755
▁convincing	-11.5755
▁hanging	-11.5756
together	-11.5758
▁painter	-11.5759
▁contend	-11.5762
▁Distinguish	-11.5764
▁Ré	-11.5764
▁exciting	-11.5765
ographic	-11.5765
▁fever	-11.5766
▁conscious	-11.5771
▁Treasury	-11.5773
▁flashback	-11.5773
▁Java	-11.5775
▁poster	-11.5775
die	-11.5777
onia	-11.5777
▁refuge	-11.5778
▁McG	-11.5778
aur	-11.578
▁capabilit	-11.578
▁accurac	-11.5782
▁vault	-11.5782
croft	-11.5783
▁negotiate	-11.5785
view	-11.5786
▁limestone	-11.5791
▁basement	-11.5794
▁Chad	-11.5795
lip	-11.5795
▁barrack	-11.58
▁shooter	-11.5806
▁stomach	-11.5808
▁AIDS	-11.5808
SU	-11.581
▁Lodge	-11.5812
▁Franz	-11.5812
▁coaster	-11.5813
▁Warsaw	-11.5814
▁Avon	-11.5814
▁Hir	-11.5816
▁utter	-11.5817
▁Ferguson	-11.5818
uro	-11.5818
some	-11.5819
▁metals	-11.5821
ogen	-11.5822
bl	-11.5826
▁Hispanic	-11.5826
▁sanction	-11.5827
▁laying	-11.5828
▁Engineer	-11.5829
▁Pier	-11.583
▁AS	-11.5838
▁errors	-11.5838
▁planes	-11.5844
▁Bangladesh	-11.5844
▁Taxonom	-11.5844
▁Variety	-11.5844
▁forgot	-11.5845
▁tribal	-11.5845
▁negotiated	-11.5847
▁Columbus	-11.5853
▁Neptune	-11.5853
▁homage	-11.5854
▁robot	-11.5855
▁Bow	-11.5855
▁Serbs	-11.5858
▁intentional	-11.5859
▁Sussex	-11.5862
▁Britney	-11.5862
▁Source	-11.5862
▁reunit	-11.5868
▁Rice	-11.587
▁Bir	-11.587
▁relevant	-11.5871
▁goalkeeper	-11.5871
▁cultivat	-11.5872
▁enforcement	-11.5872
▁amino	-11.5874
bell	-11.5874
▁em	-11.5877
shot	-11.5883
▁Lucy	-11.5883
piece	-11.5884
▁Morton	-11.5887
▁storey	-11.589
▁260	-11.5891
wald	-11.5892
▁suburban	-11.5892
▁Dom	-11.5893
star	-11.5895
▁Linda	-11.5896
▁Reynolds	-11.5897
▁administrator	-11.5898
▁socialist	-11.5898
▁marble	-11.5898
extant	-11.5903
cum	-11.5905
55	-11.5906
lain	-11.5907
▁invention	-11.591
▁hate	-11.5912
▁Kam	-11.5912
▁mentor	-11.5917
▁blown	-11.5918
▁Close	-11.5919
▁overlap	-11.5922
▁chronicle	-11.5923
lf	-11.5924
▁proven	-11.5925
▁posed	-11.5928
▁Costa	-11.5928
▁scope	-11.5932
▁Flor	-11.5933
▁imprisonment	-11.5935
ates	-11.5936
▁Philippine	-11.5936
▁refin	-11.5938
▁Dart	-11.5938
▁Lar	-11.5939
▁disco	-11.5939
▁Step	-11.5941
▁Bud	-11.5942
▁cantata	-11.5942
▁seizure	-11.5942
▁hardware	-11.5943
▁nobility	-11.5943
▁Def	-11.5945
▁Southeast	-11.5947
▁Gol	-11.5949
▁Scotia	-11.5951
▁innovative	-11.5951
▁Beyond	-11.5951
▁Munich	-11.5952
▁bold	-11.5953
▁pac	-11.5956
▁Eugene	-11.5956
▁Lanka	-11.5956
▁consumed	-11.5957
▁Lithuania	-11.5959
▁pa	-11.596
▁shipyard	-11.5962
▁Siege	-11.5965
▁priorit	-11.5966
▁expir	-11.5966
▁twelfth	-11.5969
▁Popular	-11.597
▁Sei	-11.5972
▁Clan	-11.5972
▁tunnels	-11.5975
law	-11.5978
▁constituenc	-11.5978
▁suspicion	-11.5978
tta	-11.5981
▁Eighth	-11.5981
▁pub	-11.5982
▁presid	-11.5983
▁imagin	-11.5985
▁seasonal	-11.5987
▁commerce	-11.5987
▁incorrect	-11.5987
▁guitars	-11.5989
▁pal	-11.5997
tsu	-11.5998
▁Tara	-11.5998
▁affecting	-11.6
▁miner	-11.6
▁hostage	-11.6005
▁farms	-11.6006
95	-11.6008
▁Kay	-11.6009
cc	-11.6011
esque	-11.6013
▁maturity	-11.6014
▁referendum	-11.6014
▁Leg	-11.6016
▁analog	-11.6017
▁honours	-11.6019
▁dominate	-11.6019
▁Hebrew	-11.6024
▁shale	-11.6024
nam	-11.6025
llen	-11.603
HL	-11.6031
▁epi	-11.6032
vik	-11.6032
een	-11.6035
▁communicate	-11.6036
▁senator	-11.6037
▁Pot	-11.6037
▁Peru	-11.6041
▁prosper	-11.6041
▁Gan	-11.6041
▁bonds	-11.6041
▁Nebraska	-11.6042
▁Beast	-11.6042
▁informal	-11.6042
▁incorporat	-11.6045
▁mann	-11.6045
▁Dawn	-11.6046
inae	-11.6047
▁abolished	-11.6047
▁Wo	-11.6048
▁limitations	-11.605
▁rectang	-11.6051
▁Maple	-11.6053
▁Attack	-11.606
▁Derek	-11.6061
front	-11.6062
▁Maj	-11.6062
▁1859	-11.6064
▁fortifi	-11.6065
▁Cut	-11.6066
▁Cer	-11.6066
▁maneuvers	-11.6066
▁determin	-11.6068
▁orbital	-11.6069
▁Hammond	-11.6069
▁municipality	-11.6071
▁chicken	-11.6072
▁Nas	-11.6078
▁Rhys	-11.608
▁powder	-11.608
▁Have	-11.6081
▁illustrations	-11.6082
▁Gwen	-11.6083
court	-11.6084
▁adaptations	-11.6084
▁underlying	-11.6085
▁Chapter	-11.6087
▁Tank	-11.6088
▁Pont	-11.6089
▁Lois	-11.6092
▁missiles	-11.6093
▁Apart	-11.6094
▁renown	-11.6096
▁Rather	-11.6103
▁Saw	-11.6105
▁democrac	-11.6105
vy	-11.6107
▁Blaine	-11.6107
ED	-11.6107
▁Inn	-11.6107
▁Volt	-11.6113
▁SA	-11.6114
▁Hamburg	-11.6121
▁mu	-11.6121
▁Sunderland	-11.6124
▁Athenian	-11.6124
▁Remix	-11.6124
▁relieve	-11.6128
▁insult	-11.6128
▁Rapid	-11.613
▁decease	-11.6133
▁Volume	-11.6133
atsu	-11.6141
▁efficiency	-11.6142
▁genius	-11.6142
▁Salisbur	-11.6142
▁Kr	-11.6143
▁wool	-11.6147
▁Robertson	-11.6149
▁Neo	-11.615
▁diagnosi	-11.6151
▁Joyce	-11.6153
hy	-11.6159
▁Canberra	-11.616
▁rendition	-11.616
▁virtue	-11.616
▁Cecil	-11.6161
▁cement	-11.6163
▁mouse	-11.6163
eli	-11.6164
▁maker	-11.6165
▁sink	-11.6165
uda	-11.6165
▁excavat	-11.6167
▁adoption	-11.6169
▁define	-11.6169
▁Az	-11.617
wine	-11.6171
▁Primar	-11.6175
▁subsidiary	-11.6179
▁protective	-11.6181
cro	-11.6181
▁zoo	-11.6181
▁Midland	-11.6182
▁preservation	-11.6184
▁Hugo	-11.6186
▁Holocaust	-11.6188
▁balloon	-11.619
▁organs	-11.6194
▁vector	-11.6197
▁Fraser	-11.6198
▁topics	-11.6198
▁preview	-11.6198
▁Guards	-11.6202
▁fears	-11.6203
▁Kre	-11.6209
▁Palestinian	-11.621
▁deficit	-11.6216
▁Lie	-11.6217
▁adviser	-11.6217
pri	-11.6217
▁explod	-11.6218
▁Joel	-11.6219
▁Lesser	-11.622
▁Bomb	-11.622
▁screens	-11.6221
▁Quinn	-11.6223
▁Willie	-11.6224
▁triangle	-11.6225
▁correspondence	-11.6225
▁Kemp	-11.6225
▁intercept	-11.6233
ille	-11.6233
▁societies	-11.6234
▁binding	-11.624
AS	-11.6241
▁procedures	-11.6242
▁pigeon	-11.6243
▁Winchester	-11.6244
▁findings	-11.6244
▁acute	-11.6244
▁subtle	-11.6244
▁Karen	-11.6246
▁brass	-11.6248
▁emphasize	-11.6248
▁mus	-11.625
▁axis	-11.625
▁constitute	-11.6251
itch	-11.6252
▁summary	-11.6254
▁Jenna	-11.6255
▁1845	-11.6257
▁indication	-11.6258
▁tyre	-11.6259
▁safely	-11.6261
uf	-11.6262
▁fraud	-11.6262
▁sprint	-11.6264
▁oral	-11.6266
rt	-11.6267
ann	-11.627
▁Pack	-11.6274
08	-11.6277
aker	-11.6278
▁Pas	-11.628
▁Data	-11.6283
iff	-11.6284
▁conn	-11.6284
rn	-11.6284
▁seventeen	-11.6288
▁Sul	-11.6289
▁animator	-11.6291
▁operas	-11.6291
▁keyboard	-11.6294
ime	-11.6294
▁Angela	-11.6295
ović	-11.6296
▁Lenin	-11.6296
▁coupled	-11.6296
▁amend	-11.6297
▁sweep	-11.6299
▁tool	-11.6299
▁contrary	-11.63
▁plug	-11.63
▁1200	-11.63
▁Brighton	-11.6302
▁collaborator	-11.6302
▁rays	-11.6303
▁Tel	-11.6306
▁114	-11.6306
▁Alexandria	-11.6307
▁Assistant	-11.6309
▁Did	-11.6309
▁Whitney	-11.6309
▁breakdown	-11.6311
▁speakers	-11.6312
▁dig	-11.6314
▁Ky	-11.6315
▁sexuality	-11.6315
▁nominal	-11.6318
▁modes	-11.632
▁comfort	-11.6322
burgh	-11.6324
▁dispers	-11.6326
▁HIV	-11.6327
▁Bod	-11.6327
thi	-11.6327
fest	-11.6335
▁trunk	-11.6336
▁Timberlake	-11.6336
rou	-11.6337
▁utilit	-11.6337
ree	-11.6341
▁Torres	-11.6342
▁welcom	-11.6343
▁Destin	-11.6345
▁Petersburg	-11.6349
▁torn	-11.6352
▁pur	-11.6355
▁ESPN	-11.6355
▁heaven	-11.6355
▁interface	-11.6355
▁Wang	-11.6356
▁Bailey	-11.6356
▁Sav	-11.6357
▁inquiry	-11.6357
▁Norton	-11.6358
▁terrestrial	-11.6365
▁Wolverine	-11.6365
▁Rem	-11.6366
▁Toward	-11.637
▁availability	-11.637
▁NC	-11.6371
▁juvenile	-11.6371
▁studios	-11.6373
▁excited	-11.6374
▁hymn	-11.6374
▁Portsmouth	-11.6374
▁Omaha	-11.6374
etta	-11.6375
▁Speed	-11.6377
▁Giant	-11.6381
▁Direct	-11.6383
▁Information	-11.6393
▁Scouting	-11.6394
▁Racing	-11.6394
▁atoms	-11.6401
had	-11.6403
▁Given	-11.6405
zon	-11.6407
▁Mul	-11.641
▁embass	-11.6412
▁Ras	-11.6416
▁decommissioned	-11.6416
etti	-11.6417
▁Singh	-11.6419
▁Crow	-11.6419
▁mut	-11.642
▁fantastic	-11.6421
▁Lau	-11.6422
▁Jazz	-11.6422
▁Places	-11.6423
rina	-11.6426
▁starter	-11.6428
▁Forbes	-11.6431
▁striker	-11.6432
▁oppose	-11.6434
▁Aircraft	-11.6434
▁tear	-11.6435
▁Elliott	-11.6438
▁Change	-11.6439
▁calendar	-11.644
▁Durham	-11.6441
▁tackle	-11.6442
▁poisoning	-11.6443
▁Tab	-11.6443
nen	-11.6446
▁contaminat	-11.6448
▁keyboards	-11.6454
▁maritime	-11.6459
lag	-11.6459
▁Fiction	-11.6459
▁rode	-11.6462
▁cats	-11.6463
CI	-11.6467
▁Cow	-11.6469
rated	-11.6471
▁relegat	-11.6475
▁puppet	-11.6478
▁Austen	-11.6478
▁citizenship	-11.6478
▁Cop	-11.6479
▁1820	-11.648
▁generations	-11.6482
tia	-11.6483
▁televis	-11.6485
▁variet	-11.6487
▁primitive	-11.6487
▁Sicily	-11.6487
▁concluding	-11.6487
▁Pepper	-11.6488
▁veto	-11.6488
▁Gran	-11.6489
▁Mai	-11.649
▁Mach	-11.6491
▁intercepted	-11.6491
▁Lynn	-11.6492
▁Trial	-11.6493
self	-11.6496
▁Hoffman	-11.6497
▁gospel	-11.6497
▁Productions	-11.6497
▁Webber	-11.6498
▁helicopters	-11.65
▁Rus	-11.6501
▁slide	-11.6503
▁enforc	-11.6504
▁predecessors	-11.6504
▁Duchess	-11.6507
▁determination	-11.6508
▁dose	-11.651
▁tracking	-11.651
▁SMS	-11.6511
▁Need	-11.6511
▁Gamepla	-11.6512
▁121	-11.6514
000	-11.6514
▁superstructure	-11.6516
▁Tal	-11.6517
▁floors	-11.6519
▁edges	-11.6522
aria	-11.6523
▁brutal	-11.6524
▁comedian	-11.6525
▁merge	-11.6526
▁dump	-11.6527
▁endangered	-11.6527
▁Gin	-11.6528
▁Len	-11.6528
▁generator	-11.6528
▁plaque	-11.6535
▁sympathetic	-11.6535
pot	-11.6538
▁Holly	-11.6542
▁presum	-11.6543
chin	-11.6544
▁Gardens	-11.6544
lund	-11.6544
▁Shar	-11.6548
▁chances	-11.6553
▁Meg	-11.6554
▁Gardner	-11.6554
▁coral	-11.6554
▁Ap	-11.6556
▁countryside	-11.6558
ota	-11.656
▁alteration	-11.6561
▁107	-11.6561
born	-11.6563
▁Lat	-11.6563
▁reservation	-11.6563
▁Mumbai	-11.6563
▁Crash	-11.6564
ido	-11.6565
▁performer	-11.6567
pho	-11.657
▁bills	-11.6572
▁dominan	-11.6572
▁Bahamas	-11.6573
▁stuck	-11.6573
eal	-11.6574
▁workshop	-11.6574
▁Associat	-11.6576
▁melt	-11.6577
▁....	-11.6578
▁Met	-11.658
▁ceremonial	-11.6581
▁ve	-11.6585
ition	-11.659
▁rolling	-11.659
▁Cruz	-11.659
▁McMahon	-11.6592
▁Jose	-11.6594
▁draws	-11.6594
▁retir	-11.6597
▁Joshua	-11.6602
▁northeastward	-11.6603
▁implementation	-11.6607
▁intern	-11.6608
▁Rise	-11.661
▁smart	-11.6611
▁Bio	-11.6617
▁Dana	-11.6617
▁satisfied	-11.6618
wal	-11.6619
SS	-11.662
▁customs	-11.6626
▁floods	-11.6627
▁Rey	-11.6628
▁Broad	-11.6631
▁Fle	-11.6631
▁Tampa	-11.6633
▁1854	-11.6635
80	-11.6637
▁Pick	-11.6637
▁ancestors	-11.6638
▁skiing	-11.6639
▁Guest	-11.6639
▁Commodore	-11.664
▁Lac	-11.664
▁announce	-11.6641
▁jewel	-11.6641
▁submission	-11.6641
▁Monica	-11.6641
▁watches	-11.6642
▁IX	-11.6642
▁fees	-11.6644
▁replica	-11.6645
▁Ah	-11.6646
mine	-11.6647
▁acknowledge	-11.6648
▁Prussia	-11.6649
oro	-11.6649
▁narrator	-11.6651
▁consultant	-11.6651
▁Sad	-11.6656
▁Pearson	-11.666
▁tan	-11.6667
▁persisted	-11.6667
▁augment	-11.6669
▁Distribution	-11.667
▁Savage	-11.6671
▁chant	-11.6672
▁Lev	-11.6675
lit	-11.6675
▁frustrated	-11.6679
▁lunch	-11.6679
▁NME	-11.668
stad	-11.668
▁profits	-11.6682
▁motivation	-11.6682
▁Iraqi	-11.6682
▁Newark	-11.6683
▁1857	-11.6683
43	-11.6685
▁Barn	-11.6685
▁contingent	-11.6689
▁precursor	-11.6689
▁prominence	-11.6689
▁clever	-11.6689
sdale	-11.6689
▁trilog	-11.6695
▁Producer	-11.6696
right	-11.6696
▁Sci	-11.6696
IAA	-11.6697
▁distress	-11.6698
▁Private	-11.6699
▁lung	-11.67
oda	-11.6701
ache	-11.6702
pid	-11.6702
▁advertise	-11.6702
▁businessman	-11.6704
rod	-11.6705
▁Lopez	-11.6708
▁Quarter	-11.6708
▁immigration	-11.6709
▁MI	-11.6709
▁thermal	-11.6709
▁Jet	-11.671
tam	-11.6713
▁democratic	-11.6716
▁Rovers	-11.6718
▁shortened	-11.672
phon	-11.6724
▁Wong	-11.6725
▁flourish	-11.6728
▁Chen	-11.673
▁Joy	-11.6731
▁Maha	-11.6735
▁Denis	-11.6738
▁Sor	-11.6743
▁characteris	-11.6745
iti	-11.6745
cious	-11.6746
▁illustrate	-11.6747
▁hell	-11.6748
▁suite	-11.6748
▁encompass	-11.6749
▁Brit	-11.6751
▁Diana	-11.6754
▁median	-11.6754
▁Dame	-11.6756
▁wa	-11.6758
▁imagination	-11.6759
▁Cave	-11.6759
▁Georgian	-11.6761
▁Browns	-11.6763
▁Corn	-11.6769
▁coincid	-11.6771
▁Elder	-11.6772
▁prediction	-11.6775
▁Tha	-11.6778
▁stopping	-11.6778
▁siblings	-11.6779
▁Vic	-11.6785
▁buses	-11.6786
▁Methodist	-11.6787
▁monsters	-11.6789
▁opener	-11.6789
▁Holden	-11.6791
▁penn	-11.6793
▁Dev	-11.6796
▁ears	-11.6803
▁brush	-11.6805
▁burden	-11.6806
▁Net	-11.6806
▁derivative	-11.6806
▁bug	-11.6811
▁farmland	-11.6812
▁Disc	-11.6814
▁commemorat	-11.6816
▁Fri	-11.6816
▁Sugar	-11.6816
▁Environmental	-11.682
▁Lyon	-11.6825
▁displacement	-11.6826
▁fertil	-11.6826
▁gifts	-11.6827
▁morale	-11.6827
▁suburbs	-11.683
▁Fun	-11.683
▁worsen	-11.6831
▁Brock	-11.6832
▁larvae	-11.6834
▁Lyn	-11.6835
▁Danube	-11.6835
▁compartment	-11.6835
▁inspection	-11.6837
▁Ivy	-11.6839
yama	-11.684
▁badge	-11.6841
▁Zi	-11.6843
▁FC	-11.6844
▁flie	-11.6847
▁Arn	-11.6848
▁banner	-11.6848
▁liken	-11.6849
▁cord	-11.6854
▁Wilm	-11.6855
▁treasure	-11.6856
▁Compton	-11.6856
anti	-11.6856
▁Engineers	-11.6857
▁restart	-11.6858
▁systematic	-11.6858
eus	-11.6859
▁Claude	-11.6865
ici	-11.6868
▁ka	-11.6869
comfortable	-11.6869
▁spy	-11.687
▁graduation	-11.6872
▁surf	-11.6876
cept	-11.6877
▁neuro	-11.6878
▁hub	-11.6878
▁recreational	-11.6878
ritten	-11.6879
mod	-11.688
▁owl	-11.6884
▁isn	-11.6885
▁Fringe	-11.6885
▁superhero	-11.689
chu	-11.6892
▁overhaul	-11.6894
▁Sergeant	-11.6894
▁Dot	-11.6898
uti	-11.6902
▁Hannah	-11.6903
▁min	-11.6903
terim	-11.6905
▁ideolog	-11.6912
AM	-11.6913
▁Phantom	-11.6914
▁Gospel	-11.6914
▁Persona	-11.6915
▁320	-11.6916
tory	-11.6917
▁Pike	-11.692
iro	-11.6922
▁Julia	-11.6922
mill	-11.6922
▁Adriatic	-11.6924
▁Look	-11.6925
▁Georg	-11.6927
▁bias	-11.6928
▁angel	-11.6932
▁enthusiasm	-11.6934
▁isotopes	-11.6935
▁profession	-11.6938
▁Immediate	-11.6944
▁Spitfire	-11.6944
▁Aber	-11.6946
▁transmitt	-11.6947
▁550	-11.6951
▁seas	-11.6951
mir	-11.6952
▁Kingston	-11.6952
▁acids	-11.6953
▁cancellation	-11.6954
▁landslide	-11.6954
▁Amazon	-11.6954
▁Knowles	-11.6954
▁beer	-11.6954
▁tar	-11.6956
▁Ashley	-11.6956
vet	-11.6957
▁dull	-11.6957
▁Allan	-11.6963
▁breakthrough	-11.6964
▁registration	-11.6965
▁Table	-11.6967
▁patroll	-11.6969
ywhere	-11.6969
▁bite	-11.697
▁Evan	-11.6971
leg	-11.6972
▁hom	-11.6974
▁Dover	-11.6975
▁Left	-11.6975
▁Reid	-11.6975
▁corrupt	-11.6981
rov	-11.6983
▁charm	-11.6989
▁Antarctic	-11.699
▁dedication	-11.6994
▁Literar	-11.6994
ify	-11.6994
▁desir	-11.6994
▁Tru	-11.6995
▁Gau	-11.6997
▁isolation	-11.7001
▁oz	-11.7002
▁affirm	-11.7003
▁ballet	-11.7003
▁abrupt	-11.7003
▁nitrogen	-11.7003
▁Antille	-11.7006
▁outlets	-11.7007
▁1858	-11.7007
bald	-11.7007
▁Haven	-11.7009
▁slopes	-11.7013
▁Screen	-11.7013
▁Individual	-11.7013
▁innocent	-11.7013
▁orientation	-11.7014
▁vow	-11.7015
▁drag	-11.7017
▁spectrum	-11.7023
▁Bou	-11.7025
▁overtime	-11.7028
▁Powers	-11.7029
▁nationally	-11.7032
▁Interior	-11.7033
▁swift	-11.7033
ucci	-11.7034
▁enhance	-11.7035
▁gale	-11.704
▁bred	-11.704
▁Nag	-11.704
▁WrestleMania	-11.7043
▁Bahrain	-11.7044
▁arise	-11.7044
▁ty	-11.7048
▁Event	-11.705
▁assert	-11.7053
▁contemporari	-11.7053
▁Wheeler	-11.7054
▁Medicine	-11.7054
▁quantity	-11.7064
▁sandstone	-11.7065
▁showcase	-11.7065
tru	-11.7066
23	-11.707
▁digit	-11.707
cra	-11.7071
▁plaza	-11.7074
▁118	-11.7074
▁Idol	-11.7077
▁thank	-11.708
▁1812	-11.708
▁spiral	-11.7084
▁kidney	-11.7084
▁rubber	-11.7084
▁posts	-11.7085
▁ministr	-11.7086
▁Twin	-11.7086
▁alloy	-11.7087
▁Drew	-11.7088
▁umpire	-11.7092
omb	-11.7092
▁smuggl	-11.7094
▁intimate	-11.7094
▁Betty	-11.7094
▁vent	-11.7097
▁unst	-11.7101
▁Dai	-11.7102
▁stripe	-11.7102
▁dissent	-11.7104
▁AU	-11.7104
▁refusal	-11.7105
▁Barber	-11.7108
▁hind	-11.7108
▁Presidential	-11.711
▁constellation	-11.7114
▁entries	-11.7114
▁185	-11.7115
▁ho	-11.7116
▁Liu	-11.7118
▁SAS	-11.712
▁antibod	-11.7124
▁Rutherford	-11.7124
▁Underground	-11.7125
▁Donna	-11.7125
▁Agent	-11.7127
▁Pel	-11.7127
▁Cod	-11.7128
▁Speaker	-11.7129
▁Arms	-11.7129
▁continual	-11.713
▁variants	-11.7131
say	-11.7132
▁im	-11.7133
▁projection	-11.7134
▁joy	-11.7135
▁Wick	-11.7135
▁Bha	-11.7138
▁Level	-11.7141
▁technologies	-11.7144
▁Visual	-11.7144
▁climax	-11.7144
▁provok	-11.7145
▁explorer	-11.7145
▁Hutton	-11.7145
▁XIII	-11.7145
▁Limited	-11.7148
▁Hau	-11.7149
▁dri	-11.7151
▁doubled	-11.7152
▁Horror	-11.7154
▁demolition	-11.7154
▁pr	-11.7158
▁controll	-11.716
▁1849	-11.7161
▁solutions	-11.7161
▁insight	-11.7163
▁tract	-11.7165
▁Dynasty	-11.7165
▁grandmother	-11.7165
ulation	-11.7165
▁perimeter	-11.7165
▁Crazy	-11.7165
▁plumage	-11.7165
▁Faith	-11.7165
oga	-11.7165
▁boarding	-11.7166
▁Sebastian	-11.7166
▁retrieve	-11.7167
▁Sharon	-11.7167
▁cage	-11.7173
▁Av	-11.7174
▁persona	-11.7174
▁swallow	-11.7175
▁Alt	-11.7175
▁casemate	-11.7175
▁Leaf	-11.7175
▁Thailand	-11.7175
▁Tho	-11.7176
▁consolidat	-11.7176
▁330	-11.7177
▁Writers	-11.7179
▁reasonable	-11.718
▁Rican	-11.7182
▁Jain	-11.7184
▁gase	-11.7184
▁Halifax	-11.7185
▁inferior	-11.7185
▁jungle	-11.7185
▁jacket	-11.7186
▁Cara	-11.7186
▁medley	-11.7186
▁sitcom	-11.7187
▁offence	-11.7189
▁Kai	-11.719
▁Hick	-11.7191
▁Yard	-11.7193
▁Carte	-11.7193
▁generic	-11.7193
▁assign	-11.7194
▁Soviets	-11.7196
▁sac	-11.7196
▁pollution	-11.7196
linger	-11.7196
ography	-11.72
▁rib	-11.7201
▁Oil	-11.7202
▁assumption	-11.7205
▁inadequate	-11.7205
▁philosophical	-11.7205
▁viewer	-11.7207
▁Wade	-11.7207
▁sovereignt	-11.7208
▁202	-11.7208
▁photos	-11.721
▁Sher	-11.7212
aver	-11.7212
▁Lions	-11.7213
▁Away	-11.7217
▁Hon	-11.7222
▁violin	-11.7223
▁flags	-11.7224
wel	-11.7224
▁cite	-11.7224
▁bush	-11.7224
▁slope	-11.7225
▁hamper	-11.7226
▁Gould	-11.7226
▁occurrence	-11.7226
▁freestyle	-11.7226
▁timing	-11.7226
▁Metroid	-11.7228
▁nucleus	-11.7228
▁calci	-11.7228
rill	-11.7237
▁Erie	-11.7238
▁Complete	-11.7239
▁Wake	-11.7242
AP	-11.7242
▁submit	-11.7243
▁computers	-11.7244
▁welfar	-11.7246
▁trout	-11.7247
gui	-11.725
mul	-11.7253
▁Saudi	-11.7254
▁Echo	-11.7256
▁motive	-11.7256
▁Wizard	-11.7257
▁criteria	-11.7259
▁Freeway	-11.7259
▁Afterwards	-11.7266
▁warehouse	-11.7267
▁spar	-11.7267
▁revelation	-11.7267
▁Poly	-11.7267
▁discard	-11.7269
▁freed	-11.7271
tain	-11.7272
lau	-11.7273
sworth	-11.7274
▁dwelling	-11.7276
▁prolong	-11.7278
▁Dub	-11.7278
▁Discovery	-11.7279
▁drawings	-11.7279
▁ver	-11.728
bie	-11.7281
▁128	-11.7284
▁mess	-11.7285
▁Trafford	-11.7287
▁Bradford	-11.7288
▁Must	-11.7289
▁Rep	-11.7294
▁132	-11.7297
kon	-11.7299
▁Inde	-11.7299
rig	-11.7301
▁premise	-11.7303
▁Tina	-11.7304
▁Student	-11.7304
▁ARIA	-11.7308
▁leap	-11.7309
▁supervisor	-11.731
▁Arc	-11.731
▁organisations	-11.7316
▁tele	-11.7319
anu	-11.7319
▁Gustav	-11.7328
▁combin	-11.7329
▁Title	-11.7329
▁helmet	-11.7329
▁Jamie	-11.7333
▁terrible	-11.7333
▁Diane	-11.7334
igh	-11.7334
▁Tro	-11.7337
asi	-11.7338
▁exceeding	-11.7339
▁faithful	-11.734
▁hu	-11.7341
▁Reviewer	-11.7341
▁Clear	-11.7347
icus	-11.7348
▁lab	-11.7348
▁Norwich	-11.7349
▁improvis	-11.735
Spot	-11.7351
▁Roth	-11.7353
▁cart	-11.7355
▁hometown	-11.7356
▁Brittan	-11.736
▁discrimination	-11.7361
▁clinical	-11.7362
▁undertake	-11.7363
▁Rein	-11.7366
▁client	-11.7368
▁Lafayette	-11.737
▁trumpet	-11.737
▁Jessica	-11.737
mani	-11.7373
▁Archer	-11.7375
eman	-11.7376
▁Penguin	-11.738
▁robber	-11.738
▁palm	-11.7381
lob	-11.7381
▁Sharp	-11.7381
▁rebuilding	-11.7381
gun	-11.7381
▁pipe	-11.7389
▁Stewie	-11.7391
▁mac	-11.7391
vil	-11.7397
▁116	-11.7397
▁Clo	-11.7399
▁sued	-11.7401
▁nicknam	-11.7404
06	-11.7405
▁Negro	-11.7406
▁gills	-11.7406
▁tired	-11.7408
tom	-11.7409
▁Brother	-11.7409
▁Gore	-11.741
wyn	-11.741
▁fog	-11.7413
▁highlights	-11.7414
▁archaeologist	-11.7416
▁pretend	-11.7417
▁Ir	-11.7417
LA	-11.7419
▁recipient	-11.7421
▁Von	-11.7422
▁Sleep	-11.7422
jar	-11.7422
▁Romans	-11.7426
▁Color	-11.7426
nk	-11.7426
▁sparse	-11.7427
hn	-11.7428
▁hitter	-11.7428
▁Prison	-11.7429
▁choices	-11.7429
▁dolphin	-11.7432
▁Rochester	-11.7433
▁eager	-11.7433
▁worthy	-11.7433
▁blog	-11.7433
▁Dre	-11.7433
▁lecture	-11.7434
▁launching	-11.7436
ddy	-11.7438
▁Weber	-11.7439
▁Structure	-11.7443
▁Less	-11.7447
shan	-11.7452
▁clearing	-11.7453
▁cease	-11.7454
▁650	-11.7457
ein	-11.7459
▁Wait	-11.746
cellular	-11.746
▁testifie	-11.7461
▁122	-11.7463
▁Happy	-11.7464
▁abstract	-11.7464
▁unrest	-11.7464
▁Joker	-11.7465
▁marker	-11.7465
▁Emine	-11.7466
▁Cru	-11.7466
IC	-11.7468
▁barb	-11.7471
▁iconic	-11.7472
▁automobile	-11.7474
▁Fel	-11.7477
▁encouraging	-11.7477
▁Evening	-11.7479
ander	-11.748
▁Bos	-11.7484
▁vest	-11.7484
▁stamp	-11.7486
ake	-11.7487
nna	-11.7487
nate	-11.7489
▁uncertaint	-11.7489
▁poetic	-11.749
gno	-11.7491
▁Parks	-11.7494
▁Era	-11.7494
▁Farmer	-11.7495
▁Canadiens	-11.7495
▁monsoon	-11.7495
▁Height	-11.7499
▁cheer	-11.75
▁Match	-11.7503
▁confiscat	-11.7506
▁Wyatt	-11.7506
▁Fil	-11.7506
▁reads	-11.7507
▁Flash	-11.7507
▁facilitate	-11.7507
▁ancestor	-11.7508
lli	-11.7508
▁Eagles	-11.7515
▁Anglican	-11.7516
▁Brunswick	-11.7516
▁Hokie	-11.7516
▁Cohen	-11.7518
▁chains	-11.7518
▁Mori	-11.7523
▁Boyd	-11.7524
▁Lance	-11.7525
sium	-11.7525
▁destin	-11.7526
▁Made	-11.7526
▁Behind	-11.7527
▁Carpenter	-11.7527
▁Preparation	-11.7527
▁gesture	-11.7527
▁purple	-11.7527
▁regret	-11.7527
▁fence	-11.7529
▁ACC	-11.7531
boy	-11.7531
▁McN	-11.7534
▁developments	-11.7535
▁Giro	-11.7536
▁manuscripts	-11.7537
▁jam	-11.7537
▁stereotype	-11.7537
▁tiger	-11.7538
▁Cornell	-11.7539
▁mortality	-11.7539
cer	-11.7539
▁deer	-11.754
▁CIA	-11.7541
▁Birds	-11.7541
▁chambers	-11.7543
ught	-11.7543
▁Greene	-11.7544
▁Thorpe	-11.7548
▁Chal	-11.7549
▁enforce	-11.755
ovny	-11.755
▁Shakir	-11.755
ult	-11.7552
▁annex	-11.7557
▁Harbour	-11.7558
▁Oppenheimer	-11.7558
▁Perfect	-11.7558
▁physicist	-11.756
EF	-11.7561
▁Gates	-11.7563
▁Erik	-11.7566
▁Middlese	-11.7569
▁Forever	-11.7569
▁nationwide	-11.7569
▁Julie	-11.757
▁1852	-11.7572
▁barn	-11.7573
▁integr	-11.7574
▁Louisville	-11.7575
▁bail	-11.7577
▁lament	-11.7577
▁chick	-11.7577
▁Hindi	-11.7578
▁medication	-11.758
▁tales	-11.7581
ration	-11.7583
▁deadline	-11.7585
▁amid	-11.7585
▁devastat	-11.7587
▁Annual	-11.759
▁indoor	-11.7591
▁lady	-11.7591
▁MC	-11.7591
cott	-11.7594
▁remnant	-11.7595
▁colonist	-11.7597
▁Thursday	-11.7601
▁spontaneous	-11.7601
▁radioactive	-11.7601
▁Recent	-11.7603
▁Mou	-11.7604
▁mutation	-11.7604
▁Hum	-11.7605
▁capability	-11.7605
▁Ari	-11.7606
▁sovereign	-11.7609
▁Gy	-11.7612
▁bread	-11.7612
▁accomplishment	-11.7614
▁revert	-11.7614
▁Fight	-11.7614
▁chip	-11.7616
kes	-11.7616
▁gal	-11.7618
▁Yoshi	-11.7618
▁heating	-11.7619
▁Verde	-11.7619
oa	-11.762
▁clo	-11.7621
▁polish	-11.7622
▁beds	-11.7623
92	-11.7626
aceae	-11.7628
ault	-11.7628
Reilly	-11.7628
▁betray	-11.7628
rup	-11.7629
▁Hyde	-11.7632
▁foster	-11.7632
▁Fellow	-11.7633
▁hollow	-11.7633
▁Yankov	-11.7633
iac	-11.7634
▁practic	-11.7635
▁Brett	-11.764
▁lord	-11.7641
▁dy	-11.7641
ncy	-11.7642
▁Better	-11.7642
▁Nolan	-11.7643
▁Volunteer	-11.7643
tine	-11.7643
AD	-11.7645
uga	-11.7647
ör	-11.7648
▁1847	-11.7648
▁cricketer	-11.7648
▁sophisticat	-11.7651
▁adventures	-11.7653
▁Miguel	-11.7654
▁reproduction	-11.7654
▁breath	-11.7657
▁concurrenc	-11.7659
▁goaltender	-11.7664
▁Technical	-11.7664
▁denomination	-11.7665
▁gravel	-11.7666
lee	-11.7667
▁Mot	-11.7671
▁drunk	-11.7672
▁Fernand	-11.7676
▁Lebanon	-11.7677
OS	-11.7678
▁Milton	-11.7679
▁announc	-11.7679
▁1855	-11.768
▁Path	-11.7681
▁broadside	-11.7682
▁Kiel	-11.7686
▁barge	-11.7687
▁melodi	-11.7691
▁devil	-11.7694
▁fatalit	-11.7695
gl	-11.7695
▁Heat	-11.77
▁Fine	-11.77
IA	-11.7703
▁particle	-11.7705
▁AI	-11.7705
▁sensor	-11.7706
▁Loch	-11.7706
▁Concern	-11.7707
▁enterprise	-11.7707
mol	-11.7708
63	-11.7708
▁Fuji	-11.7711
▁complexity	-11.7711
mere	-11.7715
▁Lexington	-11.7718
▁tro	-11.7723
NA	-11.7724
▁exhibits	-11.7725
eaten	-11.7725
▁grants	-11.7725
▁Cover	-11.7728
ulu	-11.7729
enko	-11.7731
▁Falcon	-11.7732
▁Michaels	-11.7733
gor	-11.7735
▁Strike	-11.7735
eanwhile	-11.7736
wer	-11.7737
▁stump	-11.7739
▁Socialist	-11.774
▁Cedar	-11.7741
1856	-11.7742
▁Lars	-11.7745
eum	-11.7746
▁Jets	-11.7747
▁abundance	-11.775
▁cottage	-11.775
▁humour	-11.775
▁conceded	-11.7751
hem	-11.7752
▁reply	-11.7752
▁Cinema	-11.7754
▁1846	-11.7755
▁analyst	-11.7756
azi	-11.7759
▁luxur	-11.7761
▁Rupert	-11.7761
vic	-11.7763
▁Stern	-11.7763
▁helium	-11.7764
mates	-11.7766
▁Speak	-11.7768
▁Kha	-11.7768
BC	-11.7771
▁Damascus	-11.7772
▁Hundred	-11.7772
▁coronation	-11.7772
▁Hastings	-11.7772
▁Hun	-11.7773
amo	-11.7775
▁siz	-11.7775
▁Fen	-11.7778
▁crowds	-11.778
▁orbits	-11.7781
▁Viking	-11.7781
wn	-11.7782
▁unconscious	-11.7783
▁resemblance	-11.7784
▁cod	-11.7788
▁viral	-11.7788
▁colleges	-11.7789
▁Kind	-11.7792
▁Humphrey	-11.7793
▁Hampton	-11.7794
▁offspring	-11.7794
▁nesting	-11.7796
▁diesel	-11.7797
lian	-11.7797
▁swim	-11.7799
▁Spa	-11.7799
▁guerrilla	-11.7804
▁victorious	-11.7804
▁dreams	-11.7804
▁doll	-11.7806
▁assured	-11.7808
▁Hur	-11.7809
▁hung	-11.7809
▁imply	-11.7811
▁Grande	-11.7811
▁labell	-11.7814
▁miniature	-11.7815
▁dioxide	-11.7815
▁cheek	-11.7816
▁resource	-11.7816
▁cure	-11.782
▁san	-11.7821
▁Alons	-11.7823
▁1832	-11.7826
▁Gear	-11.7831
▁harder	-11.7835
▁prose	-11.7836
▁charting	-11.7836
▁Sanskrit	-11.7837
▁Stockholm	-11.7837
▁Sai	-11.7838
▁judg	-11.7839
▁Kit	-11.7843
slav	-11.7844
izz	-11.7844
▁141	-11.7847
boat	-11.7847
active	-11.7847
▁definitive	-11.7848
▁ingredient	-11.7848
▁fires	-11.7857
▁trails	-11.7857
▁Use	-11.7857
▁dismissal	-11.7858
▁hiatus	-11.7859
▁ankle	-11.7866
crosse	-11.7869
▁reddish	-11.7869
▁Chetnik	-11.787
▁bicycle	-11.787
▁Cool	-11.7871
▁mourn	-11.7872
▁drops	-11.7872
▁fragment	-11.7872
▁Tele	-11.7874
▁Henri	-11.7875
▁devised	-11.7878
hang	-11.788
▁Academic	-11.788
▁intensive	-11.788
▁Halloween	-11.788
zan	-11.7881
▁pagan	-11.7881
ago	-11.7882
▁Por	-11.7886
▁elimination	-11.7889
▁Covenant	-11.7891
▁Thirty	-11.7891
▁Specie	-11.7891
▁interfer	-11.7892
▁persistent	-11.7892
▁Give	-11.7892
nin	-11.7894
▁shake	-11.7898
▁Mod	-11.79
▁Language	-11.7902
cz	-11.7905
▁Raider	-11.7908
▁cooler	-11.7908
▁contractor	-11.7909
▁murders	-11.7909
▁Ada	-11.7912
▁Saints	-11.7913
▁Safety	-11.7913
▁oath	-11.7914
▁mega	-11.7916
▁138	-11.7917
▁Crew	-11.7917
pet	-11.7918
quest	-11.792
▁Lauren	-11.7921
vers	-11.7921
51	-11.7922
▁courage	-11.7923
▁Albanian	-11.7923
▁smash	-11.7924
75	-11.7924
▁feedback	-11.7925
▁livestock	-11.7926
▁Fuller	-11.7927
▁proto	-11.7928
▁crossover	-11.7928
▁princess	-11.793
HA	-11.7931
▁disput	-11.7933
▁infra	-11.7934
▁accusations	-11.7934
▁Brisbane	-11.7935
▁Adolf	-11.7935
▁Mansfield	-11.7935
▁lend	-11.7936
▁intervene	-11.7942
▁forget	-11.7945
▁Bog	-11.7945
IT	-11.7946
▁Approximate	-11.7946
▁Minneapolis	-11.7946
▁Shackleton	-11.7946
▁humorous	-11.7948
▁drill	-11.7949
▁Sing	-11.7954
▁Aside	-11.7954
▁Crime	-11.7957
▁Full	-11.7957
▁frontal	-11.796
▁Mit	-11.7961
▁polls	-11.7963
▁Pay	-11.7963
▁Seas	-11.7967
dri	-11.7968
▁Meredith	-11.7968
▁namely	-11.797
tr	-11.7972
▁va	-11.7973
▁Animal	-11.7974
nica	-11.7978
smith	-11.7979
▁abbey	-11.7979
▁empower	-11.7979
▁Dogget	-11.798
▁backdrop	-11.798
uv	-11.7982
▁Chin	-11.7983
▁consum	-11.7987
WA	-11.7989
▁Worcester	-11.799
▁Scientific	-11.799
▁remaster	-11.7995
53	-11.7995
▁Bergen	-11.7996
▁Cardinal	-11.7996
▁omitt	-11.7997
ovich	-11.8
woman	-11.8001
▁119	-11.8002
▁Election	-11.8002
▁centres	-11.8005
▁posthumously	-11.8006
▁Wel	-11.8006
▁Charter	-11.8006
ule	-11.801
▁camouflage	-11.8012
▁sleeve	-11.8012
▁Coalition	-11.8012
▁EMI	-11.8013
▁pride	-11.8013
tica	-11.8014
▁Animation	-11.8014
▁dramatical	-11.8015
▁Witch	-11.8017
▁eighteenth	-11.8018
▁peers	-11.8018
▁skilled	-11.8019
stage	-11.802
▁Winston	-11.802
▁caps	-11.802
▁renovat	-11.8021
▁presumabl	-11.8026
▁1853	-11.8027
▁restrict	-11.803
force	-11.8031
▁profound	-11.8035
▁metaphor	-11.8038
▁curricul	-11.8039
▁Tea	-11.804
NT	-11.804
▁Abd	-11.8044
▁dish	-11.8045
ility	-11.8045
▁Wildlife	-11.8046
▁install	-11.8048
▁Lay	-11.8048
▁Imp	-11.8053
▁Warwick	-11.8054
▁Guam	-11.8055
▁boxes	-11.8057
▁doubles	-11.8058
▁Mol	-11.8059
▁phases	-11.8059
NG	-11.806
▁replay	-11.8061
NS	-11.8064
▁Mart	-11.8067
▁stalk	-11.8068
▁Investigation	-11.8068
▁mating	-11.807
▁Baja	-11.807
lid	-11.8072
▁Zeld	-11.8072
▁melodic	-11.8074
cap	-11.8075
SP	-11.8077
▁compose	-11.8077
tim	-11.8079
▁scratch	-11.8079
▁Armour	-11.808
ozo	-11.808
▁Beatty	-11.8081
▁calculation	-11.8084
▁Numero	-11.8087
equality	-11.8087
vol	-11.8088
▁pistol	-11.809
nder	-11.8092
▁catalogue	-11.8092
▁Sz	-11.8094
▁Juliet	-11.8097
▁heroine	-11.8099
▁Yale	-11.81
▁counterpart	-11.81
▁stanza	-11.8101
▁Smart	-11.8101
▁froze	-11.8102
▁clone	-11.8102
▁bike	-11.8104
care	-11.8105
tun	-11.8107
▁comparisons	-11.8109
▁Hel	-11.8111
▁Ara	-11.8112
▁Leopold	-11.8112
▁recipe	-11.8112
▁Transit	-11.8112
▁Cherry	-11.8114
▁operators	-11.8115
▁Shane	-11.8115
▁surgeon	-11.8121
▁grenade	-11.8123
▁thread	-11.8124
▁Colbert	-11.8124
▁elevator	-11.8124
gau	-11.8125
▁statistical	-11.8127
▁Being	-11.8128
▁Supporting	-11.8128
▁Sr	-11.8131
▁reliabl	-11.8134
▁jealous	-11.8134
▁Orlando	-11.8134
▁thrill	-11.8136
▁metallic	-11.814
▁observing	-11.8146
▁propulsi	-11.8146
berry	-11.8146
▁periodical	-11.8147
▁institute	-11.8147
eller	-11.8147
▁Tsar	-11.8151
▁makeup	-11.8151
▁Rosen	-11.8156
▁brood	-11.8157
▁Pad	-11.8158
▁Ride	-11.8161
▁conven	-11.8168
▁lineage	-11.8168
▁molar	-11.8168
Neill	-11.8172
▁sacked	-11.8178
▁Seymour	-11.8179
▁abortion	-11.818
▁cooking	-11.8184
▁penalt	-11.8187
▁complaint	-11.8188
▁conform	-11.8189
▁trainer	-11.819
▁Kapoor	-11.8191
▁wildlife	-11.8191
▁limbs	-11.8192
▁mon	-11.8194
▁periodic	-11.8194
▁Cubs	-11.8197
▁descriptions	-11.8198
▁Dexter	-11.8202
▁unprecedented	-11.8202
▁adverse	-11.8202
gli	-11.8204
▁pond	-11.8207
▁u	-11.8208
▁shirts	-11.8208
▁Note	-11.8208
▁fungi	-11.821
▁CA	-11.8212
▁Deal	-11.8212
▁degenerat	-11.8214
pology	-11.8215
owski	-11.8216
▁Manila	-11.8217
▁Erin	-11.8219
▁Working	-11.8221
▁Spur	-11.8222
▁Sn	-11.8224
▁Crisi	-11.8224
▁zinc	-11.8224
▁solitar	-11.8225
▁module	-11.8225
▁Arrow	-11.8226
▁Sandy	-11.8227
▁visuals	-11.823
▁Cant	-11.823
▁Fast	-11.8232
▁1841	-11.8232
▁pile	-11.8233
▁shade	-11.8235
▁Knox	-11.8236
▁comparative	-11.8236
cite	-11.8237
teau	-11.824
▁republic	-11.8244
▁Troop	-11.8244
▁Darre	-11.8245
▁Taka	-11.8245
▁Previous	-11.8247
▁Carroll	-11.8248
▁Dixon	-11.8248
▁framework	-11.8248
▁dragg	-11.8249
▁Campus	-11.825
atch	-11.825
▁Oakland	-11.825
▁comeback	-11.8251
▁Warriors	-11.8252
▁reus	-11.8254
▁Add	-11.8254
▁curse	-11.8256
▁temper	-11.8264
mura	-11.8266
▁Blade	-11.8267
▁constitut	-11.8269
▁Sinatra	-11.827
▁everyday	-11.8272
▁overthrow	-11.8273
▁Mala	-11.8274
los	-11.8276
▁Hammer	-11.8278
▁frames	-11.8279
▁fins	-11.8279
omys	-11.828
▁reclaim	-11.8282
▁strikeout	-11.8283
▁kidnapp	-11.8285
▁bark	-11.8285
▁Jackie	-11.8285
▁tent	-11.8287
▁Ill	-11.8287
▁Vir	-11.8289
▁leas	-11.8291
▁Plain	-11.8291
▁ancestry	-11.8292
▁Albion	-11.8292
▁fare	-11.8293
▁certificate	-11.8293
ecology	-11.8293
▁courtyard	-11.8294
▁Magnus	-11.8296
▁novelist	-11.83
▁Casting	-11.8301
▁justifi	-11.8301
▁Believe	-11.8303
▁Belgrade	-11.8304
▁ba	-11.8305
▁cinematic	-11.8305
▁Fly	-11.8307
▁horns	-11.8312
entity	-11.8312
▁tablet	-11.8313
▁Kaz	-11.8314
▁Hemingway	-11.8315
▁Harding	-11.8317
oso	-11.8318
▁hypha	-11.8319
▁Welles	-11.8321
▁Cage	-11.8321
▁si	-11.8322
continental	-11.8325
▁Angels	-11.8325
▁Lip	-11.8325
▁Victory	-11.8327
num	-11.8328
▁optical	-11.833
▁accounting	-11.8331
▁1844	-11.8332
chel	-11.8332
▁synonym	-11.8337
▁clusters	-11.8337
▁stiff	-11.8338
▁smell	-11.8338
▁confession	-11.8339
▁altar	-11.8341
▁Tap	-11.8341
▁overnight	-11.8343
▁Haiti	-11.8347
▁hack	-11.8348
▁roofs	-11.8349
42	-11.8349
▁befriend	-11.8349
▁frustration	-11.8349
▁urging	-11.835
▁satire	-11.835
▁Troy	-11.835
▁integration	-11.8352
▁Self	-11.8354
▁soccer	-11.8361
▁Boot	-11.8361
▁Mani	-11.8362
▁patronage	-11.8363
▁dug	-11.8363
▁reside	-11.8363
▁Ferry	-11.8364
▁oblig	-11.8365
▁Rand	-11.8365
▁tire	-11.8368
rre	-11.837
▁pianist	-11.8372
ttle	-11.8373
▁Estate	-11.8377
ways	-11.8379
▁Valentine	-11.8379
▁Bede	-11.8381
▁integral	-11.8381
▁drives	-11.8381
▁Hai	-11.8382
▁supernatural	-11.8384
▁weird	-11.8384
▁Barton	-11.8384
▁JMA	-11.8386
▁Duck	-11.8391
▁fond	-11.8396
▁Dawson	-11.8396
▁maiden	-11.8398
▁MGM	-11.8398
▁probe	-11.8399
flu	-11.8399
▁Solo	-11.84
▁euro	-11.8401
▁cry	-11.8401
vat	-11.8402
▁137	-11.8403
▁composing	-11.8404
▁Vick	-11.8405
▁chao	-11.8406
▁Guerrero	-11.8407
kha	-11.8407
▁bulb	-11.8408
▁gallon	-11.8409
oco	-11.8411
▁obscure	-11.8411
▁scales	-11.8414
▁bust	-11.8414
▁Eyes	-11.8416
▁Vita	-11.8416
▁contemplat	-11.8418
▁Kannada	-11.8418
▁Fey	-11.8419
▁Survivor	-11.8419
▁Northeast	-11.842
▁cro	-11.8425
▁Eb	-11.8425
▁Challenge	-11.8425
▁Lab	-11.8427
▁hinder	-11.8428
alis	-11.843
▁Eleanor	-11.843
▁Pradesh	-11.843
▁overturn	-11.843
▁repuls	-11.843
MC	-11.8431
▁cheat	-11.8431
▁dressing	-11.8432
akh	-11.8432
▁Seth	-11.8434
itude	-11.8435
enburg	-11.8435
▁fus	-11.8435
▁maybe	-11.8436
▁defining	-11.8437
▁laser	-11.8437
▁listeners	-11.8438
gro	-11.8438
▁idol	-11.8444
▁1790	-11.8446
▁overwhelm	-11.8447
▁resid	-11.8449
▁Conan	-11.845
▁liberat	-11.8451
▁173	-11.8451
▁taxi	-11.8451
▁ditch	-11.8452
▁maternal	-11.8453
▁Bronze	-11.8453
▁analyz	-11.8453
▁Monk	-11.8454
▁Getty	-11.8456
gas	-11.8457
▁1776	-11.8458
gie	-11.846
▁archbishop	-11.8464
▁supervision	-11.8468
▁realism	-11.847
▁Stor	-11.847
igo	-11.8474
▁onset	-11.8475
▁Spe	-11.8475
▁crazy	-11.8476
▁turnpike	-11.8476
▁Cliff	-11.8476
▁facial	-11.8479
screen	-11.848
Cube	-11.8482
▁chronic	-11.8484
▁keeper	-11.8485
▁Bala	-11.8485
▁lac	-11.8486
▁Wednesday	-11.8488
▁congressional	-11.8488
▁gasoline	-11.8488
▁Wisden	-11.8488
▁126	-11.8488
▁screw	-11.8488
▁Bag	-11.849
▁Abdul	-11.8491
93	-11.8492
▁Massa	-11.8496
ops	-11.8497
▁Present	-11.8498
▁slipp	-11.8499
▁afraid	-11.8499
▁McLaren	-11.85
▁Touch	-11.8502
▁Mak	-11.8503
▁biology	-11.8504
▁dealer	-11.8504
▁Eva	-11.8505
agi	-11.8506
▁pad	-11.8506
▁knife	-11.8506
▁sided	-11.8508
put	-11.8509
▁receptor	-11.8511
▁dismantl	-11.8511
▁Clyde	-11.8511
▁Ox	-11.8512
▁tears	-11.8512
ević	-11.8514
▁till	-11.8515
▁bare	-11.8516
lett	-11.8516
▁Sud	-11.8516
▁beta	-11.8517
▁Maggi	-11.8517
▁Cas	-11.8518
▁gag	-11.8521
yard	-11.8522
▁tidal	-11.8522
SM	-11.8523
kka	-11.8525
▁moor	-11.8529
iko	-11.8529
▁Sanders	-11.853
issa	-11.8531
▁1837	-11.8531
▁Webb	-11.8532
litz	-11.8533
▁Rom	-11.8534
▁Pala	-11.8535
▁Shark	-11.8535
▁persecution	-11.8535
vie	-11.8537
▁menu	-11.8538
▁naturalist	-11.8543
▁ladder	-11.8546
▁asteroid	-11.8546
phen	-11.8548
bourne	-11.8549
▁nav	-11.8549
▁Support	-11.855
▁aunt	-11.8551
▁Pho	-11.8552
▁Bet	-11.8553
▁Wen	-11.8553
▁investigator	-11.8554
▁Arabia	-11.8555
▁Comb	-11.8556
▁Amazing	-11.8557
▁Telugu	-11.8557
▁drought	-11.8558
▁retrospective	-11.8558
▁pillar	-11.8558
▁Guatemala	-11.8559
▁Hep	-11.8559
▁Flower	-11.8559
▁sculptor	-11.856
▁Blackburn	-11.8561
▁Very	-11.8564
▁Chain	-11.8567
▁Juda	-11.8567
▁Vishnu	-11.8569
▁elongat	-11.8569
▁Brewer	-11.8569
▁ju	-11.857
▁neutron	-11.857
▁Brun	-11.8572
▁filling	-11.8573
rand	-11.8575
▁Cav	-11.8577
▁architects	-11.8578
▁Federer	-11.8581
▁grace	-11.8581
▁Congo	-11.8581
ía	-11.8582
▁translate	-11.8588
▁continuation	-11.8589
▁Broadcast	-11.8589
▁awkward	-11.8592
▁Webster	-11.8593
▁Traditional	-11.8594
▁correspondent	-11.8594
▁prosecutor	-11.8597
mbo	-11.8597
▁vol	-11.8598
▁Bil	-11.8601
▁sulfur	-11.8604
rama	-11.8605
▁shutout	-11.8605
▁Sheriff	-11.8606
▁prone	-11.8613
▁undermine	-11.8614
▁vacant	-11.8616
▁flock	-11.8617
▁fairy	-11.8621
▁shower	-11.8622
lim	-11.8625
▁Ang	-11.8625
gil	-11.8626
▁summoned	-11.8627
▁Wimbledon	-11.8628
▁Zagreb	-11.8628
▁fraction	-11.8628
▁Lambert	-11.863
▁GameSp	-11.863
▁hangar	-11.8631
▁rises	-11.8632
oku	-11.8634
▁deity	-11.8637
▁col	-11.8637
▁Trent	-11.8637
▁diplomat	-11.864
▁collar	-11.864
▁masterpiece	-11.864
▁reunion	-11.8641
▁heroic	-11.8643
▁ATP	-11.8646
▁handful	-11.8648
▁fad	-11.8649
▁flavor	-11.8651
▁partisan	-11.8651
▁wit	-11.8655
▁embrace	-11.8655
rought	-11.8658
▁ob	-11.866
▁Sales	-11.8661
▁Bend	-11.8662
▁textile	-11.8665
▁Conrad	-11.8665
▁gravitational	-11.8666
▁Kel	-11.8667
▁Representative	-11.8667
EA	-11.8668
kill	-11.8669
▁inspect	-11.867
▁mound	-11.8675
▁Biography	-11.8675
▁catche	-11.8676
gio	-11.8678
▁affection	-11.8683
▁Casa	-11.8683
▁recreation	-11.8683
▁portraits	-11.8685
▁Rei	-11.8686
▁Sparta	-11.8687
▁Gazette	-11.8687
▁prestigious	-11.8687
▁troubled	-11.8689
▁Legal	-11.8689
73	-11.8689
▁Pole	-11.8689
▁plat	-11.8691
▁Batt	-11.8693
▁Matilda	-11.8699
▁verdict	-11.8699
▁Qua	-11.8701
▁Dee	-11.8702
▁snake	-11.8704
opo	-11.8705
▁catalog	-11.8708
▁Lad	-11.871
▁discourage	-11.871
▁envision	-11.8711
▁AR	-11.8713
▁Cla	-11.8714
▁summon	-11.8716
▁Communications	-11.8717
▁clade	-11.8721
83	-11.8722
▁incumbent	-11.8722
ural	-11.8723
▁Kom	-11.8725
▁Ode	-11.8726
▁Students	-11.8727
▁tables	-11.8729
▁168	-11.873
▁Orkney	-11.8734
▁energetic	-11.8734
▁IUC	-11.8734
▁immense	-11.8734
▁vigorous	-11.8734
▁Expo	-11.8736
▁Honey	-11.8737
▁passages	-11.8738
bid	-11.8738
▁detection	-11.8738
MP	-11.8739
▁fu	-11.8743
▁Fork	-11.8744
▁Yang	-11.8747
MG	-11.8749
▁starboard	-11.8749
AL	-11.8752
▁dialect	-11.8753
▁Wave	-11.8753
CR	-11.8754
▁Syracus	-11.8758
▁Tolkien	-11.8758
▁Trinidad	-11.8758
▁bunker	-11.8758
▁ineffective	-11.8758
▁nutrient	-11.8758
▁endemic	-11.8758
▁Vision	-11.876
▁lectures	-11.876
▁bas	-11.8763
fl	-11.8763
suke	-11.8764
▁Bab	-11.8765
▁Warrior	-11.8765
▁revolve	-11.8767
▁Jill	-11.8767
▁Legislative	-11.877
▁Heinrich	-11.877
▁breathing	-11.877
▁spectacular	-11.877
▁realise	-11.877
▁scarce	-11.8771
▁Expressway	-11.8771
▁debat	-11.8773
▁trenche	-11.8779
▁remixes	-11.878
▁ram	-11.8781
▁Shawn	-11.8782
▁ecological	-11.8782
acy	-11.8784
▁167	-11.8787
ctor	-11.8788
▁1839	-11.8788
hil	-11.8791
▁Dorothy	-11.8794
▁technological	-11.8794
▁Crosby	-11.8794
▁urge	-11.8796
▁happening	-11.8798
rak	-11.8798
▁mantle	-11.8799
▁muscles	-11.8799
▁Flow	-11.8805
▁fuselage	-11.8806
▁tragedy	-11.8806
▁reproductive	-11.8806
▁Voyager	-11.8808
▁Finals	-11.881
lde	-11.8812
▁195	-11.8812
rip	-11.8815
▁RBI	-11.8816
▁hik	-11.8818
▁Pluto	-11.8818
▁Architecture	-11.8818
▁spray	-11.8818
▁papal	-11.882
▁Classical	-11.8822
▁460	-11.8825
▁boil	-11.8825
▁keeps	-11.8828
▁suck	-11.8828
▁bankruptc	-11.8828
▁Sinclair	-11.883
▁lunar	-11.883
▁Felix	-11.883
▁gram	-11.883
▁123	-11.8831
▁vacation	-11.8832
▁Put	-11.8834
▁Sesam	-11.8837
▁rag	-11.884
▁Gaelic	-11.8842
▁Hutchinson	-11.8842
▁Bf	-11.8844
▁Airways	-11.8844
itz	-11.8844
▁steamer	-11.8845
▁rendering	-11.8847
▁barr	-11.8851
itu	-11.8854
▁Khrushchev	-11.8854
▁Slayer	-11.8854
nian	-11.8854
▁devastating	-11.8854
▁counterparts	-11.8855
▁Keys	-11.8855
▁evaluation	-11.8856
▁Sat	-11.8859
▁Messi	-11.8863
wee	-11.8866
▁practis	-11.8866
▁curtain	-11.8866
▁pipeline	-11.8866
dez	-11.8868
▁reporters	-11.8871
RO	-11.8874
▁Fitz	-11.8878
▁Joey	-11.8879
▁trench	-11.8881
▁cope	-11.8881
vent	-11.8884
▁embrac	-11.8886
▁recognise	-11.8886
▁dia	-11.8887
ket	-11.8887
▁wise	-11.8888
▁affiliat	-11.8889
▁iPhone	-11.889
▁motorcycle	-11.889
▁stack	-11.889
▁Complex	-11.889
▁faint	-11.889
▁Auburn	-11.889
▁surfaces	-11.8891
▁terminated	-11.8892
▁depos	-11.8893
▁heated	-11.8896
▁nobles	-11.8896
▁Gat	-11.89
▁viruses	-11.8901
▁valve	-11.8902
eff	-11.8903
wig	-11.8905
▁Matsu	-11.8911
▁pedestrian	-11.8914
▁Krusty	-11.8914
▁Planning	-11.8914
▁cavit	-11.8915
▁Dorset	-11.8915
▁Midway	-11.8915
▁rebound	-11.8916
▁Barb	-11.8918
▁unnecessary	-11.8919
▁mod	-11.892
▁imagine	-11.8923
lac	-11.8924
bur	-11.8925
▁merchandise	-11.8925
▁quantum	-11.8926
▁vinyl	-11.8926
▁grape	-11.8926
▁Vernon	-11.8926
▁Ville	-11.8928
fr	-11.8928
▁notorious	-11.8928
oper	-11.893
▁invade	-11.893
▁Clem	-11.8936
▁Zimbabwe	-11.8938
jima	-11.8938
pod	-11.8941
▁Pon	-11.8942
▁monopol	-11.8943
makers	-11.8944
▁consume	-11.8946
inn	-11.8947
▁Squad	-11.895
▁tobacco	-11.8951
▁conception	-11.8951
▁thirteenth	-11.8953
WR	-11.8955
▁Thur	-11.8958
▁sketche	-11.8959
▁Herzegovina	-11.8962
▁Wembley	-11.8962
▁nave	-11.8963
▁exam	-11.8966
▁amphibious	-11.8967
illes	-11.8969
▁beache	-11.8969
own	-11.8971
▁marginal	-11.8971
▁Arch	-11.8973
hana	-11.8973
▁Chesapeak	-11.8975
▁Avenger	-11.8975
▁pier	-11.8976
▁seating	-11.8976
▁pardon	-11.8976
▁alumni	-11.8976
▁Border	-11.8976
▁awaken	-11.8978
▁stealing	-11.8979
▁Beau	-11.8981
▁Southwest	-11.8986
▁congress	-11.8987
▁uncommon	-11.8987
▁Fighting	-11.8987
MT	-11.8988
▁Kids	-11.8989
▁Ob	-11.8989
gni	-11.8993
▁Extra	-11.8993
▁pathway	-11.8995
▁Basil	-11.8996
▁Wan	-11.8996
▁Wyoming	-11.8999
lio	-11.8999
▁Wanderers	-11.9
▁Ming	-11.9001
pat	-11.9003
▁slate	-11.9006
▁Lil	-11.9007
▁riots	-11.9008
▁Ful	-11.9008
▁Roe	-11.9009
▁Rough	-11.901
▁subplot	-11.9011
▁repeal	-11.9011
▁sperm	-11.9013
▁airplane	-11.9013
▁Comp	-11.9014
▁Croat	-11.9016
▁traffick	-11.9017
▁1835	-11.9017
▁Spi	-11.902
lig	-11.9021
illi	-11.9021
▁verb	-11.9022
▁Leipzig	-11.9023
▁Ut	-11.9024
▁Sixth	-11.9024
▁detain	-11.9026
ao	-11.903
▁compelling	-11.9031
▁fri	-11.9033
▁disappointing	-11.9036
▁prostitute	-11.9036
▁Warning	-11.904
▁Slam	-11.9043
▁Locke	-11.9043
▁Egg	-11.9044
shima	-11.9047
▁Christina	-11.9047
▁militant	-11.9048
▁Shannon	-11.9049
▁happens	-11.9053
▁124	-11.9055
▁Nazis	-11.9055
▁equit	-11.9058
▁Agreement	-11.906
▁Undertaker	-11.906
▁treason	-11.906
▁intensification	-11.9061
▁cheese	-11.9061
▁forever	-11.9061
eta	-11.9061
▁Borg	-11.9062
▁Booker	-11.9062
▁binary	-11.9062
▁Tide	-11.9064
▁1799	-11.9066
▁Jump	-11.9067
▁Wide	-11.9068
▁autonom	-11.9069
▁prevail	-11.9071
▁Shanghai	-11.9073
jin	-11.9076
▁Sla	-11.9078
▁hydro	-11.9079
▁blade	-11.9081
▁Journey	-11.9085
▁Declaration	-11.9085
▁Randolph	-11.9085
▁Scene	-11.9085
vid	-11.9086
▁NWA	-11.9087
▁Esc	-11.9091
▁wolf	-11.9094
eno	-11.9095
quer	-11.9096
▁cardinal	-11.9097
▁Smash	-11.9097
▁summ	-11.9097
cke	-11.9098
▁Tasmania	-11.9099
pra	-11.91
▁Cobb	-11.9103
▁alpha	-11.9103
▁Mortal	-11.9104
▁Ran	-11.9109
sbury	-11.911
▁relegation	-11.9113
▁tun	-11.9113
orum	-11.9114
▁Spike	-11.9116
▁utilize	-11.9117
▁Barrow	-11.9118
▁305	-11.9121
▁Aberdeen	-11.9122
▁Galveston	-11.9122
▁Offensive	-11.9122
▁rematch	-11.9122
▁carriage	-11.9126
▁lamp	-11.9126
link	-11.9128
▁pat	-11.9128
mag	-11.913
▁rejection	-11.913
▁Kot	-11.9132
elo	-11.9132
▁Persians	-11.9132
▁conc	-11.9133
▁rebuild	-11.9134
▁Hits	-11.9134
▁plasma	-11.9134
▁aquatic	-11.9134
▁Chemical	-11.9134
fjord	-11.9135
▁behave	-11.9137
▁Dio	-11.9139
▁1838	-11.9141
▁analyse	-11.9143
powder	-11.9144
▁wheels	-11.9144
▁Achievement	-11.9147
▁trunkline	-11.9147
▁Til	-11.9148
▁Ace	-11.9151
ür	-11.9152
▁Diva	-11.9153
▁Clarkson	-11.9154
▁Goodman	-11.9155
bet	-11.9156
▁Ain	-11.9157
▁gains	-11.9157
▁Twilight	-11.9159
▁pamphlet	-11.9159
▁repetitive	-11.9159
▁tremendous	-11.9159
▁Vladimir	-11.9159
▁spill	-11.916
▁Sign	-11.9161
wrapped	-11.9161
▁ignit	-11.9162
▁Sil	-11.9162
▁Pha	-11.9166
hel	-11.9166
ih	-11.9167
▁Bates	-11.917
▁Providence	-11.9171
▁Plains	-11.9173
▁posting	-11.9177
▁unwilling	-11.918
▁Ett	-11.9183
▁Ng	-11.9183
▁furniture	-11.9184
▁Letter	-11.9186
▁mobilit	-11.9187
▁Crusader	-11.9187
▁Moreno	-11.919
▁Phase	-11.9191
▁Fal	-11.9192
▁panic	-11.9194
dis	-11.9197
▁Silent	-11.9197
▁Hipper	-11.9197
▁Chess	-11.9201
▁unbeaten	-11.9202
▁uniforms	-11.9202
▁Effects	-11.9202
▁interfere	-11.9203
escu	-11.9204
nick	-11.9208
▁Ambassador	-11.9209
▁LGBT	-11.9209
▁visibility	-11.9209
▁Exeter	-11.9209
▁Slant	-11.9209
▁precedent	-11.9212
▁Gai	-11.9213
▁summariz	-11.9213
▁1829	-11.9215
▁wears	-11.9216
lets	-11.9219
▁stud	-11.9219
▁Clare	-11.9219
▁Duff	-11.922
▁globe	-11.9221
▁reappear	-11.9221
▁Bayern	-11.9221
▁tram	-11.9223
ulous	-11.9224
▁Belt	-11.9225
▁Mara	-11.9231
▁Folk	-11.9232
tat	-11.9232
▁Syn	-11.9232
▁Pitchfork	-11.9234
▁Exchange	-11.9234
▁Shepherd	-11.9234
ocene	-11.9234
gat	-11.9235
▁litter	-11.9237
▁Dome	-11.9237
▁saga	-11.9241
amp	-11.9242
▁cliff	-11.9245
▁Parish	-11.9246
▁stint	-11.9246
▁supernova	-11.9246
RT	-11.9247
▁Lam	-11.9247
▁surname	-11.9247
▁MCC	-11.9248
▁Alder	-11.9251
tag	-11.9252
▁melting	-11.9256
▁isotope	-11.9256
▁fiscal	-11.9259
▁scroll	-11.9259
▁Trevor	-11.9259
▁Emergenc	-11.9259
lton	-11.9259
▁rub	-11.9263
▁sounding	-11.9264
▁mills	-11.9264
▁tournaments	-11.9264
▁Institution	-11.9266
▁Watts	-11.9267
▁Carson	-11.9268
▁speaks	-11.9269
▁Julius	-11.9271
▁Geography	-11.9271
▁XII	-11.9272
▁claw	-11.9272
▁shout	-11.9273
▁Davidson	-11.9274
get	-11.9276
▁outflow	-11.9277
▁odds	-11.9279
tie	-11.9279
▁clinic	-11.928
worthy	-11.9282
▁regulat	-11.9283
▁Testament	-11.9284
GS	-11.9284
pal	-11.9285
bil	-11.9285
▁Something	-11.9286
▁statues	-11.9287
▁Kenya	-11.9288
▁likewise	-11.9289
▁corners	-11.9292
▁reorganiz	-11.9294
▁olive	-11.9296
▁sparrow	-11.9297
▁strick	-11.9297
▁vowel	-11.9298
▁Styles	-11.93
▁glu	-11.9302
▁1842	-11.9307
▁poets	-11.9308
▁pray	-11.9308
▁sculptures	-11.9309
▁Boone	-11.9309
▁Cannon	-11.9309
▁inflation	-11.9311
▁unifi	-11.9312
▁formats	-11.9313
▁129	-11.9316
▁relic	-11.9316
▁angles	-11.9318
▁duel	-11.9318
▁norm	-11.9319
▁Wollstonecraft	-11.9321
▁cockpit	-11.9321
▁weighing	-11.9322
▁unchang	-11.9322
▁Glory	-11.9322
works	-11.9324
1836	-11.9327
▁Looking	-11.9328
vit	-11.933
▁Detective	-11.9334
▁fountain	-11.9334
▁pension	-11.9334
▁graph	-11.9335
rel	-11.9337
▁Mini	-11.9342
▁favourabl	-11.9344
▁copi	-11.9347
▁Ukraine	-11.9347
▁liberty	-11.9347
▁exotic	-11.9347
▁Germanic	-11.9347
▁Smok	-11.9347
▁kid	-11.9347
▁pigment	-11.9348
▁denot	-11.9348
▁rigid	-11.9348
▁Brooke	-11.9349
▁Salford	-11.935
pit	-11.935
▁disposal	-11.935
▁bend	-11.9351
▁Nico	-11.9352
▁compensate	-11.9353
▁gem	-11.9355
▁authoris	-11.9355
▁worm	-11.9356
▁410	-11.9356
oke	-11.9357
▁disastrous	-11.9359
▁Jesuit	-11.936
▁verbal	-11.936
▁Aston	-11.9364
▁Cri	-11.9367
▁moistur	-11.9367
▁admiral	-11.9369
▁restor	-11.9369
▁terrace	-11.937
leigh	-11.937
▁originate	-11.9371
▁480	-11.9371
▁Naka	-11.9372
▁Tak	-11.9372
▁Religion	-11.9372
▁eponymous	-11.9372
▁Empress	-11.9372
beck	-11.9373
▁alike	-11.9374
▁Lana	-11.9374
▁144	-11.9376
▁balanced	-11.9383
▁Battery	-11.9385
▁bubble	-11.9385
▁amidship	-11.9385
▁martin	-11.9386
▁Pil	-11.9387
ilo	-11.9391
NC	-11.9396
▁Mode	-11.9396
▁ODI	-11.9397
▁Nigel	-11.9399
▁Dunn	-11.9401
▁artifacts	-11.9402
▁Ladies	-11.9402
▁attach	-11.9405
mut	-11.9406
▁Kun	-11.9406
▁separat	-11.9407
▁potas	-11.9408
▁pavilion	-11.941
▁Municipal	-11.941
▁Bombay	-11.941
▁sandwich	-11.9411
▁reprise	-11.9414
▁Dock	-11.9415
▁Try	-11.9415
▁pig	-11.9417
▁Said	-11.9418
ame	-11.9418
CU	-11.942
▁anarchist	-11.9423
ctic	-11.9424
▁Rating	-11.9425
▁Killer	-11.9425
▁magnet	-11.9425
▁outward	-11.9426
▁sheriff	-11.9427
▁Artists	-11.9427
▁Coll	-11.9431
▁Nicole	-11.9432
▁shin	-11.9435
▁Copenhagen	-11.9435
▁Glacier	-11.9435
▁Northumberland	-11.9435
mercury	-11.9436
▁granite	-11.9436
▁Regular	-11.9436
▁pl	-11.9437
▁Tub	-11.9437
▁cop	-11.9438
ija	-11.9438
▁static	-11.9441
▁Sale	-11.9441
▁attest	-11.9442
walk	-11.9447
▁renumbering	-11.9447
▁Presbyterian	-11.9448
▁robust	-11.9448
▁destructive	-11.9448
▁economical	-11.945
ride	-11.9451
▁procession	-11.9454
lik	-11.9454
▁Ai	-11.9455
▁slaughter	-11.9456
▁synthesiz	-11.9458
▁Noble	-11.9459
▁AIF	-11.9459
▁Bin	-11.946
▁1801	-11.946
▁academy	-11.9461
▁agenda	-11.9461
▁boast	-11.9461
▁Yucat	-11.9463
▁156	-11.9465
▁appreciation	-11.9465
lav	-11.9466
▁inscribed	-11.9468
▁Sche	-11.947
▁Chambers	-11.947
rot	-11.9471
▁distributor	-11.9473
▁Paint	-11.9477
▁NES	-11.9477
▁1843	-11.9479
▁legendar	-11.9479
lick	-11.9482
▁Cretaceous	-11.9487
▁convex	-11.9487
▁storytell	-11.9487
▁lightning	-11.9488
GA	-11.9489
▁PR	-11.9489
▁Beta	-11.9489
▁Till	-11.9492
▁Kumar	-11.9494
▁LA	-11.9495
▁guardian	-11.9495
▁dishe	-11.9496
late	-11.9498
▁unrelat	-11.9499
▁Metallica	-11.9499
▁database	-11.95
▁Diet	-11.9504
▁Europa	-11.9508
▁deplet	-11.951
▁Transylvania	-11.9512
for	-11.9513
▁Idaho	-11.9513
▁Search	-11.9513
▁Bloom	-11.9514
▁Elvis	-11.9514
▁1815	-11.952
PD	-11.9521
▁Corr	-11.9524
▁Characters	-11.9525
▁Advisor	-11.9525
▁Winnipeg	-11.9525
▁Eleven	-11.9525
▁antenna	-11.9526
▁township	-11.9526
▁Gur	-11.9528
▁Pul	-11.9529
▁Wool	-11.9529
▁Herman	-11.9529
▁boo	-11.9529
▁flatten	-11.953
▁Vale	-11.9531
anto	-11.9533
▁substrate	-11.9538
▁rerout	-11.9538
▁otter	-11.954
▁index	-11.954
▁stellar	-11.9541
▁casual	-11.9542
▁Cairo	-11.9543
▁Than	-11.9544
▁USAF	-11.9545
▁coinage	-11.9545
▁Woo	-11.9549
▁Ned	-11.9551
▁hostilities	-11.9551
▁Taft	-11.9552
▁Beauty	-11.9552
▁Pla	-11.9553
▁Bono	-11.9555
▁reissue	-11.9555
tip	-11.9556
▁rip	-11.9556
▁penetrate	-11.9557
▁Bosnian	-11.9557
dell	-11.9559
▁Armor	-11.956
▁revive	-11.956
▁protesters	-11.9561
▁tutor	-11.9563
▁Ober	-11.9563
▁Galaxy	-11.9564
▁Converse	-11.9564
▁Middleton	-11.9564
▁dislike	-11.9565
oun	-11.9565
hoe	-11.9569
▁Walsh	-11.9569
▁Noel	-11.9571
pic	-11.9571
▁mandate	-11.9572
fight	-11.9577
▁swor	-11.9577
▁tides	-11.9577
▁Gir	-11.9578
▁fox	-11.9578
▁bro	-11.9579
omi	-11.958
▁arches	-11.9581
▁Ska	-11.9589
▁Nile	-11.9589
▁Economy	-11.959
▁Appeals	-11.959
▁Fac	-11.959
▁airplay	-11.9594
▁throws	-11.9595
tick	-11.9596
▁Animals	-11.9596
▁Scr	-11.9596
▁lighthouse	-11.96
▁Shock	-11.96
▁Progress	-11.9602
▁cuisine	-11.9603
▁imminent	-11.9603
▁inherent	-11.9603
▁Malaysian	-11.9603
▁Policy	-11.9603
▁Physical	-11.9603
▁Isabella	-11.9603
▁nude	-11.9604
▁lu	-11.9605
▁accession	-11.9605
▁Hamm	-11.9606
hol	-11.961
post	-11.9614
▁shy	-11.9619
uxiliary	-11.962
▁columnist	-11.9624
▁Rest	-11.9628
▁ignore	-11.9628
▁Observatory	-11.9629
▁companions	-11.963
▁missionaries	-11.9632
▁Factor	-11.9633
rik	-11.9634
RI	-11.9635
asco	-11.9636
▁Cell	-11.9637
▁emigrat	-11.9639
▁prints	-11.9639
▁Brain	-11.9641
▁supreme	-11.9642
▁Memphi	-11.9642
▁microphone	-11.9642
unda	-11.9642
▁Casino	-11.9642
▁Ibn	-11.9642
▁choreography	-11.9647
aca	-11.9648
vey	-11.965
▁depriv	-11.9653
▁Experience	-11.9655
▁Relations	-11.9655
▁outskirt	-11.9655
▁mascot	-11.9655
▁furious	-11.9655
▁Cock	-11.9656
▁Weston	-11.9657
▁wetland	-11.9658
▁Rao	-11.9659
▁stronghold	-11.966
▁Swa	-11.9661
▁divorc	-11.9662
wide	-11.9663
▁146	-11.9664
▁Help	-11.9666
▁canyon	-11.9669
▁crust	-11.967
▁oval	-11.9671
▁shoes	-11.9673
▁Neville	-11.9678
▁marching	-11.9681
▁Tuesday	-11.9681
▁Nero	-11.9683
▁propell	-11.9684
▁Iranian	-11.9684
▁Llan	-11.9686
▁Course	-11.9691
▁allegiance	-11.9694
▁ROK	-11.9694
▁SK	-11.9694
▁passionate	-11.9695
gger	-11.9695
▁exert	-11.9696
▁pp	-11.9696
yu	-11.9697
▁1794	-11.9698
▁1809	-11.9699
▁850	-11.9699
▁enjoyable	-11.9703
scape	-11.9704
▁baptism	-11.9705
▁Elm	-11.9706
▁Einstein	-11.9707
▁Commerce	-11.9707
▁Platinum	-11.9707
▁Randall	-11.9707
oj	-11.9707
▁hypo	-11.9709
▁interception	-11.9709
▁cruis	-11.971
▁holy	-11.971
tak	-11.9712
▁Stanton	-11.9712
▁1798	-11.9713
iq	-11.9714
anus	-11.9715
▁Shankar	-11.9716
▁Combined	-11.9716
▁Sm	-11.9718
▁Seventh	-11.9719
▁Influence	-11.972
▁Venetian	-11.972
▁practitioner	-11.972
▁infinite	-11.972
▁Smyth	-11.972
▁parachute	-11.9721
oxide	-11.9722
▁mounting	-11.9725
▁sur	-11.9727
▁defendant	-11.9728
wear	-11.9728
▁diocese	-11.9729
tum	-11.973
▁eruptions	-11.973
▁consoles	-11.9731
▁Levine	-11.9732
▁downward	-11.9732
▁commissioner	-11.9732
▁Financial	-11.9733
▁Promotion	-11.9733
▁Revival	-11.9733
▁Madras	-11.9734
▁Rotten	-11.9734
▁Tudor	-11.9734
visible	-11.9736
face	-11.9737
▁Mariah	-11.9737
▁reinstat	-11.9737
▁Stark	-11.9737
rock	-11.9738
ngel	-11.9739
▁235	-11.9739
▁Boom	-11.974
▁interven	-11.974
keeper	-11.974
▁pod	-11.9745
apa	-11.9745
▁outage	-11.9746
▁sophomore	-11.9746
▁Fab	-11.9748
hPa	-11.9752
▁coincide	-11.9752
▁Heroes	-11.9756
▁hotels	-11.9758
▁Cartoon	-11.9759
▁guess	-11.976
▁Vis	-11.9761
▁primate	-11.9762
▁Gaming	-11.9762
▁upstream	-11.9762
ike	-11.9763
▁Priv	-11.9763
▁Frost	-11.9764
▁Mitch	-11.9765
▁erod	-11.9765
▁Landing	-11.9766
oria	-11.9768
heroes	-11.9768
▁Hag	-11.977
▁fiber	-11.9773
▁temperate	-11.9773
▁indie	-11.9774
▁Alexandra	-11.9779
▁Bard	-11.9782
▁Factory	-11.9784
ulus	-11.9785
▁Agriculture	-11.9786
▁Illustrated	-11.9786
▁magistrate	-11.9786
odon	-11.9786
▁problematic	-11.9786
▁Dayton	-11.9787
▁Mickey	-11.9787
kk	-11.9788
▁Phillip	-11.979
IP	-11.9791
▁Acros	-11.9791
▁Strange	-11.9791
▁footballer	-11.9792
▁stemm	-11.9794
▁meta	-11.9798
▁patche	-11.9799
▁Bismarck	-11.9799
▁Restoration	-11.9799
▁cylindrical	-11.9799
▁pseudonym	-11.9799
▁dissolution	-11.9799
▁Habsburg	-11.9799
▁Godwin	-11.9799
▁boycott	-11.9799
▁Vermont	-11.98
odo	-11.98
▁Broken	-11.9803
▁Earp	-11.9803
▁lyric	-11.9803
▁probable	-11.9805
▁380	-11.9805
cca	-11.9806
▁Lt	-11.9806
mission	-11.9807
zel	-11.981
▁Moffat	-11.9812
▁slender	-11.9812
▁Pix	-11.9813
▁barrage	-11.9813
▁coffin	-11.9813
▁Barack	-11.9814
▁Mut	-11.9815
▁Pale	-11.9816
▁Hin	-11.9817
chon	-11.9823
▁rabbit	-11.9825
▁prolific	-11.9825
▁Flat	-11.9825
▁truncat	-11.9826
▁basal	-11.9826
▁prevalent	-11.9826
▁geological	-11.9829
▁monk	-11.983
nthology	-11.983
PP	-11.983
▁stallion	-11.9831
PL	-11.9831
FA	-11.9833
▁acquir	-11.9835
▁Ple	-11.9836
▁astronaut	-11.9839
▁Sarawak	-11.9839
▁postseason	-11.984
▁boring	-11.984
▁starv	-11.9841
▁Marion	-11.9842
▁Serv	-11.9842
▁Workers	-11.9847
▁compress	-11.985
▁wan	-11.9851
sday	-11.9851
▁slogan	-11.9852
▁grammar	-11.9852
▁painful	-11.9854
▁Greenland	-11.9855
▁classroom	-11.9855
▁Mona	-11.9855
▁Rivera	-11.9855
▁bind	-11.986
CD	-11.986
▁Erle	-11.9863
dine	-11.9865
▁Holiday	-11.9865
▁incarnation	-11.9865
▁necessitat	-11.9868
▁Hasset	-11.9869
▁plateau	-11.9869
▁Doom	-11.9869
▁Af	-11.987
▁Wilde	-11.987
ood	-11.987
▁Alec	-11.9872
▁critique	-11.9873
CO	-11.9873
▁Rag	-11.9874
▁Qa	-11.9877
▁rework	-11.9877
▁Nat	-11.9877
▁rhyme	-11.9879
▁entertain	-11.9879
▁psychedelic	-11.9879
▁Harald	-11.9879
▁chronicler	-11.9885
▁devotion	-11.9886
▁Highland	-11.9887
▁Merc	-11.9887
▁Pakistani	-11.9889
▁Locat	-11.9891
▁spoil	-11.9892
▁forbidden	-11.9892
▁Batista	-11.9892
pil	-11.9893
▁Gott	-11.9894
▁aims	-11.9896
reafter	-11.9897
▁Zen	-11.9897
bia	-11.9898
▁Proto	-11.9898
▁158	-11.9899
▁Barker	-11.9902
storm	-11.9902
▁Lyrical	-11.9903
org	-11.9904
▁Clarence	-11.9906
ifying	-11.991
▁emergence	-11.9912
▁bounc	-11.9915
▁Luther	-11.9918
bow	-11.9918
[...]
